{
  "version": "1.0",
  "truncation": null,
  "padding": null,
  "added_tokens": [
    {
      "id": 0,
      "content": "[unk]",
      "single_word": false,
      "lstrip": false,
      "rstrip": false,
      "normalized": false,
      "special": true
    },
    {
      "id": 1,
      "content": "[eos]",
      "single_word": false,
      "lstrip": false,
      "rstrip": false,
      "normalized": false,
      "special": true
    }
  ],
  "normalizer": null,
  "pre_tokenizer": {
    "type": "ByteLevel",
    "add_prefix_space": true,
    "trim_offsets": true,
    "use_regex": true
  },
  "post_processor": null,
  "decoder": {
    "type": "ByteLevel",
    "add_prefix_space": true,
    "trim_offsets": true,
    "use_regex": true
  },
  "model": {
    "type": "BPE",
    "dropout": null,
    "unk_token": "[unk]",
    "continuing_subword_prefix": null,
    "end_of_word_suffix": null,
    "fuse_unk": false,
    "byte_fallback": false,
    "ignore_merges": false,
    "vocab": {
      "[unk]": 0,
      "[eos]": 1,
      "!": 2,
      "\"": 3,
      "#": 4,
      "$": 5,
      "%": 6,
      "&": 7,
      "'": 8,
      "(": 9,
      ")": 10,
      "*": 11,
      "+": 12,
      ",": 13,
      "-": 14,
      ".": 15,
      "/": 16,
      "0": 17,
      "1": 18,
      "2": 19,
      "3": 20,
      "4": 21,
      "5": 22,
      "6": 23,
      "7": 24,
      "8": 25,
      "9": 26,
      ":": 27,
      ";": 28,
      "<": 29,
      "=": 30,
      ">": 31,
      "?": 32,
      "@": 33,
      "A": 34,
      "B": 35,
      "C": 36,
      "D": 37,
      "E": 38,
      "F": 39,
      "G": 40,
      "H": 41,
      "I": 42,
      "J": 43,
      "K": 44,
      "L": 45,
      "M": 46,
      "N": 47,
      "O": 48,
      "P": 49,
      "Q": 50,
      "R": 51,
      "S": 52,
      "T": 53,
      "U": 54,
      "V": 55,
      "W": 56,
      "X": 57,
      "Y": 58,
      "Z": 59,
      "[": 60,
      "\\": 61,
      "]": 62,
      "^": 63,
      "_": 64,
      "a": 65,
      "b": 66,
      "c": 67,
      "d": 68,
      "e": 69,
      "f": 70,
      "g": 71,
      "h": 72,
      "i": 73,
      "j": 74,
      "k": 75,
      "l": 76,
      "m": 77,
      "n": 78,
      "o": 79,
      "p": 80,
      "q": 81,
      "r": 82,
      "s": 83,
      "t": 84,
      "u": 85,
      "v": 86,
      "w": 87,
      "x": 88,
      "y": 89,
      "z": 90,
      "|": 91,
      "~": 92,
      "¡": 93,
      "£": 94,
      "¥": 95,
      "¦": 96,
      "¨": 97,
      "©": 98,
      "¬": 99,
      "º": 100,
      "»": 101,
      "¼": 102,
      "¾": 103,
      "Â": 104,
      "Ã": 105,
      "â": 106,
      "ã": 107,
      "é": 108,
      "ĉ": 109,
      "Ċ": 110,
      "Ġ": 111,
      "Ģ": 112,
      "Ī": 113,
      "ī": 114,
      "ĳ": 115,
      "Ĵ": 116,
      "ĵ": 117,
      "Ķ": 118,
      "ĸ": 119,
      "ĺ": 120,
      "Ļ": 121,
      "ľ": 122,
      "Ġt": 123,
      "Ġa": 124,
      "in": 125,
      "ou": 126,
      "Ġw": 127,
      "Ġs": 128,
      "he": 129,
      "re": 130,
      "Ġm": 131,
      "on": 132,
      "..": 133,
      "Ġc": 134,
      "Ġi": 135,
      "ll": 136,
      "Ġy": 137,
      "Ġto": 138,
      "ĠI": 139,
      "ha": 140,
      "Ġb": 141,
      "or": 142,
      "ing": 143,
      "Ġd": 144,
      "Ġyou": 145,
      "er": 146,
      "Ġf": 147,
      "Ġl": 148,
      "Ġn": 149,
      "Ġg": 150,
      "nd": 151,
      "Ġp": 152,
      "Ġthe": 153,
      "Ġu": 154,
      "an": 155,
      "ve": 156,
      "om": 157,
      "es": 158,
      "at": 159,
      "ow": 160,
      "ay": 161,
      "et": 162,
      "ar": 163,
      "ĠT": 164,
      "it": 165,
      "ĠS": 166,
      "ed": 167,
      "st": 168,
      "en": 169,
      "Ġo": 170,
      "...": 171,
      "ot": 172,
      "ĠH": 173,
      "Ġha": 174,
      "le": 175,
      "Ġin": 176,
      "ĠW": 177,
      "is": 178,
      "Ġh": 179,
      "hat": 180,
      "Ġme": 181,
      "all": 182,
      "ĠC": 183,
      "ĠA": 184,
      "Ġon": 185,
      "Ġand": 186,
      "ly": 187,
      "Ġe": 188,
      "Ġis": 189,
      "as": 190,
      "Ġre": 191,
      "ĠY": 192,
      "ic": 193,
      "Ġit": 194,
      "ĠN": 195,
      "ke": 196,
      "ĠM": 197,
      "Ġth": 198,
      "Ġfor": 199,
      "Ġof": 200,
      "00": 201,
      "al": 202,
      "Ġ2": 203,
      "Ġbe": 204,
      "id": 205,
      "ĠD": 206,
      "oo": 207,
      "ut": 208,
      "gh": 209,
      "ĠU": 210,
      "ĠB": 211,
      "ac": 212,
      "ill": 213,
      "Ġwe": 214,
      "ome": 215,
      "Ġmy": 216,
      "ri": 217,
      "im": 218,
      "ĠO": 219,
      "Ġhe": 220,
      "Ġyour": 221,
      "Ġst": 222,
      "ĠP": 223,
      "ĠG": 224,
      "am": 225,
      "ent": 226,
      "Ġ1": 227,
      "Ġse": 228,
      "ad": 229,
      "xt": 230,
      "ght": 231,
      "out": 232,
      "Ġthat": 233,
      "Ġ&": 234,
      "Ġhave": 235,
      "ver": 236,
      "Ġr": 237,
      "op": 238,
      "ĠF": 239,
      "one": 240,
      "ust": 241,
      "Ġcall": 242,
      "'s": 243,
      "Ġk": 244,
      "Ġan": 245,
      "Ġj": 246,
      "Ġli": 247,
      "Ġgo": 248,
      "Ġdo": 249,
      "ld": 250,
      "Ġ0": 251,
      "ĠL": 252,
      "Ġcan": 253,
      "se": 254,
      "ch": 255,
      "Ġor": 256,
      "ith": 257,
      "ry": 258,
      "Ġne": 259,
      "Ġare": 260,
      "Ġ4": 261,
      "Ġat": 262,
      "50": 263,
      "ob": 264,
      "Ġnot": 265,
      "Ġget": 266,
      "lt": 267,
      "Ġso": 268,
      "Ġnow": 269,
      "'m": 270,
      "hen": 271,
      "ĠYou": 272,
      "Ġwith": 273,
      "un": 274,
      "ant": 275,
      "ion": 276,
      "pp": 277,
      "Ġte": 278,
      "'t": 279,
      "ess": 280,
      "ont": 281,
      "ir": 282,
      "Ġwill": 283,
      "Ġfr": 284,
      "il": 285,
      "ight": 286,
      "nt": 287,
      "ct": 288,
      "Ġlo": 289,
      "Â£": 290,
      "Ġur": 291,
      "Ġsh": 292,
      "gt": 293,
      "Ġas": 294,
      "ur": 295,
      "ce": 296,
      "Ġup": 297,
      "ge": 298,
      "ood": 299,
      "day": 300,
      "Ġkn": 301,
      "ĠR": 302,
      "ake": 303,
      "Ġ8": 304,
      "Ġwor": 305,
      "Ġbut": 306,
      "ĠÂ£": 307,
      "her": 308,
      "Ġout": 309,
      "th": 310,
      "Ġpl": 311,
      "han": 312,
      "#&": 313,
      ";#&": 314,
      "ep": 315,
      "ter": 316,
      "ate": 317,
      "Ġal": 318,
      "our": 319,
      "ore": 320,
      "Ġknow": 321,
      "ĠJ": 322,
      "ol": 323,
      "ab": 324,
      "Ġpr": 325,
      "Ġfrom": 326,
      "Ġ.": 327,
      "ea": 328,
      "ine": 329,
      "um": 330,
      "ile": 331,
      "us": 332,
      "ould": 333,
      ":)": 334,
      "Ġwh": 335,
      "Ġ08": 336,
      "Ġv": 337,
      "Ġwhen": 338,
      "el": 339,
      "ĠNo": 340,
      "Ġany": 341,
      "ĠE": 342,
      "ear": 343,
      "os": 344,
      "Ġjust": 345,
      "king": 346,
      "Ġif": 347,
      "if": 348,
      "Ġall": 349,
      "Ġthis": 350,
      "ime": 351,
      "Ġlike": 352,
      "est": 353,
      "ice": 354,
      "'ll": 355,
      "Ġab": 356,
      "ive": 357,
      "Ġday": 358,
      "Ġgot": 359,
      "very": 360,
      "EE": 361,
      "Ġam": 362,
      "ĠHe": 363,
      "Ġwant": 364,
      "ĠHa": 365,
      "end": 366,
      "Ġwas": 367,
      "ree": 368,
      "Ġcome": 369,
      "ck": 370,
      "art": 371,
      "ack": 372,
      "la": 373,
      "Ġthere": 374,
      "ink": 375,
      "Ġ?": 376,
      "Ġtime": 377,
      "ind": 378,
      "Ġcom": 379,
      "Ġwee": 380,
      "Ġno": 381,
      "ĠWe": 382,
      "ĠCall": 383,
      "90": 384,
      "ĠIt": 385,
      "ud": 386,
      "ers": 387,
      "Ġsome": 388,
      "Ġ3": 389,
      "ain": 390,
      "ally": 391,
      "Ġsp": 392,
      "Ġsu": 393,
      "iss": 394,
      "000": 395,
      "and": 396,
      "ĠOk": 397,
      "IN": 398,
      "Ġwhat": 399,
      "ard": 400,
      "are": 401,
      "Ġfe": 402,
      "ĠK": 403,
      "ĠÃ": 404,
      "here": 405,
      "ick": 406,
      "Ġtext": 407,
      "Ġthen": 408,
      "Ġneed": 409,
      "ĠHow": 410,
      "Ġonly": 411,
      "71": 412,
      "od": 413,
      "Ġlove": 414,
      "ite": 415,
      "Ġ...": 416,
      "oy": 417,
      "Ġsend": 418,
      "Ġby": 419,
      "obile": 420,
      "Ġlor": 421,
      "Ġlat": 422,
      "ĠFR": 423,
      "sg": 424,
      "Ġhome": 425,
      "ast": 426,
      "Ġabout": 427,
      "ish": 428,
      "Ġgood": 429,
      "xx": 430,
      "ber": 431,
      "em": 432,
      "orry": 433,
      "red": 434,
      "reat": 435,
      "Ġone": 436,
      "ON": 437,
      "ound": 438,
      "age": 439,
      "Ġph": 440,
      "Ġ090": 441,
      "Ġweek": 442,
      "ase": 443,
      "Ġgoing": 444,
      "ait": 445,
      "Ġco": 446,
      "Ġda": 447,
      "Ġdid": 448,
      "ame": 449,
      "fe": 450,
      "ning": 451,
      "Ġhow": 452,
      "ĠThe": 453,
      "ĠDo": 454,
      "pt": 455,
      "Ġok": 456,
      ":-": 457,
      "ec": 458,
      "qu": 459,
      "uy": 460,
      "Ġback": 461,
      "ra": 462,
      "Ġsm": 463,
      "Ġar": 464,
      "Ġwat": 465,
      "ong": 466,
      "Ġthink": 467,
      "Ġsee": 468,
      "70": 469,
      "ady": 470,
      "Ġsa": 471,
      "Ġstill": 472,
      "ie": 473,
      "Ġmin": 474,
      "ope": 475,
      "Ġrep": 476,
      "ĠBut": 477,
      "ĠV": 478,
      "ig": 479,
      "ving": 480,
      "Ġsay": 481,
      "Ġoff": 482,
      "Ġask": 483,
      "ls": 484,
      "res": 485,
      "ĠIf": 486,
      "Ġdon": 487,
      "Ġher": 488,
      "row": 489,
      "Ġaf": 490,
      "Ġaw": 491,
      "Ġmu": 492,
      "Ġ5": 493,
      "act": 494,
      "ĠTh": 495,
      "lease": 496,
      "ect": 497,
      "Ġits": 498,
      "ĠFREE": 499,
      "NT": 500,
      "Ġour": 501,
      "Ġtoday": 502,
      "Ġtell": 503,
      "Ġlater": 504,
      "na": 505,
      "ĠTo": 506,
      "riend": 507,
      "ort": 508,
      "Ġfree": 509,
      "ĠWhat": 510,
      "Ġ\"": 511,
      "Ġ*": 512,
      "ub": 513,
      "Ġma": 514,
      "Ġtoo": 515,
      "Ġbeen": 516,
      "!!": 517,
      "ost": 518,
      "Ġus": 519,
      "ĠSo": 520,
      "ace": 521,
      "hing": 522,
      "Ġhas": 523,
      "Ġhapp": 524,
      "Ġmeet": 525,
      "AT": 526,
      "ks": 527,
      "ation": 528,
      "Ġevery": 529,
      "right": 530,
      "ĠJust": 531,
      "ĠÃ¼": 532,
      "AL": 533,
      "laim": 534,
      "ER": 535,
      "ia": 536,
      "ww": 537,
      "Ġwho": 538,
      "Ġhere": 539,
      "mm": 540,
      "so": 541,
      "amp": 542,
      "ff": 543,
      "Ġ6": 544,
      "Ġshe": 545,
      "ĠSorry": 546,
      "Ġ0871": 547,
      "Ġphone": 548,
      "ze": 549,
      "Ġmess": 550,
      "ide": 551,
      "Ġ150": 552,
      "mor": 553,
      "Ġmiss": 554,
      "Ġcl": 555,
      "Ġnight": 556,
      "Ġthing": 557,
      "Ġwon": 558,
      "Ġex": 559,
      "Ġnew": 560,
      "OR": 561,
      "ul": 562,
      "Ġnum": 563,
      "Ġhim": 564,
      "thing": 565,
      "Ġmobile": 566,
      "Ġle": 567,
      "ĠYour": 568,
      "....": 569,
      "Ġun": 570,
      "ook": 571,
      ":-)": 572,
      "66": 573,
      "OU": 574,
      "Ġmuch": 575,
      "lf": 576,
      "Ġfriend": 577,
      "ĠMy": 578,
      "Ġwork": 579,
      "Ġqu": 580,
      "Ġtxt": 581,
      "Ġtake": 582,
      "Ġdont": 583,
      "VE": 584,
      "Ġ-": 585,
      "Ġwait": 586,
      "Ġcont": 587,
      "ĠNO": 588,
      "co": 589,
      "hi": 590,
      "Ġtr": 591,
      "Ġreply": 592,
      "Ġway": 593,
      "ass": 594,
      "au": 595,
      "ove": 596,
      "we": 597,
      "Ġman": 598,
      "Ġgive": 599,
      "Ġthey": 600,
      "ĠHi": 601,
      "Ġad": 602,
      "Ġbr": 603,
      "ĠSt": 604,
      "ĠAnd": 605,
      "ag": 606,
      "ĠHey": 607,
      "Ġde": 608,
      "Ġlea": 609,
      "own": 610,
      "ting": 611,
      "way": 612,
      "Ġmore": 613,
      "Ġafter": 614,
      "cc": 615,
      "ĠHave": 616,
      "30": 617,
      "Ġgreat": 618,
      "ĠGood": 619,
      "ox": 620,
      "ĠCan": 621,
      "Ġeve": 622,
      "ash": 623,
      "20": 624,
      "up": 625,
      "Ġton": 626,
      "ready": 627,
      "Ġcon": 628,
      "Ġfin": 629,
      "rize": 630,
      "Ġcomp": 631,
      "Ġfeel": 632,
      "'ve": 633,
      "ap": 634,
      "Ġ7": 635,
      "Ġthan": 636,
      "Ġag": 637,
      "Ġmake": 638,
      "morrow": 639,
      "Ġnumber": 640,
      "'re": 641,
      "AR": 642,
      "Ġright": 643,
      "Ġwan": 644,
      "ĠThan": 645,
      "ĠST": 646,
      "ĠPO": 647,
      "ak": 648,
      "com": 649,
      "Ġen": 650,
      "leep": 651,
      "Ġro": 652,
      "Ġalready": 653,
      "Ġprob": 654,
      "IT": 655,
      "ail": 656,
      "Ġke": 657,
      "Ġtry": 658,
      "Ġmsg": 659,
      "OP": 660,
      "omet": 661,
      "Ġser": 662,
      "Ġtomorrow": 663,
      "Ġstop": 664,
      "Ġdoing": 665,
      "ist": 666,
      "ough": 667,
      "Ġim": 668,
      "Ġbab": 669,
      "Ġthem": 670,
      "ĠThat": 671,
      "eah": 672,
      "Ġmessage": 673,
      "XX": 674,
      "Ġwww": 675,
      "ĠTe": 676,
      "Ġshould": 677,
      "der": 678,
      "ther": 679,
      "ĠUR": 680,
      "10": 681,
      "be": 682,
      "ny": 683,
      "Ġche": 684,
      "Ġcare": 685,
      "Ġsaid": 686,
      "ĠTH": 687,
      "ĠTxt": 688,
      "Ġhad": 689,
      "ool": 690,
      "Ġshow": 691,
      "ial": 692,
      "uck": 693,
      "Ġclaim": 694,
      "ĠAre": 695,
      "22": 696,
      "40": 697,
      "no": 698,
      "ue": 699,
      "Ġper": 700,
      "ee": 701,
      "oin": 702,
      "Ġdr": 703,
      "ĠOh": 704,
      "har": 705,
      "orning": 706,
      "ĠUr": 707,
      "ĠThis": 708,
      "ES": 709,
      "ND": 710,
      "Ġ(": 711,
      "ount": 712,
      "Ġsleep": 713,
      "Ġsomet": 714,
      "Ġpick": 715,
      "ĠNot": 716,
      "Ġapp": 717,
      "ach": 718,
      "Ġwould": 719,
      "Ġbl": 720,
      "Ġbet": 721,
      "Ġlet": 722,
      "other": 723,
      "Ġreally": 724,
      "ĠGO": 725,
      "Ġcontact": 726,
      "80": 727,
      "GE": 728,
      "Ġdown": 729,
      "Ġprize": 730,
      "ĠYes": 731,
      "get": 732,
      "lp": 733,
      "Ġwhere": 734,
      "Ġcash": 735,
      "Ġbuy": 736,
      "ary": 737,
      "alk": 738,
      "ĠIts": 739,
      "ew": 740,
      "Ġdear": 741,
      "ans": 742,
      "oney": 743,
      "Ġcoll": 744,
      "ous": 745,
      "Ġgu": 746,
      "ĠOr": 747,
      "ĠPls": 748,
      "âĢ": 749,
      "Ġ:)": 750,
      "Ġvery": 751,
      "Ġsent": 752,
      "Ġwell": 753,
      "Ġlife": 754,
      "Ġsure": 755,
      "Ġagain": 756,
      "ner": 757,
      "Ġcar": 758,
      "Ġfind": 759,
      "ĠYOU": 760,
      "ĠOn": 761,
      "ress": 762,
      "150": 763,
      "AS": 764,
      "LL": 765,
      "vice": 766,
      "ity": 767,
      "ich": 768,
      "Ġbef": 769,
      "ĠSTOP": 770,
      "88": 771,
      "uk": 772,
      "ĠPlease": 773,
      "Ġkeep": 774,
      "ies": 775,
      "line": 776,
      "ment": 777,
      "ose": 778,
      "uff": 779,
      "Ġmorning": 780,
      "Ġch": 781,
      "Ġend": 782,
      "ustom": 783,
      "Ġaward": 784,
      "ts": 785,
      "ure": 786,
      "Ġcould": 787,
      "Ġdis": 788,
      "Ġover": 789,
      "Ġother": 790,
      "Ġstart": 791,
      "irst": 792,
      "erson": 793,
      "Ġspec": 794,
      "Ġ0906": 795,
      "Ġsomething": 796,
      "45": 797,
      "AN": 798,
      "IS": 799,
      "Ġent": 800,
      "Ġint": 801,
      "Ġanything": 802,
      "Ġleave": 803,
      "Ġbefore": 804,
      "23": 805,
      "IM": 806,
      "Ġwin": 807,
      "Ġchan": 808,
      "Ġlast": 809,
      "Ġgon": 810,
      "Ġguy": 811,
      "iday": 812,
      "ĠFree": 813,
      "Ġplay": 814,
      "able": 815,
      "Ġaround": 816,
      "ought": 817,
      "Ġdat": 818,
      "Ġdun": 819,
      "Ġlate": 820,
      "Ġhope": 821,
      "Ġrem": 822,
      "Ġplace": 823,
      "ING": 824,
      "ways": 825,
      "ble": 826,
      "Ġ!": 827,
      "Ġyear": 828,
      "Ġplease": 829,
      "ĠShe": 830,
      "ĠLol": 831,
      "Ġnext": 832,
      "Ġsoon": 833,
      "Ġword": 834,
      "Ġtonight": 835,
      "ustomer": 836,
      "Ġmay": 837,
      "Ġlot": 838,
      "ĠThen": 839,
      "ĠWh": 840,
      "Ġear": 841,
      "ause": 842,
      "18": 843,
      "kia": 844,
      "ĠIs": 845,
      "orm": 846,
      "ĠDear": 847,
      "Ġ16": 848,
      "Ġcant": 849,
      "Ġfriends": 850,
      "Ġgonna": 851,
      "12": 852,
      "rs": 853,
      "Ġ'": 854,
      "ren": 855,
      "Ġmoney": 856,
      "Ġcos": 857,
      "ĠYeah": 858,
      "Ġ10": 859,
      "onth": 860,
      "Ġalso": 861,
      "ft": 862,
      "iz": 863,
      "Ġ9": 864,
      "ĠX": 865,
      "Ġx": 866,
      "Ġacc": 867,
      "Ġchar": 868,
      "ĠIn": 869,
      "Ġpe": 870,
      "ĠWhen": 871,
      "ppy": 872,
      "Ġwatch": 873,
      "77": 874,
      "Cs": 875,
      "OM": 876,
      "ov": 877,
      "ull": 878,
      "Ġwent": 879,
      "Ġtold": 880,
      "Ġwere": 881,
      "ade": 882,
      "Ġplan": 883,
      "Ġmany": 884,
      "**": 885,
      "AY": 886,
      "av": 887,
      "min": 888,
      "ĠWat": 889,
      "Ġhis": 890,
      "ĠDid": 891,
      "eply": 892,
      "ife": 893,
      "ĠÃľ": 894,
      "Ġminut": 895,
      "Ġcollect": 896,
      "87": 897,
      "gg": 898,
      "ms": 899,
      "per": 900,
      "sc": 901,
      "Ġmat": 902,
      "Ġfirst": 903,
      "Ġpart": 904,
      "Ġperson": 905,
      "ise": 906,
      "Ġhour": 907,
      "Ġrece": 908,
      "Ġcoming": 909,
      "ĠNOW": 910,
      "34": 911,
      "ever": 912,
      "uz": 913,
      "ream": 914,
      "Ġbus": 915,
      "Ġdin": 916,
      "Ġeat": 917,
      "ions": 918,
      "ĠReply": 919,
      "ONE": 920,
      "Ġhappen": 921,
      "Ġthings": 922,
      "Ġservice": 923,
      "Ġbabe": 924,
      "11": 925,
      "24": 926,
      "IC": 927,
      "ah": 928,
      "oke": 929,
      "ro": 930,
      "wor": 931,
      "hed": 932,
      "hes": 933,
      "Ġyet": 934,
      "Ġland": 935,
      "Ġgir": 936,
      "ople": 937,
      "self": 938,
      "ĠNokia": 939,
      "ĠHappy": 940,
      "Ġsomeone": 941,
      "Ġspecial": 942,
      "ED": 943,
      "lo": 944,
      "Ġsc": 945,
      "Ġsch": 946,
      "Ġgr": 947,
      "Ġpay": 948,
      "ĠSh": 949,
      "Ġem": 950,
      "Ġhelp": 951,
      "unch": 952,
      "MS": 953,
      "eed": 954,
      "ouse": 955,
      "ond": 956,
      "Ġboy": 957,
      "Ġpic": 958,
      "ĠHope": 959,
      "ĠAny": 960,
      "Ġres": 961,
      "Ġstuff": 962,
      "ĠGud": 963,
      "Ġans": 964,
      "ĠLO": 965,
      "ppm": 966,
      "Ġalways": 967,
      "Ġwhy": 968,
      "ĠHaha": 969,
      "Ġhappy": 970,
      "Ġclass": 971,
      "ĠThanks": 972,
      "Ġpeople": 973,
      "ANT": 974,
      "LY": 975,
      "cess": 976,
      "Ġtri": 977,
      "Ġdri": 978,
      "Ġlunch": 979,
      "Ġpre": 980,
      "Ġhi": 981,
      "ĠAs": 982,
      "Ġ18": 983,
      "ĠFor": 984,
      "Ġgetting": 985,
      "Ġwhich": 986,
      "ode": 987,
      "Ġeven": 988,
      "Ġroom": 989,
      "US": 990,
      "li": 991,
      "ng": 992,
      "Ġwish": 993,
      "Ġmonth": 994,
      "llo": 995,
      "Ġbit": 996,
      "Ġpo": 997,
      "ĠWhere": 998,
      "ĠMobile": 999,
      "Ġsec": 1000,
      "Ġdoes": 1001,
      "Ġ0870": 1002,
      "oss": 1003,
      "ĠText": 1004,
      "OW": 1005,
      "ire": 1006,
      "pm": 1007,
      "ty": 1008,
      "ward": 1009,
      "Ġsha": 1010,
      "Ġfine": 1011,
      "Ġline": 1012,
      "nds": 1013,
      "Ġjob": 1014,
      "oliday": 1015,
      "Ġwaiting": 1016,
      "EC": 1017,
      "OD": 1018,
      "ao": 1019,
      "joy": 1020,
      "oll": 1021,
      "rat": 1022,
      "tone": 1023,
      "Ġsat": 1024,
      "Ġfun": 1025,
      "ark": 1026,
      "ĠYup": 1027,
      "ĠNow": 1028,
      "ĠGet": 1029,
      "opp": 1030,
      "Ġ800": 1031,
      "Ġadd": 1032,
      "Ġproble": 1033,
      "60": 1034,
      "ful": 1035,
      "old": 1036,
      "ouc": 1037,
      "Ġcustomer": 1038,
      "Ġlong": 1039,
      "Ġuse": 1040,
      "ance": 1041,
      "Ġthought": 1042,
      "Ġbeing": 1043,
      "ĠWell": 1044,
      "Ġfew": 1045,
      "Ġ0905": 1046,
      "Ġdidn": 1047,
      "39": 1048,
      "ones": 1049,
      "Ġbest": 1050,
      "Ġdone": 1051,
      "Ġlar": 1052,
      "ange": 1053,
      "lect": 1054,
      "Ġreal": 1055,
      "Ġbec": 1056,
      "Ġdays": 1057,
      "raw": 1058,
      "ĠToday": 1059,
      "Ġtrying": 1060,
      "GENT": 1061,
      "scri": 1062,
      "100": 1063,
      "??": 1064,
      "LE": 1065,
      "ple": 1066,
      "port": 1067,
      "Ġtw": 1068,
      "Ġact": 1069,
      "Ġsorry": 1070,
      "Ġbat": 1071,
      "Ġbed": 1072,
      "Ġbig": 1073,
      "Ġnice": 1074,
      "Ġname": 1075,
      "ĠSend": 1076,
      "Ġinf": 1077,
      "Ġready": 1078,
      "Ġthk": 1079,
      "ĠLove": 1080,
      "weet": 1081,
      "Ġfinish": 1082,
      "ily": 1083,
      "ious": 1084,
      "og": 1085,
      "oot": 1086,
      "Ġmind": 1087,
      "Ġbir": 1088,
      "Ġfl": 1089,
      "Ġla": 1090,
      "ĠSp": 1091,
      "Ġhaving": 1092,
      "ĠMe": 1093,
      "Ġring": 1094,
      "Ġpls": 1095,
      "Ġweeke": 1096,
      "ody": 1097,
      "Ġmeeting": 1098,
      "ĠURGENT": 1099,
      "Ġreceive": 1100,
      "XT": 1101,
      "got": 1102,
      "kes": 1103,
      "ug": 1104,
      "ÂĴ": 1105,
      "Ġtalk": 1106,
      "Ġsame": 1107,
      "ĠWill": 1108,
      "ĠDont": 1109,
      "Ġlive": 1110,
      "Ġatt": 1111,
      "ounds": 1112,
      "oucher": 1113,
      "'d": 1114,
      "Box": 1115,
      "te": 1116,
      "tle": 1117,
      "uv": 1118,
      "ually": 1119,
      "Ġdec": 1120,
      "Ġlook": 1121,
      "arch": 1122,
      "Ġhouse": 1123,
      "ĠME": 1124,
      "imes": 1125,
      "Ġheart": 1126,
      "ĠRe": 1127,
      "Ġ08000": 1128,
      "ĠHello": 1129,
      "Ġmins": 1130,
      "ideo": 1131,
      "Ġproblem": 1132,
      "OX": 1133,
      "de": 1134,
      "ix": 1135,
      "mas": 1136,
      "ĠQ": 1137,
      "ory": 1138,
      "Ġdraw": 1139,
      "Ġnet": 1140,
      "its": 1141,
      "Ġ12": 1142,
      "Ġliao": 1143,
      "ably": 1144,
      "Ġprin": 1145,
      "ages": 1146,
      "âĢĺ": 1147,
      "Ġawarded": 1148,
      "15": 1149,
      "16": 1150,
      "1000": 1151,
      "RE": 1152,
      "Ġ+": 1153,
      "Ġ:": 1154,
      "rent": 1155,
      "ons": 1156,
      "Ġchat": 1157,
      "era": 1158,
      "Ġloo": 1159,
      "Ġless": 1160,
      "ĠAm": 1161,
      "ĠON": 1162,
      "eak": 1163,
      "ALL": 1164,
      "hip": 1165,
      "Ġbring": 1166,
      "Ġcheck": 1167,
      "Ġshows": 1168,
      "Ġbetter": 1169,
      "Ġguys": 1170,
      "Ġdinner": 1171,
      "38": 1172,
      "sub": 1173,
      "ins": 1174,
      "Ġsl": 1175,
      "Ġdel": 1176,
      "Ġdif": 1177,
      "Ġface": 1178,
      "Ġpa": 1179,
      "any": 1180,
      "ester": 1181,
      "ĠAll": 1182,
      "asy": 1183,
      "ĠBox": 1184,
      "Ġstay": 1185,
      "Ġselect": 1186,
      "ĠThey": 1187,
      "ĠVal": 1188,
      "Ġwonder": 1189,
      "Ġinto": 1190,
      "55": 1191,
      "78": 1192,
      "TH": 1193,
      "UT": 1194,
      "iv": 1195,
      "pd": 1196,
      "rd": 1197,
      "ult": 1198,
      "Ġcam": 1199,
      "Ġill": 1200,
      "Ġhur": 1201,
      "ĠPr": 1202,
      "Ġsex": 1203,
      "Ġanother": 1204,
      "urn": 1205,
      "ude": 1206,
      "ember": 1207,
      "ATE": 1208,
      "Ġquest": 1209,
      "36": 1210,
      "AM": 1211,
      "cl": 1212,
      "gent": 1213,
      "kk": 1214,
      "let": 1215,
      "Ġset": 1216,
      "Ġya": 1217,
      "ĠHA": 1218,
      "ĠCH": 1219,
      "ĠNew": 1220,
      "ĠMay": 1221,
      "ĠDon": 1222,
      "Ġrun": 1223,
      "Ġnever": 1224,
      "iles": 1225,
      "Ġshit": 1226,
      "Ġpro": 1227,
      "ĠEx": 1228,
      "EED": 1229,
      "Ġsmile": 1230,
      "ongrat": 1231,
      "opping": 1232,
      "Ġbecause": 1233,
      "14": 1234,
      "gry": 1235,
      "mr": 1236,
      "msg": 1237,
      "Ġ,": 1238,
      "Ġah": 1239,
      "Ġwk": 1240,
      "Ġwr": 1241,
      "Ġwont": 1242,
      "Ġchi": 1243,
      "ĠIN": 1244,
      "ĠIS": 1245,
      "Ġlit": 1246,
      "nder": 1247,
      "ence": 1248,
      "Ġhalf": 1249,
      "ĠClaim": 1250,
      "Ġel": 1251,
      "ĠGo": 1252,
      "Ġcalled": 1253,
      "ola": 1254,
      "Ġsupp": 1255,
      "xxx": 1256,
      "ĠTHE": 1257,
      "Ġapply": 1258,
      "Ġ09061": 1259,
      "Ġearly": 1260,
      "work": 1261,
      "Ġweekend": 1262,
      "26": 1263,
      "cor": 1264,
      "pl": 1265,
      "uh": 1266,
      "Ġta": 1267,
      "Ġsw": 1268,
      "Ġmob": 1269,
      "Ġmight": 1270,
      "Ġput": 1271,
      "Ġpost": 1272,
      "ank": 1273,
      "Ġop": 1274,
      "ĠBA": 1275,
      "Ġhear": 1276,
      "ĠPl": 1277,
      "ween": 1278,
      "Ġbetween": 1279,
      "Ġgirl": 1280,
      "Ġansw": 1281,
      "Ġbirth": 1282,
      "CH": 1283,
      "RI": 1284,
      "Ġsweet": 1285,
      "Ġmom": 1286,
      "ĠCost": 1287,
      "ĠCongrat": 1288,
      "ĠAl": 1289,
      "Ġ200": 1290,
      "Ġjoin": 1291,
      "ift": 1292,
      "Ġlatest": 1293,
      "Ġdidnt": 1294,
      "Ġoffice": 1295,
      "Ġleh": 1296,
      "Ġleft": 1297,
      "Ġguess": 1298,
      "Ġchance": 1299,
      "load": 1300,
      "Ġtwo": 1301,
      "99": 1302,
      "cking": 1303,
      "hrs": 1304,
      "iy": 1305,
      "ock": 1306,
      "ru": 1307,
      "Ġav": 1308,
      "ince": 1309,
      "Ġwif": 1310,
      "Ġsun": 1311,
      "Ġid": 1312,
      "ĠIM": 1313,
      "Ġbad": 1314,
      "Ġdet": 1315,
      "Ġdream": 1316,
      "Ġluv": 1317,
      "Ġpain": 1318,
      "Ġpoin": 1319,
      "arant": 1320,
      "ĠSee": 1321,
      "Ġoh": 1322,
      "ĠCALL": 1323,
      "ĠAight": 1324,
      "Ġever": 1325,
      "Ġreach": 1326,
      "Ġforgot": 1327,
      "Ġkiss": 1328,
      "Ġlist": 1329,
      "ĠRE": 1330,
      "Ġvoucher": 1331,
      "Ġquite": 1332,
      "Ġenough": 1333,
      "ails": 1334,
      "ĠWhy": 1335,
      "Ġminutes": 1336,
      "ĠLOVE": 1337,
      "Ġselected": 1338,
      "Ġlittle": 1339,
      "ell": 1340,
      "ip": 1341,
      "me": 1342,
      "ta": 1343,
      "tt": 1344,
      "wn": 1345,
      "zy": 1346,
      "Ġ..": 1347,
      "Ġ:-)": 1348,
      "ouble": 1349,
      "Ġmr": 1350,
      "Ġmade": 1351,
      "Ġcra": 1352,
      "Ġcool": 1353,
      "ĠIm": 1354,
      "ert": 1355,
      "Ġpass": 1356,
      "ather": 1357,
      "ited": 1358,
      "Ġinv": 1359,
      "Ġmean": 1360,
      "ĠGot": 1361,
      "Ġworking": 1362,
      "Ġ0800": 1363,
      "Ġ09066": 1364,
      "Ġmail": 1365,
      "Ġeverything": 1366,
      "Ġconf": 1367,
      "ĠOnly": 1368,
      "Ġlandline": 1369,
      "Ġprincess": 1370,
      "Ġlooking": 1371,
      "ave": 1372,
      "les": 1373,
      "now": 1374,
      "rom": 1375,
      "ues": 1376,
      "where": 1377,
      "yp": 1378,
      "Ġmov": 1379,
      "Ġyeah": 1380,
      "Ġtot": 1381,
      "Ġbook": 1382,
      "Ġden": 1383,
      "ang": 1384,
      "ĠSP": 1385,
      "Ġhav": 1386,
      "Ġeasy": 1387,
      "Ġreg": 1388,
      "ĠNE": 1389,
      "ĠDun": 1390,
      "Ġhead": 1391,
      "Ġwithout": 1392,
      "ntil": 1393,
      "Ġworld": 1394,
      "Ġwhile": 1395,
      "Ġwanted": 1396,
      "ations": 1397,
      "Ġbaby": 1398,
      "ĠTell": 1399,
      "Ġguarant": 1400,
      "Ġelse": 1401,
      "08": 1402,
      "21": 1403,
      "44": 1404,
      "5000": 1405,
      "69": 1406,
      "KE": 1407,
      "Mob": 1408,
      "ier": 1409,
      "txt": 1410,
      "Ġ!!": 1411,
      "Ġtv": 1412,
      "Ġtone": 1413,
      "Ġtest": 1414,
      "ret": 1415,
      "reak": 1416,
      "Ġcame": 1417,
      "Ġfull": 1418,
      "Ġuntil": 1419,
      "ven": 1420,
      "ĠSA": 1421,
      "ĠHE": 1422,
      "Ġhair": 1423,
      "ĠMY": 1424,
      "Ġbel": 1425,
      "Ġstud": 1426,
      "ames": 1427,
      "Ġgoes": 1428,
      "Ġlog": 1429,
      "olour": 1430,
      "Ġval": 1431,
      "Ġvideo": 1432,
      "Ġable": 1433,
      "Ġtexts": 1434,
      "Ġcost": 1435,
      "Ġsays": 1436,
      "Ġasked": 1437,
      "Ġthanks": 1438,
      "Ġwanna": 1439,
      "Ġcollection": 1440,
      "Ġschool": 1441,
      "Ġnetwork": 1442,
      "Ġanswer": 1443,
      "Ġbirthday": 1444,
      "Ġdetails": 1445,
      "Ġguaranteed": 1446,
      "28": 1447,
      "250": 1448,
      "500": 1449,
      "net": 1450,
      "ss": 1451,
      "ĠXX": 1452,
      "Ġtimes": 1453,
      "Ġtmr": 1454,
      "Ġac": 1455,
      "Ġsit": 1456,
      "Ġsim": 1457,
      "Ġmost": 1458,
      "Ġdad": 1459,
      "Ġfam": 1460,
      "anc": 1461,
      "ates": 1462,
      "ĠThere": 1463,
      "ither": 1464,
      "ason": 1465,
      "Ġthough": 1466,
      "ĠUP": 1467,
      "ĠGU": 1468,
      "ction": 1469,
      "Ġ870": 1470,
      "Ġabt": 1471,
      "Ġaway": 1472,
      "Ġawait": 1473,
      "ational": 1474,
      "Ġ087187": 1475,
      "Ġevening": 1476,
      "Ġprobably": 1477,
      "noon": 1478,
      "ĠGOOD": 1479,
      "Ġentry": 1480,
      "Ġremember": 1481,
      "Ġaccount": 1482,
      "Ġsexy": 1483,
      "25": 1484,
      "2000": 1485,
      "OT": 1486,
      "fter": 1487,
      "less": 1488,
      "pr": 1489,
      "pect": 1490,
      "to": 1491,
      "ĠâĢ": 1492,
      "Ġap": 1493,
      "Ġsur": 1494,
      "Ġcle": 1495,
      "Ġcred": 1496,
      "Ġtom": 1497,
      "Ġtown": 1498,
      "ĠIT": 1499,
      "ets": 1500,
      "arl": 1501,
      "ĠTE": 1502,
      "oth": 1503,
      "Ġholiday": 1504,
      "Ġmeans": 1505,
      "Ġonce": 1506,
      "Ġrent": 1507,
      "ĠYa": 1508,
      "ĠYES": 1509,
      "ical": 1510,
      "Ġthose": 1511,
      "Ġshopping": 1512,
      "ored": 1513,
      "Ġenjoy": 1514,
      "ĠOrange": 1515,
      "DEC": 1516,
      "EN": 1517,
      "ET": 1518,
      "ION": 1519,
      "ST": 1520,
      "ma": 1521,
      "side": 1522,
      "wk": 1523,
      "Ġtill": 1524,
      "ouch": 1525,
      "Ġwalk": 1526,
      "Ġsince": 1527,
      "Ġmust": 1528,
      "Ġcr": 1529,
      "ĠId": 1530,
      "Ġluck": 1531,
      "Ġgift": 1532,
      "Ġunder": 1533,
      "ĠSMS": 1534,
      "Ġoso": 1535,
      "ĠHmm": 1536,
      "Ġhand": 1537,
      "ĠWH": 1538,
      "ĠWON": 1539,
      "Ġhot": 1540,
      "ĠAT": 1541,
      "Ġonline": 1542,
      "ĠUK": 1543,
      "ĠBe": 1544,
      "ĠGreat": 1545,
      "Ġ11": 1546,
      "ĠLI": 1547,
      "Ġworry": 1548,
      "arent": 1549,
      "xxxx": 1550,
      "empt": 1551,
      "ieve": 1552,
      "Ġ500": 1553,
      "Ġlei": 1554,
      "ARANT": 1555,
      "ĠPOBox": 1556,
      "IMAL": 1557,
      "Ġtrip": 1558,
      "irect": 1559,
      "portant": 1560,
      "Ġattempt": 1561,
      "ĠValid": 1562,
      "Ġquestion": 1563,
      "ĠGUARANT": 1564,
      "DECIMAL": 1565,
      "ĠGUARANTEED": 1566,
      "//": 1567,
      "32": 1568,
      "ID": 1569,
      "br": 1570,
      "body": 1571,
      "cv": 1572,
      "cent": 1573,
      "ere": 1574,
      "ged": 1575,
      "hy": 1576,
      "ian": 1577,
      "ivery": 1578,
      "pls": 1579,
      "und": 1580,
      "ual": 1581,
      "Ġtil": 1582,
      "Ġtak": 1583,
      "inking": 1584,
      "Ġwid": 1585,
      "Ġmon": 1586,
      "Ġmar": 1587,
      "Ġcur": 1588,
      "Ġcolour": 1589,
      "Ġdi": 1590,
      "Ġfood": 1591,
      "Ġfast": 1592,
      "ital": 1593,
      "ens": 1594,
      "ĠWIN": 1595,
      "Ġhun": 1596,
      "Ġhold": 1597,
      "ĠDel": 1598,
      "ĠUn": 1599,
      "ĠBl": 1600,
      "ĠGod": 1601,
      "Ġcalls": 1602,
      "Ġkind": 1603,
      "Ġsub": 1604,
      "Ġweekly": 1605,
      "Ġsms": 1606,
      "Ġmakes": 1607,
      "Ġafternoon": 1608,
      "Ġwatching": 1609,
      "****": 1610,
      "ava": 1611,
      "Ġtried": 1612,
      "Ġdriving": 1613,
      "Ġslow": 1614,
      "Ġcamera": 1615,
      "Ġopen": 1616,
      "Ġfamily": 1617,
      "04": 1618,
      "200": 1619,
      "95": 1620,
      "AP": 1621,
      "CK": 1622,
      "IG": 1623,
      "aa": 1624,
      "aut": 1625,
      "fic": 1626,
      "ires": 1627,
      "oh": 1628,
      "time": 1629,
      "uite": 1630,
      "Ġ:-": 1631,
      "ines": 1632,
      "Ġwake": 1633,
      "reet": 1634,
      "Ġtop": 1635,
      "Ġtoget": 1636,
      "ator": 1637,
      "ition": 1638,
      "ĠHoliday": 1639,
      "Ġhaf": 1640,
      "ĠWas": 1641,
      "ĠAt": 1642,
      "ĠAcc": 1643,
      "Ġeither": 1644,
      "Ġread": 1645,
      "ĠYo": 1646,
      "ĠBr": 1647,
      "ĠBOX": 1648,
      "Ġyours": 1649,
      "Ġstr": 1650,
      "ents": 1651,
      "Ġrate": 1652,
      "Ġjus": 1653,
      "iling": 1654,
      "Ġlose": 1655,
      "Ġass": 1656,
      "Ġvis": 1657,
      "osed": 1658,
      "Ġwants": 1659,
      "Ġcomes": 1660,
      "Ġsaw": 1661,
      "Ġmaking": 1662,
      "ffer": 1663,
      "coz": 1664,
      "Ġtrain": 1665,
      "Ġfinis": 1666,
      "Ġfeeling": 1667,
      "aper": 1668,
      "ĠThank": 1669,
      "ITE": 1670,
      "Ġimportant": 1671,
      "Ġyears": 1672,
      "Ġwords": 1673,
      "Ġhours": 1674,
      "Ġpoly": 1675,
      "Ġ8007": 1676,
      "Ġaddress": 1677,
      "Ġ090580": 1678,
      "scribe": 1679,
      "Ġactually": 1680,
      "Ġringtone": 1681,
      "esterday": 1682,
      "ĠExp": 1683,
      "ttp": 1684,
      "ype": 1685,
      "ĠSAE": 1686,
      "Ġtogether": 1687,
      "35": 1688,
      "74": 1689,
      "://": 1690,
      "IA": 1691,
      "IR": 1692,
      "Msg": 1693,
      "UR": 1694,
      "bers": 1695,
      "ered": 1696,
      "lim": 1697,
      "ok": 1698,
      "rnd": 1699,
      "va": 1700,
      "Ġmo": 1701,
      "Ġmed": 1702,
      "Ġcha": 1703,
      "Ġcut": 1704,
      "Ġyesterday": 1705,
      "Ġbored": 1706,
      "Ġfuck": 1707,
      "Ġpub": 1708,
      "ĠTake": 1709,
      "ĠSO": 1710,
      "ĠSir": 1711,
      "stand": 1712,
      "ĠHad": 1713,
      "Ġinc": 1714,
      "Ġhttp": 1715,
      "ĠCh": 1716,
      "ĠCo": 1717,
      "ĠCam": 1718,
      "ĠCos": 1719,
      "ĠAr": 1720,
      "ĠAiy": 1721,
      "ĠAfter": 1722,
      "Ġreac": 1723,
      "alking": 1724,
      "Ġ20": 1725,
      "ĠBab": 1726,
      "ried": 1727,
      "Ġyourself": 1728,
      "Ġstory": 1729,
      "Ġsearch": 1730,
      "Ġthats": 1731,
      "Ġhaven": 1732,
      "Ġcalling": 1733,
      "umm": 1734,
      "Ġnoe": 1735,
      "ign": 1736,
      "Ġsaying": 1737,
      "Ġ08712": 1738,
      "Ġtrue": 1739,
      "ĠThanx": 1740,
      "ister": 1741,
      "Ġdrink": 1742,
      "Ġdisc": 1743,
      "Ġsecond": 1744,
      "Ġhurt": 1745,
      "kku": 1746,
      "Ġdreams": 1747,
      "75": 1748,
      "98": 1749,
      "END": 1750,
      "aid": 1751,
      "ds": 1752,
      "gr": 1753,
      "how": 1754,
      "iate": 1755,
      "ially": 1756,
      "ject": 1757,
      "ne": 1758,
      "njoy": 1759,
      "oice": 1760,
      "ph": 1761,
      "sh": 1762,
      "ui": 1763,
      "zed": 1764,
      "Ġ$": 1765,
      "Ġes": 1766,
      "Ġtreat": 1767,
      "iness": 1768,
      "Ġsir": 1769,
      "Ġpounds": 1770,
      "vel": 1771,
      "esome": 1772,
      "ĠTs": 1773,
      "iting": 1774,
      "ĠSH": 1775,
      "ĠSm": 1776,
      "ĠSome": 1777,
      "leas": 1778,
      "ĠWant": 1779,
      "Ġhop": 1780,
      "ĠChe": 1781,
      "Ġret": 1782,
      "Ġforget": 1783,
      "rist": 1784,
      "ĠPrize": 1785,
      "ads": 1786,
      "ĠFriend": 1787,
      "Ġjuz": 1788,
      "ching": 1789,
      "Ġnothing": 1790,
      "irt": 1791,
      "Ġ866": 1792,
      "ths": 1793,
      "iful": 1794,
      "emed": 1795,
      "Ġoffer": 1796,
      "Ġtook": 1797,
      "Ġmessages": 1798,
      "Ġmissing": 1799,
      "Ġmissed": 1800,
      "ĠNOK": 1801,
      "Ġtones": 1802,
      "Ġcomplet": 1803,
      "ĠThats": 1804,
      "IME": 1805,
      "Ġcharge": 1806,
      "Ġminute": 1807,
      "ĠShould": 1808,
      "Ġdrive": 1809,
      "Ġshall": 1810,
      "Ġ080009": 1811,
      "Ġchikku": 1812,
      "Ġlisten": 1813,
      "Ġmovie": 1814,
      "ĠNEW": 1815,
      "Ġbelieve": 1816,
      "Ġtomo": 1817,
      "ĠFriends": 1818,
      "Ġ86688": 1819,
      "''": 1820,
      "350": 1821,
      "BE": 1822,
      "HL": 1823,
      "LA": 1824,
      "LD": 1825,
      "but": 1826,
      "come": 1827,
      "dy": 1828,
      "ired": 1829,
      "ible": 1830,
      "man": 1831,
      "ply": 1832,
      "td": 1833,
      "ya": 1834,
      "ym": 1835,
      "Ġ|": 1836,
      "Ġtick": 1837,
      "Ġwit": 1838,
      "Ġsnow": 1839,
      "Ġmur": 1840,
      "onus": 1841,
      "Ġcor": 1842,
      "Ġcour": 1843,
      "Ġdirect": 1844,
      "Ġny": 1845,
      "Ġnorm": 1846,
      "Ġgal": 1847,
      "Ġgud": 1848,
      "Ġgame": 1849,
      "Ġthese": 1850,
      "ĠTr": 1851,
      "ĠTXT": 1852,
      "ĠCl": 1853,
      "ĠCode": 1854,
      "ict": 1855,
      "ices": 1856,
      "Ġthinking": 1857,
      "ided": 1858,
      "ĠDO": 1859,
      "ĠOF": 1860,
      "ĠPRI": 1861,
      "Ġsell": 1862,
      "vers": 1863,
      "Ġangry": 1864,
      "Ġgoin": 1865,
      "Ġorder": 1866,
      "irm": 1867,
      "atement": 1868,
      "Ġprom": 1869,
      "Ġprice": 1870,
      "Ġspeak": 1871,
      "ands": 1872,
      "Ġsmoke": 1873,
      "Ġaft": 1874,
      "ERE": 1875,
      "Ġexc": 1876,
      "Ġleaving": 1877,
      "Ġ750": 1878,
      "ailable": 1879,
      "402": 1880,
      "Ġstarted": 1881,
      "Ġmaybe": 1882,
      "ĠXmas": 1883,
      "OME": 1884,
      "gging": 1885,
      "Ġemail": 1886,
      "Ġresp": 1887,
      "iously": 1888,
      "subscribe": 1889,
      "Ġtaking": 1890,
      "Ġvouchers": 1891,
      "ĠDunno": 1892,
      "cvd": 1893,
      "Ġcurrent": 1894,
      "ĠAccount": 1895,
      "Ġfinished": 1896,
      "33": 1897,
      "51": 1898,
      "839": 1899,
      "900": 1900,
      "BP": 1901,
      "az": 1902,
      "bi": 1903,
      "ex": 1904,
      "full": 1905,
      "hh": 1906,
      "iving": 1907,
      "led": 1908,
      "more": 1909,
      "ps": 1910,
      "yl": 1911,
      "Ġ=": 1912,
      "Ġxxx": 1913,
      "ina": 1914,
      "Ġwar": 1915,
      "Ġwil": 1916,
      "Ġsk": 1917,
      "Ġsis": 1918,
      "Ġsort": 1919,
      "ony": 1920,
      "Ġcal": 1921,
      "Ġcard": 1922,
      "ĠInd": 1923,
      "Ġbt": 1924,
      "orn": 1925,
      "ings": 1926,
      "Ġdist": 1927,
      "Ġfix": 1928,
      "Ġold": 1929,
      "Ġopt": 1930,
      "Ġinst": 1931,
      "ĠWin": 1932,
      "ĠWish": 1933,
      "ĠCome": 1934,
      "Ġrest": 1935,
      "ĠDouble": 1936,
      "oose": 1937,
      "ĠUpd": 1938,
      "ĠGu": 1939,
      "entif": 1940,
      "Ġ100": 1941,
      "Ġhavent": 1942,
      "Ġrite": 1943,
      "ops": 1944,
      "opt": 1945,
      "Ġlight": 1946,
      "Ġgod": 1947,
      "ĠLtd": 1948,
      "Ġknw": 1949,
      "Ġworth": 1950,
      "Ġplz": 1951,
      "Ġalone": 1952,
      "Ġanyone": 1953,
      "Ġanyway": 1954,
      "ĠEnjoy": 1955,
      "Ġsmiling": 1956,
      "705": 1957,
      "resent": 1958,
      "Ġeveryone": 1959,
      "Ġnews": 1960,
      "ĠStop": 1961,
      "30705": 1962,
      "ĠUrgent": 1963,
      "Ġsleeping": 1964,
      "Ġdownload": 1965,
      "Ġchange": 1966,
      "Ġbusy": 1967,
      "Ġpret": 1968,
      "UST": 1969,
      "Ġsecret": 1970,
      "Ġinform": 1971,
      "ĠQu": 1972,
      "Ġlesson": 1973,
      "ĠCongrats": 1974,
      "Ġpoints": 1975,
      "Ġconfirm": 1976,
      "Ġstudy": 1977,
      "arents": 1978,
      "IGH": 1979,
      "Ġvisit": 1980,
      "ĠExpires": 1981,
      "ĠNOKIA": 1982,
      "ĠPRIV": 1983,
      "31": 1984,
      "BOX": 1985,
      "by": 1986,
      "date": 1987,
      "ege": 1988,
      "eemed": 1989,
      "fer": 1990,
      "oon": 1991,
      "toy": 1992,
      "what": 1993,
      "ys": 1994,
      "Ġet": 1995,
      "Ġtype": 1996,
      "Ġwed": 1997,
      "Ġsing": 1998,
      "Ġmid": 1999,
      "Ġmove": 2000,
      "Ġcause": 2001,
      "Ġimm": 2002,
      "Ġboth": 2003,
      "Ġfar": 2004,
      "Ġna": 2005,
      "Ġni": 2006,
      "ved": 2007,
      "ete": 2008,
      "ĠTO": 2009,
      "Ġoper": 2010,
      "Ġhard": 2011,
      "ĠWOR": 2012,
      "ĠCustomer": 2013,
      "ĠAS": 2014,
      "Ġev": 2015,
      "ĠMiss": 2016,
      "ĠDay": 2017,
      "ĠBonus": 2018,
      "ĠOUT": 2019,
      "Ġstand": 2020,
      "ĠPo": 2021,
      "Ġsem": 2022,
      "ĠLat": 2023,
      "ĠLet": 2024,
      "ĠLast": 2025,
      "une": 2026,
      "Ġfrnds": 2027,
      "urday": 2028,
      "usic": 2029,
      "Ġvi": 2030,
      "ĠOkie": 2031,
      "Ġwhatever": 2032,
      "redi": 2033,
      "redeemed": 2034,
      "Ġsmth": 2035,
      "www": 2036,
      "Ġclose": 2037,
      "Ġunc": 2038,
      "Ġbrother": 2039,
      "ĠStatement": 2040,
      "ITH": 2041,
      "Ġdrug": 2042,
      "Ġdating": 2043,
      "Ġhappened": 2044,
      "Ġboytoy": 2045,
      "Ġpics": 2046,
      "Ġdoesn": 2047,
      "ollow": 2048,
      "ĠTodays": 2049,
      "Ġinfo": 2050,
      "Ġdelivery": 2051,
      "Ġwonderful": 2052,
      "ĠCHAT": 2053,
      "corder": 2054,
      "ĠXXX": 2055,
      "ĠTEXT": 2056,
      "ĠIdentif": 2057,
      "Ġtakes": 2058,
      "Ġ0905809": 2059,
      "Ġ08000930705": 2060,
      "optout": 2061,
      "ĠPRIVATE": 2062,
      "ĠIdentifier": 2063,
      "-)": 2064,
      "750": 2065,
      "CT": 2066,
      "LO": 2067,
      "Suite": 2068,
      "Upd": 2069,
      "air": 2070,
      "char": 2071,
      "ek": 2072,
      "ffe": 2073,
      "igh": 2074,
      "ji": 2075,
      "not": 2076,
      "night": 2077,
      "nect": 2078,
      "the": 2079,
      "uction": 2080,
      "win": 2081,
      "Ġter": 2082,
      "Ġtouch": 2083,
      "int": 2084,
      "Ġsad": 2085,
      "rect": 2086,
      "Ġmine": 2087,
      "Ġchen": 2088,
      "Ġbill": 2089,
      "ors": 2090,
      "orrow": 2091,
      "Ġdarl": 2092,
      "ery": 2093,
      "Ġfu": 2094,
      "Ġfollow": 2095,
      "Ġnt": 2096,
      "Ġnite": 2097,
      "Ġgone": 2098,
      "Ġposs": 2099,
      "Ġpark": 2100,
      "Ġtheir": 2101,
      "ating": 2102,
      "ated": 2103,
      "ative": 2104,
      "ĠTen": 2105,
      "ĠSha": 2106,
      "Ġoredi": 2107,
      "ĠWE": 2108,
      "ĠWait": 2109,
      "ĠWITH": 2110,
      "Ġhit": 2111,
      "ĠCD": 2112,
      "ĠAct": 2113,
      "ĠAls": 2114,
      "ĠNope": 2115,
      "ĠMob": 2116,
      "ĠMsg": 2117,
      "Ġtho": 2118,
      "Ġbeaut": 2119,
      "oooo": 2120,
      "uth": 2121,
      "ĠBT": 2122,
      "ĠOffer": 2123,
      "ĠPh": 2124,
      "Ġsea": 2125,
      "Ġshop": 2126,
      "Ġshort": 2127,
      "Ġ80": 2128,
      "Ġoutside": 2129,
      "ĠEven": 2130,
      "Ġ30": 2131,
      "Ġneeds": 2132,
      "oda": 2133,
      "Ġweeks": 2134,
      "nai": 2135,
      "........": 2136,
      "Ġunsubscribe": 2137,
      "ĠStill": 2138,
      "Ġleast": 2139,
      "Ġcomput": 2140,
      "Ġcompany": 2141,
      "ĠTHAT": 2142,
      "Ġdrop": 2143,
      "ĠNothing": 2144,
      "Ġlots": 2145,
      "Ġearli": 2146,
      "Ġ''": 2147,
      "Ġmates": 2148,
      "342": 2149,
      "ICE": 2150,
      "ĠMobileUpd": 2151,
      "ĠSpeak": 2152,
      "Ġdecided": 2153,
      "Ġ08000839": 2154,
      "AME": 2155,
      "Ġproject": 2156,
      "ĠGoing": 2157,
      "Ġavailable": 2158,
      "Ġvalu": 2159,
      "erest": 2160,
      "Ġ:-(": 2161,
      "ĠBabe": 2162,
      "Ġcomplete": 2163,
      "ĠUpdate": 2164,
      "Ġpretty": 2165,
      "IGHT": 2166,
      "Ġoperator": 2167,
      "Ġchennai": 2168,
      "ĠAlso": 2169,
      "Ġ08000839402": 2170,
      "42": 2171,
      "46": 2172,
      "73": 2173,
      "ILL": 2174,
      "LV": 2175,
      "Lands": 2176,
      "MOR": 2177,
      "OK": 2178,
      "UD": 2179,
      "UN": 2180,
      "WQ": 2181,
      "do": 2182,
      "gn": 2183,
      "ize": 2184,
      "vices": 2185,
      "you": 2186,
      "Ġ;": 2187,
      "Ġ@": 2188,
      "Ġown": 2189,
      "oun": 2190,
      "Ġwis": 2191,
      "Ġsong": 2192,
      "Ġsister": 2193,
      "Ġmen": 2194,
      "..\"": 2195,
      "Ġcou": 2196,
      "Ġcat": 2197,
      "Ġcine": 2198,
      "Ġcum": 2199,
      "Ġyo": 2200,
      "Ġyr": 2201,
      "Ġbout": 2202,
      "ord": 2203,
      "Ġfore": 2204,
      "Ġfren": 2205,
      "Ġlect": 2206,
      "Ġlau": 2207,
      "Ġgd": 2208,
      "Ġpm": 2209,
      "Ġpar": 2210,
      "veal": 2211,
      "ath": 2212,
      "ĠTONE": 2213,
      "stop": 2214,
      "otor": 2215,
      "ĠHI": 2216,
      "Ġinter": 2217,
      "ĠWan": 2218,
      "ĠWith": 2219,
      "Ġmeant": 2220,
      "ĠCR": 2221,
      "ĠCAS": 2222,
      "Ġext": 2223,
      "Ġeach": 2224,
      "Ġrequ": 2225,
      "ics": 2226,
      "ids": 2227,
      "ĠDe": 2228,
      "ĠOur": 2229,
      "ĠFOR": 2230,
      "ĠFrom": 2231,
      "Ġ07": 2232,
      "ĠLo": 2233,
      "urb": 2234,
      "urs": 2235,
      "ĠRem": 2236,
      "uss": 2237,
      "ĠEN": 2238,
      "ption": 2239,
      "Ġokay": 2240,
      "Ġoffers": 2241,
      "ĠThink": 2242,
      "Ġtelling": 2243,
      "Ġused": 2244,
      "Ġwhole": 2245,
      "Ġexp": 2246,
      "Ġexam": 2247,
      "Ġtrans": 2248,
      "Ġfinal": 2249,
      "ARD": 2250,
      "ART": 2251,
      "Ġcollege": 2252,
      "Ġinterest": 2253,
      "ĠWho": 2254,
      "Ġscream": 2255,
      "Ġdiffic": 2256,
      "ĠHAVE": 2257,
      "Ġwrong": 2258,
      "Ġsupport": 2259,
      "ĠREAL": 2260,
      "Ġ0906636": 2261,
      "0871": 2262,
      "avaMob": 2263,
      "Ġreturn": 2264,
      "Ġcourse": 2265,
      "Ġearlier": 2266,
      "ĠCASH": 2267,
      "Ġdifficult": 2268,
      "03": 2269,
      "19": 2270,
      "91": 2271,
      "PP": 2272,
      "SH": 2273,
      "SLV": 2274,
      "TT": 2275,
      "YL": 2276,
      "book": 2277,
      "call": 2278,
      "care": 2279,
      "ches": 2280,
      "go": 2281,
      "gy": 2282,
      "gin": 2283,
      "ling": 2284,
      "mber": 2285,
      "most": 2286,
      "mths": 2287,
      "vr": 2288,
      "Ġage": 2289,
      "Ġwot": 2290,
      "Ġside": 2291,
      "Ġmum": 2292,
      "..:)": 2293,
      "Ġcop": 2294,
      "Ġcode": 2295,
      "Ġbreak": 2296,
      "Ġdes": 2297,
      "erry": 2298,
      "Ġfri": 2299,
      "Ġfil": 2300,
      "Ġfound": 2301,
      "Ġfig": 2302,
      "Ġfav": 2303,
      "Ġgym": 2304,
      "Ġpaper": 2305,
      "vey": 2306,
      "ower": 2307,
      "ars": 2308,
      "ĠSU": 2309,
      "ĠSub": 2310,
      "ĠSony": 2311,
      "ĠSavaMob": 2312,
      "ote": 2313,
      "ĠWife": 2314,
      "ĠCool": 2315,
      "ĠYar": 2316,
      "ĠYear": 2317,
      "Ġthr": 2318,
      "alance": 2319,
      "ĠBSLV": 2320,
      "ĠGr": 2321,
      "ĠGee": 2322,
      "Ġra": 2323,
      "Ġann": 2324,
      "504": 2325,
      "Ġwithin": 2326,
      "Ġfriday": 2327,
      "Ġurgent": 2328,
      "cept": 2329,
      "Ġknew": 2330,
      "Ġplus": 2331,
      "Ġalright": 2332,
      "elp": 2333,
      "Ġanytime": 2334,
      "ĠEvery": 2335,
      "Ġwasn": 2336,
      "Ġspend": 2337,
      "Ġfelt": 2338,
      "Ġphones": 2339,
      "feren": 2340,
      "Ġard": 2341,
      "Ġthinks": 2342,
      "Ġseeing": 2343,
      "iew": 2344,
      "Ġmah": 2345,
      "!!!": 2346,
      "Ġhappiness": 2347,
      "ORE": 2348,
      "ulations": 2349,
      "Ġnumbers": 2350,
      "Ġcontent": 2351,
      "Ġdeal": 2352,
      "Ġmsgs": 2353,
      "Ġservices": 2354,
      "Ġimp": 2355,
      "ĠYOUR": 2356,
      "ISS": 2357,
      "Ġplayer": 2358,
      "Ġdunno": 2359,
      "Ġgirls": 2360,
      "ĠAnything": 2361,
      "wards": 2362,
      "ooth": 2363,
      "ĠBABE": 2364,
      "ĠCongratulations": 2365,
      "Ġ2003": 2366,
      "Ġmrng": 2367,
      "ancy": 2368,
      "Ġ87066": 2369,
      "ĠâĢ¦": 2370,
      "Ġlucky": 2371,
      "327": 2372,
      "Ġhungry": 2373,
      "ohn": 2374,
      "ristmas": 2375,
      "Ġ||": 2376,
      "Ġcurrently": 2377,
      "ĠGuess": 2378,
      "Ġetc": 2379,
      "Ġfucking": 2380,
      "Ġbeautiful": 2381,
      "Ġcomputer": 2382,
      "Ġcouple": 2383,
      "otorola": 2384,
      "ĠBSLVYL": 2385,
      "61": 2386,
      "84": 2387,
      "86": 2388,
      "CM": 2389,
      "EL": 2390,
      "HONE": 2391,
      "IL": 2392,
      "IP": 2393,
      "IVE": 2394,
      "OL": 2395,
      "RY": 2396,
      "SMS": 2397,
      "VER": 2398,
      "bs": 2399,
      "frnd": 2400,
      "ger": 2401,
      "ience": 2402,
      "mp": 2403,
      "ric": 2404,
      "ract": 2405,
      "tin": 2406,
      "use": 2407,
      "view": 2408,
      "Ġ#": 2409,
      "Ġtalking": 2410,
      "Ġwen": 2411,
      "Ġsound": 2412,
      "Ġsign": 2413,
      "Ġmod": 2414,
      "..!": 2415,
      "Ġca": 2416,
      "Ġcount": 2417,
      "Ġip": 2418,
      "Ġtor": 2419,
      "ham": 2420,
      "Ġbas": 2421,
      "Ġboo": 2422,
      "Ġdep": 2423,
      "Ġdate": 2424,
      "Ġdude": 2425,
      "Ġfall": 2426,
      "Ġfight": 2427,
      "Ġfact": 2428,
      "Ġfather": 2429,
      "Ġgl": 2430,
      "Ġgas": 2431,
      "Ġgames": 2432,
      "Ġpri": 2433,
      "Ġpur": 2434,
      "Ġpleas": 2435,
      "ays": 2436,
      "arren": 2437,
      "itions": 2438,
      "ĠHM": 2439,
      "ĠWor": 2440,
      "Ġhor": 2441,
      "ĠCr": 2442,
      "ĠAND": 2443,
      "ĠARE": 2444,
      "Ġisn": 2445,
      "Ġref": 2446,
      "Ġreason": 2447,
      "ĠMU": 2448,
      "ĠMa": 2449,
      "Ġforward": 2450,
      "ĠDad": 2451,
      "ĠDAY": 2452,
      "ĠUgh": 2453,
      "ĠBy": 2454,
      "ĠPete": 2455,
      "entary": 2456,
      "Ġseem": 2457,
      "Ġru": 2458,
      "Ġrain": 2459,
      "Ġkick": 2460,
      "Ġjo": 2461,
      "Ġlik": 2462,
      "ĠLi": 2463,
      "ĠLife": 2464,
      "Ġneva": 2465,
      "Ġarea": 2466,
      "Ġ40": 2467,
      "Ġgets": 2468,
      "Ġloc": 2469,
      "Ġalmost": 2470,
      "ĠJus": 2471,
      "iff": 2472,
      "ĠHee": 2473,
      "ĠOkay": 2474,
      "Ġphot": 2475,
      "ĠDoes": 2476,
      "Ġaskd": 2477,
      "Ġmax": 2478,
      "ERS": 2479,
      "Ġ69": 2480,
      "Ġ08715": 2481,
      "Ġdef": 2482,
      "Ġconnect": 2483,
      "Ġcomplim": 2484,
      "Ġthank": 2485,
      "ĠPOBOX": 2486,
      "Ġrock": 2487,
      "ĠTHIS": 2488,
      "Ġblue": 2489,
      "ĠOne": 2490,
      "Ġends": 2491,
      "Ġ090640": 2492,
      "Ġwinner": 2493,
      "ĠWhich": 2494,
      "Ġfriendship": 2495,
      "Ġcharged": 2496,
      "ĠWatching": 2497,
      "Ġpicking": 2498,
      "603": 2499,
      "Ġ090500": 2500,
      "ĠMaybe": 2501,
      "Ġchild": 2502,
      "Ġsupposed": 2503,
      "Ġswing": 2504,
      "Ġpoint": 2505,
      "Ġcrazy": 2506,
      "Ġinvited": 2507,
      "Ġsimple": 2508,
      "Ġunderstand": 2509,
      "ĠBlu": 2510,
      "ĠCamera": 2511,
      "grins": 2512,
      "ĠSmile": 2513,
      "Ġnyt": 2514,
      "fully": 2515,
      "Ġdisturb": 2516,
      "ĠQuiz": 2517,
      "Ġsemester": 2518,
      "Ġthrough": 2519,
      "Ġcomplimentary": 2520,
      "334": 2521,
      "62": 2522,
      "800": 2523,
      "822": 2524,
      "AD": 2525,
      "DAY": 2526,
      "NING": 2527,
      "NOW": 2528,
      "PO": 2529,
      "RA": 2530,
      "SS": 2531,
      "ai": 2532,
      "biz": 2533,
      "don": 2534,
      "ele": 2535,
      "find": 2536,
      "gs": 2537,
      "ned": 2538,
      "pital": 2539,
      "ring": 2540,
      "rate": 2541,
      "ross": 2542,
      "rcvd": 2543,
      "wh": 2544,
      "Ġve": 2545,
      "Ġtired": 2546,
      "Ġair": 2547,
      "Ġwa": 2548,
      "Ġsy": 2549,
      "Ġsen": 2550,
      "Ġsal": 2551,
      "Ġsil": 2552,
      "Ġmate": 2553,
      "Ġcase": 2554,
      "Ġyes": 2555,
      "Ġyog": 2556,
      "ĠIF": 2557,
      "has": 2558,
      "Ġbud": 2559,
      "Ġdnt": 2560,
      "eral": 2561,
      "Ġlink": 2562,
      "ett": 2563,
      "ĠTIME": 2564,
      "ĠSk": 2565,
      "ĠSat": 2566,
      "ĠSun": 2567,
      "...!": 2568,
      "ĠHG": 2569,
      "ĠHuh": 2570,
      "ĠHelp": 2571,
      "ĠChat": 2572,
      "ĠChan": 2573,
      "ĠColl": 2574,
      "ĠAbi": 2575,
      "Ġeg": 2576,
      "Ġey": 2577,
      "ĠNICE": 2578,
      "key": 2579,
      "ĠMO": 2580,
      "ĠMorning": 2581,
      "ĠMotorola": 2582,
      "ality": 2583,
      "Ġ25": 2584,
      "Ġ28": 2585,
      "ider": 2586,
      "ident": 2587,
      "ĠDude": 2588,
      "ĠBE": 2589,
      "Ġweed": 2590,
      "ries": 2591,
      "Ġheard": 2592,
      "Ġseen": 2593,
      "Ġself": 2594,
      "ĠFANT": 2595,
      "Ġjay": 2596,
      "Ġ077": 2597,
      "ĠLU": 2598,
      "obody": 2599,
      "Ġfrm": 2600,
      "Ġlol": 2601,
      "Ġlost": 2602,
      "uring": 2603,
      "cell": 2604,
      "Ġupdate": 2605,
      "Ġplans": 2606,
      "olice": 2607,
      "Ġpray": 2608,
      "Ġvoice": 2609,
      "Ġwhenever": 2610,
      "ospital": 2611,
      "land": 2612,
      "Ġnoon": 2613,
      "ĠCalls": 2614,
      "Ġsomewhere": 2615,
      "Ġ36": 2616,
      "Ġsending": 2617,
      "ptop": 2618,
      "Ġsmall": 2619,
      "Ġsafe": 2620,
      "Ġmag": 2621,
      "Ġ087124": 2622,
      "morning": 2623,
      "Ġadm": 2624,
      "Ġadv": 2625,
      "Ġdeep": 2626,
      "Ġfinally": 2627,
      "Ġago": 2628,
      "ĠPOLY": 2629,
      "Ġchecking": 2630,
      "Ġshower": 2631,
      "LLO": 2632,
      "Ġchoose": 2633,
      "Ġentered": 2634,
      "ĠFreeMsg": 2635,
      "Ġmayb": 2636,
      "izz": 2637,
      "mins": 2638,
      "Ġparty": 2639,
      "uzz": 2640,
      "Ġbath": 2641,
      "Ġlaptop": 2642,
      "text": 2643,
      "dered": 2644,
      "ĠONLY": 2645,
      "ĠValent": 2646,
      "Ġquestions": 2647,
      "ĠPlus": 2648,
      "ĠAlright": 2649,
      "Ġcrave": 2650,
      "Ġclean": 2651,
      "Ġcredit": 2652,
      "ĠHmmm": 2653,
      "Ġcorrect": 2654,
      "CTION": 2655,
      "chard": 2656,
      "Ġvalued": 2657,
      "Ġlaugh": 2658,
      "Ġextra": 2659,
      "ference": 2660,
      "ĠHMV": 2661,
      "ĠAbiola": 2662,
      "ĠFANTAS": 2663,
      "41": 2664,
      "49": 2665,
      "68": 2666,
      "89": 2667,
      ";-)": 2668,
      "?!": 2669,
      "CE": 2670,
      "NO": 2671,
      "Txt": 2672,
      "da": 2673,
      "fone": 2674,
      "hs": 2675,
      "ib": 2676,
      "love": 2677,
      "ness": 2678,
      "nite": 2679,
      "national": 2680,
      "rm": 2681,
      "tu": 2682,
      "then": 2683,
      "take": 2684,
      "tones": 2685,
      "wise": 2686,
      "Ġer": 2687,
      "Ġed": 2688,
      "Ġ50": 2689,
      "Ġten": 2690,
      "Ġauction": 2691,
      "oup": 2692,
      "Ġwife": 2693,
      "Ġsick": 2694,
      "rer": 2695,
      "reen": 2696,
      "Ġmad": 2697,
      "Ġmist": 2698,
      "Ġmarch": 2699,
      "Ġmusic": 2700,
      "Ġcud": 2701,
      "Ġbag": 2702,
      "Ġbank": 2703,
      "Ġfill": 2704,
      "Ġfla": 2705,
      "Ġfoot": 2706,
      "Ġgen": 2707,
      "Ġgap": 2708,
      "Ġgave": 2709,
      "ane": 2710,
      "omorrow": 2711,
      "etooth": 2712,
      "ĠTC": 2713,
      "ĠSK": 2714,
      "ĠSW": 2715,
      "ĠSer": 2716,
      "ĠSol": 2717,
      "ĠSounds": 2718,
      "ediate": 2719,
      "std": 2720,
      "Ġhands": 2721,
      "Ġind": 2722,
      "ĠWen": 2723,
      "ĠWAS": 2724,
      "Ġho": 2725,
      "ĠAG": 2726,
      "ĠAh": 2727,
      "ĠALL": 2728,
      "Ġrel": 2729,
      "Ġreward": 2730,
      "Ġrecent": 2731,
      "ĠNe": 2732,
      "ĠNever": 2733,
      "ĠNah": 2734,
      "ĠNAME": 2735,
      "ĠNTT": 2736,
      "ĠMm": 2737,
      "ĠMake": 2738,
      "ĠMmm": 2739,
      "ĠMUS": 2740,
      "ali": 2741,
      "Ġbell": 2742,
      "ute": 2743,
      "ĠUN": 2744,
      "ĠBt": 2745,
      "ĠOther": 2746,
      "ĠOops": 2747,
      "Ġhell": 2748,
      "Ġ1000": 2749,
      "outh": 2750,
      "Ġrates": 2751,
      "Ġrply": 2752,
      "ĠFin": 2753,
      "ĠFuck": 2754,
      "Ġorchard": 2755,
      "Ġnear": 2756,
      "unt": 2757,
      "Ġtel": 2758,
      "Ġloving": 2759,
      "Ġloads": 2760,
      "ĠRing": 2761,
      "Ġ850": 2762,
      "Ġ822": 2763,
      "ush": 2764,
      "Ġvia": 2765,
      "Ġgotta": 2766,
      "artment": 2767,
      "Ġcomm": 2768,
      "ĠCaller": 2769,
      "Ġ300": 2770,
      "Ġloved": 2771,
      "Ġlovely": 2772,
      "ĠFRND": 2773,
      "aste": 2774,
      "Ġcoz": 2775,
      "ferent": 2776,
      "pty": 2777,
      "Ġrepresent": 2778,
      "ĠVideo": 2779,
      "Ġawesome": 2780,
      "ĠThk": 2781,
      "Ġusual": 2782,
      "Ġclub": 2783,
      "Ġexper": 2784,
      "ORT": 2785,
      "Ġquick": 2786,
      "Ġtxts": 2787,
      "Ġtxting": 2788,
      "ĠNOT": 2789,
      "aught": 2790,
      "upid": 2791,
      "Ġcons": 2792,
      "Ġfeels": 2793,
      "Ġthanx": 2794,
      "Ġwana": 2795,
      "ĠGOD": 2796,
      "getzed": 2797,
      "Ġcarl": 2798,
      "ISE": 2799,
      "Ġenter": 2800,
      "Ġleaves": 2801,
      "Ġremove": 2802,
      "121": 2803,
      "Ġaccess": 2804,
      "room": 2805,
      "hesh": 2806,
      "Ġempty": 2807,
      "ĠAnyway": 2808,
      "Ġmonths": 2809,
      "irer": 2810,
      "Ġsaturday": 2811,
      "scription": 2812,
      "Ġbathe": 2813,
      "Ġdifferent": 2814,
      "Ġwkly": 2815,
      "Ġwrite": 2816,
      "uhui": 2817,
      "Ġmobiles": 2818,
      "ertune": 2819,
      "ĠHEY": 2820,
      "Ġacross": 2821,
      "ĠLIVE": 2822,
      "Ġslowly": 2823,
      "ĠCoz": 2824,
      "Ġreached": 2825,
      "Ġ0871240": 2826,
      "Ġdiscount": 2827,
      "shine": 2828,
      "ĠCheck": 2829,
      "ĠClub": 2830,
      "Ġwarm": 2831,
      "Ġfixed": 2832,
      "ĠLatest": 2833,
      "Ġdrugs": 2834,
      "ĠShall": 2835,
      "ĠActually": 2836,
      "ĠPhone": 2837,
      "Ġrequest": 2838,
      "PPY": 2839,
      "Ġfilm": 2840,
      "Ġfigure": 2841,
      "Ġdefin": 2842,
      "ĠBluetooth": 2843,
      "ediately": 2844,
      "ĠMUSIC": 2845,
      "Ġrepresentative": 2846,
      "--": 2847,
      "220": 2848,
      "47": 2849,
      "97": 2850,
      ">>": 2851,
      "AKE": 2852,
      "CL": 2853,
      "ENT": 2854,
      "GN": 2855,
      "IF": 2856,
      "IX": 2857,
      "UZ": 2858,
      "UCTION": 2859,
      "aly": 2860,
      "bo": 2861,
      "boy": 2862,
      "cy": 2863,
      "dew": 2864,
      "fl": 2865,
      "ges": 2866,
      "gues": 2867,
      "ij": 2868,
      "io": 2869,
      "ied": 2870,
      "rit": 2871,
      "sn": 2872,
      "ux": 2873,
      "wesome": 2874,
      "zz": 2875,
      "Ġ....": 2876,
      "Ġturn": 2877,
      "Ġsla": 2878,
      "head": 2879,
      "rec": 2880,
      "Ġmir": 2881,
      ".....": 2882,
      "Ġcent": 2883,
      "Ġcele": 2884,
      "ĠiP": 2885,
      "ĠIll": 2886,
      "Ġbb": 2887,
      "Ġbox": 2888,
      "Ġdie": 2889,
      "Ġgay": 2890,
      "Ġgent": 2891,
      "Ġpack": 2892,
      "anu": 2893,
      "vent": 2894,
      "ater": 2895,
      "atar": 2896,
      "ara": 2897,
      "ĠTone": 2898,
      "ĠTOD": 2899,
      "ĠSame": 2900,
      "ĠSweet": 2901,
      "ster": 2902,
      "Ġob": 2903,
      "Ġopp": 2904,
      "ĠHear": 2905,
      "ĠHOW": 2906,
      "ley": 2907,
      "Ġins": 2908,
      "ised": 2909,
      "Ġhuh": 2910,
      "Ġhospital": 2911,
      "Ġmeh": 2912,
      "ĠCO": 2913,
      "ĠCs": 2914,
      "ĠCant": 2915,
      "ĠCAN": 2916,
      "ĠAL": 2917,
      "ĠAM": 2918,
      "ĠArd": 2919,
      "ĠAwesome": 2920,
      "Ġones": 2921,
      "Ġitself": 2922,
      "ĠNet": 2923,
      "ĠNight": 2924,
      "ĠNeed": 2925,
      "ĠMan": 2926,
      "ĠMess": 2927,
      "ĠMore": 2928,
      "ĠMum": 2929,
      "ĠMins": 2930,
      "Ġtht": 2931,
      "ĠDen": 2932,
      "ĠBoy": 2933,
      "ĠBec": 2934,
      "acle": 2935,
      "Ġwear": 2936,
      "Ġmyself": 2937,
      "ĠOK": 2938,
      "ĠOf": 2939,
      "ĠOm": 2940,
      "ĠOpt": 2941,
      "Ġste": 2942,
      "Ġsty": 2943,
      "ĠPerson": 2944,
      "ĠPIC": 2945,
      "ĠParents": 2946,
      "Ġrand": 2947,
      "Ġround": 2948,
      "ĠFIN": 2949,
      "Ġdoin": 2950,
      "Ġfrnd": 2951,
      "ctor": 2952,
      "Ġlov": 2953,
      "Ġlover": 2954,
      "Ġasking": 2955,
      "uro": 2956,
      "Ġ871": 2957,
      "Ġ880": 2958,
      "Ġworried": 2959,
      "Ġworries": 2960,
      "olog": 2961,
      "Ġpract": 2962,
      "eagues": 2963,
      "used": 2964,
      "Ġ0845": 2965,
      "ĠEX": 2966,
      "ify": 2967,
      "cks": 2968,
      "Ġcomin": 2969,
      "issed": 2970,
      "ĠHows": 2971,
      "ĠFROM": 2972,
      "astic": 2973,
      "ĠDogging": 2974,
      "Ġarri": 2975,
      "ĠVoucher": 2976,
      "ĠVery": 2977,
      "ĠVoda": 2978,
      "iger": 2979,
      "Ġoffic": 2980,
      "Ġusf": 2981,
      "Ġusing": 2982,
      "Ġ087123": 2983,
      "Ġexpect": 2984,
      "OUT": 2985,
      "ĠGoodmorning": 2986,
      "Ġtonite": 2987,
      "Ġcond": 2988,
      "akhesh": 2989,
      "OPE": 2990,
      "Ġapprec": 2991,
      "Ġbless": 2992,
      "Ġblack": 2993,
      "Ġbuying": 2994,
      "ĠOnce": 2995,
      "Ġending": 2996,
      "Ġspecially": 2997,
      "Ġmatch": 2998,
      "2468": 2999,
      "Ġresult": 3000,
      "Ġpoor": 3001,
      "OWN": 3002,
      "Ġlazy": 3003,
      "Ġdecide": 3004,
      "ĠRead": 3005,
      "ĠReally": 3006,
      "Ġ:(": 3007,
      "Ġbrings": 3008,
      "THING": 3009,
      "ĠProb": 3010,
      "ĠHAPPY": 3011,
      "Ġprof": 3012,
      "Ġ0906174": 3013,
      "Ġopin": 3014,
      "ĠPlay": 3015,
      "CHAT": 3016,
      "Ġmrt": 3017,
      "Ġ08002": 3018,
      "Ġbooked": 3019,
      "Ġregard": 3020,
      "ĠâĢĵ": 3021,
      "Ġsurpr": 3022,
      "Ġcredits": 3023,
      "ĠITS": 3024,
      "Ġrental": 3025,
      "Ġreading": 3026,
      "oken": 3027,
      "Ġreaching": 3028,
      "ummer": 3029,
      "ĠSomeone": 3030,
      "Ġhoping": 3031,
      "ĠFriendship": 3032,
      "Ġpromise": 3033,
      "Ġinformation": 3034,
      "Ġuncle": 3035,
      "ffee": 3036,
      "Ġdarlin": 3037,
      "Ġpossible": 3038,
      "ĠWanna": 3039,
      "ĠENG": 3040,
      "Ġcopy": 3041,
      "Ġbasic": 3042,
      "ĠMUCH": 3043,
      "Ġseems": 3044,
      "ĠColleagues": 3045,
      "cellent": 3046,
      "Ġcarlos": 3047,
      "Ġdefinite": 3048,
      "ĠTODAY": 3049,
      ".:)": 3050,
      "400": 3051,
      "471": 3052,
      "420": 3053,
      "::": 3054,
      "AK": 3055,
      "BLE": 3056,
      "COM": 3057,
      "IE": 3058,
      "MB": 3059,
      "No": 3060,
      "PR": 3061,
      "PT": 3062,
      "PHONE": 3063,
      "Rakhesh": 3064,
      "SP": 3065,
      "Th": 3066,
      "TIME": 3067,
      "UP": 3068,
      "UCK": 3069,
      "VD": 3070,
      "WX": 3071,
      "ces": 3072,
      "cial": 3073,
      "een": 3074,
      "eep": 3075,
      "fa": 3076,
      "gest": 3077,
      "ient": 3078,
      "ilt": 3079,
      "ja": 3080,
      "lcome": 3081,
      "my": 3082,
      "mad": 3083,
      "mail": 3084,
      "month": 3085,
      "nes": 3086,
      "ped": 3087,
      "pec": 3088,
      "sing": 3089,
      "ten": 3090,
      "viously": 3091,
      "will": 3092,
      "when": 3093,
      "ĠZ": 3094,
      "ĠÂ": 3095,
      "Ġxx": 3096,
      "Ġtim": 3097,
      "Ġtra": 3098,
      "Ġtamp": 3099,
      "Ġaha": 3100,
      "Ġwhe": 3101,
      "Ġwall": 3102,
      "Ġwind": 3103,
      "Ġwoke": 3104,
      "Ġsn": 3105,
      "reveal": 3106,
      "Ġmet": 3107,
      "Ġmis": 3108,
      "Ġmal": 3109,
      "Ġmac": 3110,
      "Ġmood": 3111,
      "Ġmode": 3112,
      "..!!": 3113,
      "Ġcust": 3114,
      "Ġcreat": 3115,
      "Ġbc": 3116,
      "Ġbar": 3117,
      "Ġben": 3118,
      "Ġbother": 3119,
      "Ġbold": 3120,
      "ingers": 3121,
      "Ġdress": 3122,
      "Ġdarren": 3123,
      "Ġduring": 3124,
      "erm": 3125,
      "Ġfat": 3126,
      "Ġfone": 3127,
      "Ġfant": 3128,
      "Ġfau": 3129,
      "Ġly": 3130,
      "Ġlear": 3131,
      "Ġgiving": 3132,
      "Ġpizz": 3133,
      "ano": 3134,
      "ĠTn": 3135,
      "ĠTones": 3136,
      "ities": 3137,
      "itled": 3138,
      "ĠSi": 3139,
      "ĠSim": 3140,
      "ĠSup": 3141,
      "stem": 3142,
      "ĠHur": 3143,
      "lex": 3144,
      "Ġincl": 3145,
      "Ġinside": 3146,
      "ĠWould": 3147,
      "ĠWILL": 3148,
      "ision": 3149,
      "ĠCom": 3150,
      "Ġegg": 3151,
      "Ġiss": 3152,
      "Ġrec": 3153,
      "Ġrecor": 3154,
      "ĠYep": 3155,
      "ĠNat": 3156,
      "ĠMIN": 3157,
      "ĠMerry": 3158,
      "Ġthrow": 3159,
      "Ġthru": 3160,
      "als": 3161,
      "Ġ24": 3162,
      "ĠDA": 3163,
      "ĠDON": 3164,
      "uture": 3165,
      "ĠUs": 3166,
      "ĠBUT": 3167,
      "aces": 3168,
      "Ġweir": 3169,
      "Ġweight": 3170,
      "rible": 3171,
      "Ġheav": 3172,
      "Ġstore": 3173,
      "Ġstreet": 3174,
      "ĠPress": 3175,
      "ĠGra": 3176,
      "ĠGET": 3177,
      "amn": 3178,
      "enty": 3179,
      "ently": 3180,
      "ĠFirst": 3181,
      "ĠFUCK": 3182,
      "Ġji": 3183,
      "Ġlibr": 3184,
      "Ġdog": 3185,
      "Ġdoor": 3186,
      "ĠLets": 3187,
      "chi": 3188,
      "Ġgettin": 3189,
      "unity": 3190,
      "anta": 3191,
      "ctions": 3192,
      "urance": 3193,
      "cel": 3194,
      "ĠRow": 3195,
      "this": 3196,
      "Ġknows": 3197,
      "ĠJoy": 3198,
      "ĠJUST": 3199,
      "ĠJohn": 3200,
      "ume": 3201,
      "Ġvl": 3202,
      "Ġvom": 3203,
      "Ġanymore": 3204,
      "ĠEVE": 3205,
      "EEN": 3206,
      "EEP": 3207,
      "EET": 3208,
      "lax": 3209,
      "9020": 3210,
      "Ġspent": 3211,
      "Ġsport": 3212,
      "Ġsucc": 3213,
      "Ġsuper": 3214,
      "Ġwhats": 3215,
      "ared": 3216,
      "Ġfeb": 3217,
      "ĠKate": 3218,
      "ĠKNOW": 3219,
      "ĠKeep": 3220,
      "emme": 3221,
      "Ġarg": 3222,
      "Ġarm": 3223,
      "Ġwater": 3224,
      "Ġthinkin": 3225,
      "Ġsave": 3226,
      "igital": 3227,
      "action": 3228,
      "ĠFREEPHONE": 3229,
      "Ġ60": 3230,
      "Ġexact": 3231,
      "Ġuni": 3232,
      "OUND": 3233,
      "Ġworkin": 3234,
      "Ġtrust": 3235,
      "Ġreplying": 3236,
      "week": 3237,
      "ĠStart": 3238,
      "Ġdead": 3239,
      "201": 3240,
      "Ġeng": 3241,
      "Ġroad": 3242,
      "Ġseriously": 3243,
      "istered": 3244,
      "Ġcheap": 3245,
      "ucks": 3246,
      "ESS": 3247,
      "Ġpicked": 3248,
      "Ġblood": 3249,
      "Ġletter": 3250,
      "ĠGOT": 3251,
      "Ġagainst": 3252,
      "Ġothers": 3253,
      "Ġstarting": 3254,
      "Ġentitled": 3255,
      "239": 3256,
      "Ġremind": 3257,
      "Ġplanning": 3258,
      "Ġmatches": 3259,
      "ahoo": 3260,
      "word": 3261,
      "Ġpaying": 3262,
      "ppmx": 3263,
      "Ġprep": 3264,
      "Ġroomm": 3265,
      "Ġdoesnt": 3266,
      "olla": 3267,
      "opped": 3268,
      "Ġactiv": 3269,
      "Ġweekends": 3270,
      "onsms": 3271,
      "Ġlessons": 3272,
      "Ġstaying": 3273,
      "Ġwondering": 3274,
      "Ġprocess": 3275,
      "ĠPlz": 3276,
      "Ġmoment": 3277,
      "Ġ2004": 3278,
      "Ġjoined": 3279,
      "Ġmeaning": 3280,
      "uesday": 3281,
      "Ġmovies": 3282,
      "Ġlogo": 3283,
      "Ġ87077": 3284,
      "Ġ08718726": 3285,
      "Ġapartment": 3286,
      "arlos": 3287,
      "Ġhotel": 3288,
      "Ġmonday": 3289,
      "Ġkinda": 3290,
      "Ġtraining": 3291,
      "358": 3292,
      "limited": 3293,
      "Ġmedical": 3294,
      "ĠCamcorder": 3295,
      "Ġtickets": 3296,
      "Ġrespond": 3297,
      "Ġstudying": 3298,
      "ĠPoBox": 3299,
      "Ġ090580945": 3300,
      "airs": 3301,
      "Ġ3030": 3302,
      "Ġcompletely": 3303,
      "Ġwishes": 3304,
      "Ġcatch": 3305,
      "Ġcinema": 3306,
      "Ġforever": 3307,
      "Ġfrens": 3308,
      "ĠWorld": 3309,
      "ĠLike": 3310,
      "Ġmaxim": 3311,
      "Ġ0871520": 3312,
      "60324": 3313,
      "erala": 3314,
      "Ġ08712460324": 3315,
      "Ġadmirer": 3316,
      "ĠService": 3317,
      "Ġexperience": 3318,
      "Ġslave": 3319,
      "Ġmiracle": 3320,
      "ĠiPod": 3321,
      "Ġgentle": 3322,
      "anuary": 3323,
      "ĠOmg": 3324,
      "Ġstyle": 3325,
      "Ġrandom": 3326,
      "igeria": 3327,
      "ĠProbably": 3328,
      "nesday": 3329,
      "pecially": 3330,
      "Ġtampa": 3331,
      "Ġfault": 3332,
      "Ġpizza": 3333,
      "Ġlibrary": 3334,
      "Ġsuccess": 3335,
      "17": 3336,
      "170": 3337,
      "29": 3338,
      "270": 3339,
      "323": 3340,
      "48": 3341,
      "52": 3342,
      "53": 3343,
      "946": 3344,
      "AIT": 3345,
      "DN": 3346,
      "FR": 3347,
      "GB": 3348,
      "IEND": 3349,
      "LIN": 3350,
      "Ldew": 3351,
      "Maid": 3352,
      "NITE": 3353,
      "Pix": 3354,
      "Row": 3355,
      "TER": 3356,
      "UL": 3357,
      "WB": 3358,
      "Wina": 3359,
      "aha": 3360,
      "app": 3361,
      "bar": 3362,
      "ball": 3363,
      "balance": 3364,
      "cer": 3365,
      "cri": 3366,
      "dn": 3367,
      "ga": 3368,
      "gle": 3369,
      "give": 3370,
      "hin": 3371,
      "iest": 3372,
      "ipt": 3373,
      "lic": 3374,
      "lish": 3375,
      "life": 3376,
      "nk": 3377,
      "nal": 3378,
      "okes": 3379,
      "range": 3380,
      "tf": 3381,
      "tmsg": 3382,
      "ule": 3383,
      "uly": 3384,
      "ured": 3385,
      "uation": 3386,
      "vin": 3387,
      "wt": 3388,
      "Ġq": 3389,
      "Ġvers": 3390,
      "Ġti": 3391,
      "Ġtm": 3392,
      "Ġtat": 3393,
      "Ġtar": 3394,
      "Ġtir": 3395,
      "Ġtough": 3396,
      "Ġahead": 3397,
      "Ġwine": 3398,
      "Ġwiv": 3399,
      "Ġwalking": 3400,
      "Ġsar": 3401,
      "Ġsight": 3402,
      "Ġsouth": 3403,
      "rek": 3404,
      "read": 3405,
      "only": 3406,
      "Ġcake": 3407,
      "Ġcamp": 3408,
      "Ġcell": 3409,
      "Ġir": 3410,
      "Ġice": 3411,
      "Ġign": 3412,
      "Ġyrs": 3413,
      "Ġyij": 3414,
      "Ġtowards": 3415,
      "ĠIB": 3416,
      "Ġbx": 3417,
      "Ġbor": 3418,
      "Ġbot": 3419,
      "Ġbid": 3420,
      "Ġbur": 3421,
      "Ġbare": 3422,
      "Ġbak": 3423,
      "Ġbucks": 3424,
      "orge": 3425,
      "erife": 3426,
      "ergy": 3427,
      "Ġfet": 3428,
      "Ġfancy": 3429,
      "Ġnational": 3430,
      "Ġpan": 3431,
      "Ġpat": 3432,
      "Ġpast": 3433,
      "Ġpage": 3434,
      "Ġpres": 3435,
      "Ġpresent": 3436,
      "Ġparents": 3437,
      "Ġpower": 3438,
      "aria": 3439,
      "ĠTime": 3440,
      "ĠSomet": 3441,
      "ĠSure": 3442,
      "ĠSUR": 3443,
      "ĠSOME": 3444,
      "stant": 3445,
      "ots": 3446,
      "ĠHal": 3447,
      "lept": 3448,
      "ĠWR": 3449,
      "ĠWow": 3450,
      "ĠWel": 3451,
      "ĠWANT": 3452,
      "ĠWOT": 3453,
      "Ġhw": 3454,
      "Ġmember": 3455,
      "alla": 3456,
      "allis": 3457,
      "ĠCarlos": 3458,
      "ĠAB": 3459,
      "ĠAN": 3460,
      "ĠAn": 3461,
      "ĠAGE": 3462,
      "ĠAft": 3463,
      "Ġeas": 3464,
      "asing": 3465,
      "Ġreference": 3466,
      "Ġrelax": 3467,
      "ĠYE": 3468,
      "ĠNim": 3469,
      "ĠNice": 3470,
      "ĠNEED": 3471,
      "ĠMat": 3472,
      "ĠMAN": 3473,
      "ĠMISS": 3474,
      "Ġthnk": 3475,
      "Ġform": 3476,
      "00220": 3477,
      "alty": 3478,
      "Ġ21": 3479,
      "iding": 3480,
      "idence": 3481,
      "ĠDr": 3482,
      "ĠDATE": 3483,
      "ĠDID": 3484,
      "ĠDVD": 3485,
      "ĠBea": 3486,
      "ĠBcoz": 3487,
      "ĠBIR": 3488,
      "acter": 3489,
      "Ġweak": 3490,
      "Ġweather": 3491,
      "Ġwelcome": 3492,
      "rie": 3493,
      "riage": 3494,
      "Ġstar": 3495,
      "ĠPolice": 3496,
      "ĠGive": 3497,
      "ĠGIR": 3498,
      "ention": 3499,
      "ential": 3500,
      "Ġ1327": 3501,
      "ada": 3502,
      "Ġrs": 3503,
      "Ġrather": 3504,
      "Ġrcvd": 3505,
      "oph": 3506,
      "oper": 3507,
      "ĠFe": 3508,
      "Ġkb": 3509,
      "Ġkill": 3510,
      "Ġlift": 3511,
      "Ġdoll": 3512,
      "Ġdoctor": 3513,
      "ldren": 3514,
      "Ġ02": 3515,
      "Ġ020": 3516,
      "ĠLand": 3517,
      "ĠLDN": 3518,
      "Ġorig": 3519,
      "Ġnotice": 3520,
      "Ġsofa": 3521,
      "unk": 3522,
      "Ġteac": 3523,
      "ility": 3524,
      "cts": 3525,
      "Ġurself": 3526,
      "Ġshd": 3527,
      "cement": 3528,
      "ĠRa": 3529,
      "ĠRING": 3530,
      "Ġ833": 3531,
      "Ġworse": 3532,
      "epend": 3533,
      "tery": 3534,
      "ĠJoin": 3535,
      "oline": 3536,
      "Ġ0808": 3537,
      "ific": 3538,
      "ivered": 3539,
      "uding": 3540,
      "Ġsomebody": 3541,
      "Ġspree": 3542,
      "Ġsup": 3543,
      "Ġsucks": 3544,
      "oydon": 3545,
      "ĠFRIEND": 3546,
      "aster": 3547,
      "Ġhowever": 3548,
      "que": 3549,
      "Ġaff": 3550,
      "Ġawake": 3551,
      "Ġmuz": 3552,
      "Ġ*****": 3553,
      "Ġuser": 3554,
      "ATION": 3555,
      "ALK": 3556,
      "ERV": 3557,
      "mma": 3558,
      "Ġ62468": 3559,
      "Ġclos": 3560,
      "Ġlead": 3561,
      "Ġunlimited": 3562,
      "Ġquality": 3563,
      "hildren": 3564,
      "Ġtrouble": 3565,
      "Ġtruth": 3566,
      "agine": 3567,
      "20201": 3568,
      "Ġconvey": 3569,
      "ape": 3570,
      "Ġenergy": 3571,
      "ITED": 3572,
      "Ġkept": 3573,
      "Ġshowing": 3574,
      "406": 3575,
      "Ġlets": 3576,
      "Ġchanged": 3577,
      "Ġplayers": 3578,
      "Ġremain": 3579,
      "182": 3580,
      "Ġcharity": 3581,
      "Ġcharacter": 3582,
      "778": 3583,
      "Ġplanned": 3584,
      "872": 3585,
      "Ġmatter": 3586,
      "Ġpersons": 3587,
      "Ġreceipt": 3588,
      "Ġeating": 3589,
      "Ġhappens": 3590,
      "Ġhappening": 3591,
      "Ġgrand": 3592,
      "ĠShopping": 3593,
      "Ġshare": 3594,
      "Ġlonger": 3595,
      "???": 3596,
      "LEAS": 3597,
      "Ġbattery": 3598,
      "Ġbedroom": 3599,
      "ĠMeet": 3600,
      "ugis": 3601,
      "derer": 3602,
      "Ġ:/": 3603,
      "Ġpaid": 3604,
      "Ġcamcorder": 3605,
      "cluding": 3606,
      "kky": 3607,
      "Ġrunning": 3608,
      "Ġ0906170": 3609,
      "ĠCosta": 3610,
      "ĠAlways": 3611,
      "Ġidea": 3612,
      "Ġpassword": 3613,
      "Ġregistered": 3614,
      "ĠHELLO": 3615,
      "Ġlogin": 3616,
      "sson": 3617,
      "Ġsitting": 3618,
      "Ġclear": 3619,
      "ĠWHAT": 3620,
      "unday": 3621,
      "Ġsubscri": 3622,
      "ĠChristmas": 3623,
      "ummy": 3624,
      "Ġmurderer": 3625,
      "Ġnormal": 3626,
      "Ġexcuse": 3627,
      "Ġwednesday": 3628,
      "Ġimma": 3629,
      "Ġimmediately": 3630,
      "ĠWORK": 3631,
      "ĠASAP": 3632,
      "Ġfollowing": 3633,
      "ĠTenerife": 3634,
      "ĠWELL": 3635,
      "Ġmenu": 3636,
      "Ġinternet": 3637,
      "Ġinterested": 3638,
      "Ġfavour": 3639,
      "ĠGeeee": 3640,
      "Ġannoun": 3641,
      "Ġmodel": 3642,
      "Ġcountry": 3643,
      "Ġtorch": 3644,
      "Ġhorny": 3645,
      "ĠCroydon": 3646,
      "Ġliked": 3647,
      "iffs": 3648,
      "Ġphoto": 3649,
      "Ġsystem": 3650,
      "Ġsense": 3651,
      "Ġyoga": 3652,
      "ĠSunshine": 3653,
      "Ġeyes": 3654,
      "ĠLUV": 3655,
      "Ġ36504": 3656,
      "ĠValentines": 3657,
      "Ġmistake": 3658,
      "Ġrecently": 3659,
      "ĠRingtone": 3660,
      "Ġ85023": 3661,
      "Ġ82277": 3662,
      "zzit": 3663,
      "Ġinsurance": 3664,
      "Ġarrive": 3665,
      "Ġ08712300220": 3666,
      "Ġappreciate": 3667,
      "Ġopinion": 3668,
      "Ġdefinitely": 3669,
      "PRISE": 3670,
      "This": 3671,
      "Ġmalaria": 3672,
      "Ġcustcare": 3673,
      "Ġlearn": 3674,
      "Ġheavy": 3675,
      "Ġmaximize": 3676,
      "FREE": 3677,
      "Ġyijue": 3678,
      "ĠSURPRISE": 3679,
      "ĠHalf": 3680,
      "ĠWelcome": 3681,
      "ĠBeaut": 3682,
      "ĠGIRL": 3683,
      "ĠLandline": 3684,
      "\".": 3685,
      "\"...": 3686,
      ").": 3687,
      ".,": 3688,
      ".?": 3689,
      "130": 3690,
      "177": 3691,
      "434": 3692,
      "65": 3693,
      "72": 3694,
      "700": 3695,
      "AGE": 3696,
      "AUCTION": 3697,
      "CO": 3698,
      "Claim": 3699,
      "FL": 3700,
      "GBP": 3701,
      "HP": 3702,
      "IAL": 3703,
      "IES": 3704,
      "Its": 3705,
      "LIM": 3706,
      "ME": 3707,
      "MAS": 3708,
      "OS": 3709,
      "PORT": 3710,
      "RO": 3711,
      "RS": 3712,
      "RW": 3713,
      "SG": 3714,
      "Send": 3715,
      "Sub": 3716,
      "UK": 3717,
      "UU": 3718,
      "VA": 3719,
      "WARD": 3720,
      "__": 3721,
      "bp": 3722,
      "bed": 3723,
      "band": 3724,
      "ca": 3725,
      "cle": 3726,
      "cade": 3727,
      "ding": 3728,
      "den": 3729,
      "dle": 3730,
      "ead": 3731,
      "fing": 3732,
      "fort": 3733,
      "gar": 3734,
      "hr": 3735,
      "hind": 3736,
      "ii": 3737,
      "iant": 3738,
      "ians": 3739,
      "jas": 3740,
      "just": 3741,
      "ka": 3742,
      "ki": 3743,
      "ky": 3744,
      "kiss": 3745,
      "mar": 3746,
      "mob": 3747,
      "mao": 3748,
      "miles": 3749,
      "nat": 3750,
      "new": 3751,
      "over": 3752,
      "ror": 3753,
      "swt": 3754,
      "sunday": 3755,
      "tc": 3756,
      "that": 3757,
      "tment": 3758,
      "wa": 3759,
      "why": 3760,
      "xh": 3761,
      "yi": 3762,
      "yr": 3763,
      "Ġ/": 3764,
      "Ġ<": 3765,
      "Ġom": 3766,
      "Ġri": 3767,
      "Ġtal": 3768,
      "Ġaat": 3769,
      "ini": 3770,
      "ining": 3771,
      "Ġwi": 3772,
      "Ġwer": 3773,
      "Ġwom": 3774,
      "Ġwun": 3775,
      "Ġwnt": 3776,
      "Ġwaste": 3777,
      "Ġsum": 3778,
      "Ġsli": 3779,
      "Ġsounds": 3780,
      "Ġsory": 3781,
      "Ġslept": 3782,
      "Ġmark": 3783,
      "..:-)": 3784,
      "Ġcoo": 3785,
      "Ġcart": 3786,
      "Ġyahoo": 3787,
      "ĠtoClaim": 3788,
      "have": 3789,
      "Ġbf": 3790,
      "Ġbow": 3791,
      "Ġbreat": 3792,
      "Ġbalance": 3793,
      "Ġbugis": 3794,
      "oral": 3795,
      "Ġdem": 3796,
      "Ġdark": 3797,
      "erie": 3798,
      "erms": 3799,
      "Ġfb": 3800,
      "Ġfive": 3801,
      "Ġfreak": 3802,
      "Ġfingers": 3803,
      "Ġfuture": 3804,
      "Ġlim": 3805,
      "Ġlady": 3806,
      "Ġlemme": 3807,
      "Ġnat": 3808,
      "Ġnit": 3809,
      "Ġnxt": 3810,
      "Ġnone": 3811,
      "Ġnobody": 3812,
      "Ġnaught": 3813,
      "Ġge": 3814,
      "Ġgar": 3815,
      "Ġgreet": 3816,
      "nday": 3817,
      "Ġpos": 3818,
      "Ġpuss": 3819,
      "Ġtheat": 3820,
      "ana": 3821,
      "etter": 3822,
      "ĠTw": 3823,
      "ĠTry": 3824,
      "ĠTON": 3825,
      "ĠSL": 3826,
      "ĠSa": 3827,
      "ĠSay": 3828,
      "ĠSEE": 3829,
      "ĠSleep": 3830,
      "ĠSaid": 3831,
      "stfrnd": 3832,
      "Ġocc": 3833,
      "oting": 3834,
      "ĠHL": 3835,
      "ĠHis": 3836,
      "ĠHoney": 3837,
      "ĠHold": 3838,
      "ĠHOT": 3839,
      "ĠHUN": 3840,
      "ĠHOPE": 3841,
      "Ġhang": 3842,
      "ĠWk": 3843,
      "ĠWot": 3844,
      "ĠWAP": 3845,
      "isc": 3846,
      "ises": 3847,
      "Ġhu": 3848,
      "Ġhill": 3849,
      "Ġhost": 3850,
      "Ġhook": 3851,
      "Ġholla": 3852,
      "ĠCC": 3853,
      "ĠCon": 3854,
      "ĠCash": 3855,
      "ĠCute": 3856,
      "ĠAD": 3857,
      "ĠAb": 3858,
      "ĠAc": 3859,
      "Ġec": 3860,
      "Ġeh": 3861,
      "Ġeight": 3862,
      "Ġish": 3863,
      "Ġred": 3864,
      "Ġreveal": 3865,
      "Ġreview": 3866,
      "ĠMark": 3867,
      "ĠMESS": 3868,
      "ĠMSG": 3869,
      "ĠMoral": 3870,
      "ĠDAR": 3871,
      "ĠDONE": 3872,
      "ĠDigital": 3873,
      "ĠBest": 3874,
      "ĠBack": 3875,
      "ĠBLO": 3876,
      "acs": 3877,
      "illiant": 3878,
      "Ġwebs": 3879,
      "ĠOR": 3880,
      "Ġhello": 3881,
      "Ġstra": 3882,
      "Ġstation": 3883,
      "Ġstress": 3884,
      "Ġstock": 3885,
      "ĠPA": 3886,
      "ĠPre": 3887,
      "ĠPut": 3888,
      "ĠGM": 3889,
      "ental": 3890,
      "ĠFr": 3891,
      "ĠFancy": 3892,
      "Ġkano": 3893,
      "Ġje": 3894,
      "Ġjoke": 3895,
      "Ġdoc": 3896,
      "Ġ078": 3897,
      "ĠLoo": 3898,
      "ĠLau": 3899,
      "ĠLuck": 3900,
      "ĠLdn": 3901,
      "Ġcancel": 3902,
      "Ġate": 3903,
      "5022": 3904,
      "Ġsoft": 3905,
      "uns": 3906,
      "pped": 3907,
      "Ġtea": 3908,
      "Ġtem": 3909,
      "Ġtech": 3910,
      "Ġwilling": 3911,
      "ilates": 3912,
      "ights": 3913,
      "Ġloan": 3914,
      "Ġsho": 3915,
      "ura": 3916,
      "urity": 3917,
      "days": 3918,
      "ĠRight": 3919,
      "Ġ83": 3920,
      "Ġ85": 3921,
      "Ġ89": 3922,
      "Ġ888": 3923,
      "Ġ860": 3924,
      "Ġworks": 3925,
      "Ġplenty": 3926,
      "ĠJay": 3927,
      "ĠJuz": 3928,
      "olo": 3929,
      "ump": 3930,
      "ums": 3931,
      "usive": 3932,
      "Ġvar": 3933,
      "Ġvary": 3934,
      "Ġanybody": 3935,
      "ĠEh": 3936,
      "ĠEr": 3937,
      "ĠEuro": 3938,
      "ears": 3939,
      "Ġgoto": 3940,
      "ĠHav": 3941,
      "Ġnokia": 3942,
      "Ġ35": 3943,
      "Ġspace": 3944,
      "Ġsunday": 3945,
      "andy": 3946,
      "INK": 3947,
      "ĠHowz": 3948,
      "Ġcover": 3949,
      "Ġcold": 3950,
      "Ġcoffee": 3951,
      "Ġdaily": 3952,
      "Ġarrange": 3953,
      "Ġsale": 3954,
      "Ġrepl": 3955,
      "Ġrepli": 3956,
      "ĠVide": 3957,
      "Ġaskin": 3958,
      "ĠThought": 3959,
      "amps": 3960,
      "Ġ0871471": 3961,
      "Ġclosed": 3962,
      "Ġwond": 3963,
      "ulation": 3964,
      "Ġleg": 3965,
      "Ġunless": 3966,
      ":-).": 3967,
      ":-)..": 3968,
      "OUS": 3969,
      "lfrnd": 3970,
      "Ġtrack": 3971,
      "oved": 3972,
      "Ġmanage": 3973,
      "Ġgives": 3974,
      "ĠHiya": 3975,
      "ĠStock": 3976,
      "aged": 3977,
      "ĠHavent": 3978,
      "Ġ7250": 3979,
      "Ġenvel": 3980,
      "Ġrole": 3981,
      "XXXX": 3982,
      "Ġshouldn": 3983,
      "ĠTHERE": 3984,
      "2210": 3985,
      "ointment": 3986,
      "Ġwherever": 3987,
      "AST": 3988,
      "888": 3989,
      "Ġkeeping": 3990,
      "Ġchill": 3991,
      "Ġchristmas": 3992,
      "Ġended": 3993,
      "Ġcouldn": 3994,
      "Ġstarts": 3995,
      "IST": 3996,
      "125": 3997,
      "128": 3998,
      "ĠXMAS": 3999,
      "Ġxy": 4000,
      "ovable": 4001,
      "876": 4002,
      "Ġpersonal": 4003,
      "Ġeatin": 4004,
      "Ġgirlfrnd": 4005,
      "loving": 4006,
      "Ġgroup": 4007,
      "Ġembar": 4008,
      "ondon": 4009,
      "Ġ087014": 4010,
      "Ġ0870750": 4011,
      "tyl": 4012,
      "olly": 4013,
      "Ġadded": 4014,
      "Ġproblems": 4015,
      "Ġ0905000": 4016,
      "Ġbecome": 4017,
      "Ġflat": 4018,
      "Ġflirt": 4019,
      "ĠSpl": 4020,
      "Ġattend": 4021,
      "ĠONE": 4022,
      "Ġchecked": 4023,
      "382": 4024,
      "Ġfacebook": 4025,
      "THDAY": 4026,
      "Ġhurts": 4027,
      "ĠPrice": 4028,
      "36504": 4029,
      "Ġsetting": 4030,
      "Ġ090612210": 4031,
      "Ġposted": 4032,
      "ĠBACK": 4033,
      "Ġavo": 4034,
      "Ġsunny": 4035,
      "Ġ.....": 4036,
      "Ġinviting": 4037,
      "Ġ!!!": 4038,
      "Ġfullonsms": 4039,
      "Ġstudents": 4040,
      "28100": 4041,
      "Ġsituation": 4042,
      "ĠLIKE": 4043,
      "Ġmarry": 4044,
      "Ġmarriage": 4045,
      "Ġdied": 4046,
      "ensive": 4047,
      "Ġholding": 4048,
      "ĠDelivery": 4049,
      "Ġstrong": 4050,
      "Ġpolys": 4051,
      "ĠChoose": 4052,
      "ĠArcade": 4053,
      "ĠAiyo": 4054,
      "ĠAiyah": 4055,
      "Ġdiscuss": 4056,
      "ney": 4057,
      "uild": 4058,
      "Ġespecially": 4059,
      "ĠTsCs": 4060,
      "LAND": 4061,
      "Ġticket": 4062,
      "Ġmurder": 4063,
      "Ġdirectly": 4064,
      "ĠTXTAUCTION": 4065,
      "iction": 4066,
      "Ġexciting": 4067,
      "Ġrespon": 4068,
      "90044": 4069,
      "azing": 4070,
      "yler": 4071,
      "ĠIndia": 4072,
      "Ġinstead": 4073,
      "Ġinformed": 4074,
      "whats": 4075,
      "Ġevng": 4076,
      "ĠMissing": 4077,
      "Ġstandard": 4078,
      "ĠPoly": 4079,
      "ĠLater": 4080,
      "Ġvikky": 4081,
      "LOVE": 4082,
      "Ġterms": 4083,
      "ĠWaiting": 4084,
      "ĠMobiles": 4085,
      "MORNING": 4086,
      "ĠLover": 4087,
      "ĠRemember": 4088,
      "Ġexpensive": 4089,
      "Ġscreaming": 4090,
      "ELF": 4091,
      "Ġglad": 4092,
      "Ġpleased": 4093,
      "ĠMax": 4094,
      "Ġ09050000": 4095,
      "Ġ09050090044": 4096,
      "Ġbudget": 4097,
      "ĠSaturday": 4098,
      "Ġadvance": 4099,
      "ĠAhmad": 4100,
      "ĠUNLIM": 4101,
      "Ġcelebr": 4102,
      "ĠCOLL": 4103,
      "Ġ084528100": 4104,
      "Ġofficial": 4105,
      "Ġ0800298": 4106,
      "Ġcreated": 4107,
      "Ġbene": 4108,
      "Ġfantastic": 4109,
      "ĠTnCs": 4110,
      "ĠSiPix": 4111,
      "Ġweird": 4112,
      "Ġvomit": 4113,
      "Ġ087152036": 4114,
      "17012": 4115,
      "AITING": 4116,
      "Ġversion": 4117,
      "Ġtariffs": 4118,
      "Ġcampus": 4119,
      "Ġbarely": 4120,
      "Ġfetch": 4121,
      "ĠNimya": 4122,
      "ĠBIRTHDAY": 4123,
      "LEASE": 4124,
      "Ġannouncement": 4125,
      "ĠBeautiful": 4126,
      "Ġomw": 4127,
      "Ġaathi": 4128,
      "Ġnaughty": 4129,
      "Ġpussy": 4130,
      "Ġtheatre": 4131,
      "ĠDARLIN": 4132,
      "Ġwebsite": 4133,
      "Ġstraight": 4134,
      "Ġ86021": 4135,
      "Ġreplied": 4136,
      "ĠStockport": 4137,
      "Ġenvelope": 4138,
      "Ġ08701417012": 4139,
      "Ġ08707509020": 4140,
      "ĠUNLIMITED": 4141,
      ")'": 4142,
      "+?": 4143,
      ",''": 4144,
      ".!": 4145,
      "05": 4146,
      "06": 4147,
      "122": 4148,
      "380": 4149,
      "43": 4150,
      "790": 4151,
      ";)": 4152,
      "AIN": 4153,
      "AVE": 4154,
      "AMS": 4155,
      "BY": 4156,
      "Be": 4157,
      "CALL": 4158,
      "Eric": 4159,
      "For": 4160,
      "HE": 4161,
      "Mobile": 4162,
      "NA": 4163,
      "NY": 4164,
      "NER": 4165,
      "OY": 4166,
      "OOK": 4167,
      "QU": 4168,
      "ROW": 4169,
      "St": 4170,
      "SELF": 4171,
      "The": 4172,
      "UB": 4173,
      "VAL": 4174,
      "WC": 4175,
      "We": 4176,
      "You": 4177,
      "cha": 4178,
      "chat": 4179,
      "code": 4180,
      "dom": 4181,
      "ext": 4182,
      "fo": 4183,
      "form": 4184,
      "from": 4185,
      "gu": 4186,
      "gam": 4187,
      "gnt": 4188,
      "good": 4189,
      "hu": 4190,
      "hope": 4191,
      "iver": 4192,
      "ler": 4193,
      "low": 4194,
      "lad": 4195,
      "ml": 4196,
      "may": 4197,
      "mbers": 4198,
      "oc": 4199,
      "oji": 4200,
      "po": 4201,
      "pot": 4202,
      "part": 4203,
      "set": 4204,
      "sit": 4205,
      "some": 4206,
      "sms": 4207,
      "sigh": 4208,
      "tr": 4209,
      "til": 4210,
      "tel": 4211,
      "uo": 4212,
      "uu": 4213,
      "uch": 4214,
      "vm": 4215,
      "vis": 4216,
      "wat": 4217,
      "yrs": 4218,
      "zes": 4219,
      "Ġ%": 4220,
      "Ġow": 4221,
      "Ġver": 4222,
      "Ġess": 4223,
      "Ġxxxx": 4224,
      "Ġzed": 4225,
      "Ġtt": 4226,
      "Ġtour": 4227,
      "Ġtyler": 4228,
      "Ġaun": 4229,
      "Ġaud": 4230,
      "inal": 4231,
      "Ġwet": 4232,
      "Ġsed": 4233,
      "Ġsite": 4234,
      "Ġsummer": 4235,
      "rest": 4236,
      "Ġmand": 4237,
      "Ġmother": 4238,
      "Ġmths": 4239,
      "Ġmorn": 4240,
      "ona": 4241,
      "oned": 4242,
      "Ġcry": 4243,
      "Ġcab": 4244,
      "Ġcook": 4245,
      "Ġcup": 4246,
      "Ġcustom": 4247,
      "Ġcuz": 4248,
      "Ġcru": 4249,
      "Ġic": 4250,
      "Ġil": 4251,
      "Ġide": 4252,
      "lle": 4253,
      "Ġyan": 4254,
      "Ġyest": 4255,
      "ĠID": 4256,
      "ĠIam": 4257,
      "hah": 4258,
      "haust": 4259,
      "Ġbo": 4260,
      "Ġbrow": 4261,
      "Ġbost": 4262,
      "Ġbuff": 4263,
      "Ġbought": 4264,
      "Ġbody": 4265,
      "Ġbuns": 4266,
      "Ġded": 4267,
      "Ġdry": 4268,
      "Ġdue": 4269,
      "erally": 4270,
      "Ġfish": 4271,
      "Ġfail": 4272,
      "Ġfool": 4273,
      "Ġlad": 4274,
      "Ġlone": 4275,
      "Ġlab": 4276,
      "Ġlick": 4277,
      "Ġnigeria": 4278,
      "Ġnoline": 4279,
      "Ġgrow": 4280,
      "Ġpound": 4281,
      "Ġpong": 4282,
      "Ġpie": 4283,
      "Ġpap": 4284,
      "Ġppm": 4285,
      "Ġpple": 4286,
      "Ġpix": 4287,
      "Ġpissed": 4288,
      "Ġpilates": 4289,
      "Ġumma": 4290,
      "anes": 4291,
      "anade": 4292,
      "esus": 4293,
      "ows": 4294,
      "eth": 4295,
      "ĠTel": 4296,
      "ĠTra": 4297,
      "ĠTalk": 4298,
      "ĠTmr": 4299,
      "ĠTomorrow": 4300,
      "ĠTOWN": 4301,
      "ĠTuesday": 4302,
      "ĠTALK": 4303,
      "ĠTerms": 4304,
      "ĠSc": 4305,
      "ĠSent": 4306,
      "ĠSad": 4307,
      "ĠSec": 4308,
      "ĠShi": 4309,
      "ĠSex": 4310,
      "ĠSERV": 4311,
      "ĠHome": 4312,
      "Ġhate": 4313,
      "ĠWK": 4314,
      "ĠWake": 4315,
      "ĠWah": 4316,
      "ĠWERE": 4317,
      "isf": 4318,
      "Ġhr": 4319,
      "Ġhv": 4320,
      "Ġhoney": 4321,
      "Ġhrs": 4322,
      "Ġmembers": 4323,
      "ĠCON": 4324,
      "ĠCAR": 4325,
      "ĠCOM": 4326,
      "ĠCLA": 4327,
      "ĠAd": 4328,
      "ĠApp": 4329,
      "ĠAuction": 4330,
      "Ġonto": 4331,
      "Ġisnt": 4332,
      "asana": 4333,
      "Ġreco": 4334,
      "ĠYun": 4335,
      "ĠNational": 4336,
      "ĠNIGHT": 4337,
      "ĠMP": 4338,
      "ĠMr": 4339,
      "ĠMin": 4340,
      "ĠMust": 4341,
      "ĠMON": 4342,
      "ĠMOR": 4343,
      "ĠMany": 4344,
      "ĠMoji": 4345,
      "Ġthurs": 4346,
      "alian": 4347,
      "Ġ26": 4348,
      "ĠDload": 4349,
      "ĠDRA": 4350,
      "ĠDamn": 4351,
      "ĠDepend": 4352,
      "oogle": 4353,
      "ĠUS": 4354,
      "ĠBad": 4355,
      "ĠBir": 4356,
      "ĠBuy": 4357,
      "ĠBook": 4358,
      "ĠBoss": 4359,
      "ĠBreak": 4360,
      "ĠBetter": 4361,
      "illage": 4362,
      "ril": 4363,
      "ĠOH": 4364,
      "Ġhey": 4365,
      "Ġstep": 4366,
      "Ġstupid": 4367,
      "ĠPC": 4368,
      "ĠPAR": 4369,
      "ĠPro": 4370,
      "ĠGe": 4371,
      "ĠGames": 4372,
      "ĠGBP": 4373,
      "ĠGIVE": 4374,
      "Ġseason": 4375,
      "Ġrd": 4376,
      "Ġran": 4377,
      "Ġrad": 4378,
      "Ġrays": 4379,
      "ĠFONE": 4380,
      "Ġcallertune": 4381,
      "Ġkids": 4382,
      "Ġju": 4383,
      "Ġjoy": 4384,
      "Ġjava": 4385,
      "Ġjaz": 4386,
      "Ġjohn": 4387,
      "Ġlion": 4388,
      "ĠLS": 4389,
      "ĠLea": 4390,
      "ĠLuv": 4391,
      "ĠLmao": 4392,
      "ĠLondon": 4393,
      "Ġorange": 4394,
      "Ġnecess": 4395,
      "Ġaren": 4396,
      "Ġnote": 4397,
      "ltim": 4398,
      "Ġsocial": 4399,
      "ants": 4400,
      "antic": 4401,
      "Ġteam": 4402,
      "Ġteach": 4403,
      "ilos": 4404,
      "Ġloy": 4405,
      "Ġurgnt": 4406,
      "Ġshi": 4407,
      "Ġshuhui": 4408,
      "Ġasleep": 4409,
      "ural": 4410,
      "cember": 4411,
      "ĠRs": 4412,
      "ĠREC": 4413,
      "Ġ890": 4414,
      "Ġ855": 4415,
      "Ġ841": 4416,
      "Ġplaces": 4417,
      "ately": 4418,
      "ĠJord": 4419,
      "ĠJanuary": 4420,
      "ols": 4421,
      "abe": 4422,
      "abha": 4423,
      "umb": 4424,
      "ument": 4425,
      "uses": 4426,
      "ĠEng": 4427,
      "ĠEVER": 4428,
      "Ġamt": 4429,
      "Ġamong": 4430,
      "Ġamount": 4431,
      "lands": 4432,
      "ĠWere": 4433,
      "ĠCallers": 4434,
      "ĠCallertune": 4435,
      "906": 4436,
      "Ġ31": 4437,
      "Ġspeed": 4438,
      "Ġspell": 4439,
      "Ġsugg": 4440,
      "arden": 4441,
      "ĠKind": 4442,
      "ĠKids": 4443,
      "icket": 4444,
      "Ġtexting": 4445,
      "Ġlatr": 4446,
      "asters": 4447,
      "Ġ09099": 4448,
      "fection": 4449,
      "Ġhows": 4450,
      "Ġarrest": 4451,
      "Ġreport": 4452,
      "Ġasks": 4453,
      "Ġaffection": 4454,
      "Ġ530": 4455,
      "ĠThurs": 4456,
      "Ġtodays": 4457,
      "Ġtells": 4458,
      "ortunity": 4459,
      "ĠWhats": 4460,
      "mmm": 4461,
      "sold": 4462,
      "ffic": 4463,
      "Ġ087178": 4464,
      "Ġclick": 4465,
      "Ġclock": 4466,
      "Ġnights": 4467,
      "Ġexcept": 4468,
      "Ġexhaust": 4469,
      "ular": 4470,
      "Ġunable": 4471,
      "Ġunsold": 4472,
      "OUBLE": 4473,
      "Ġquit": 4474,
      "Ġquoting": 4475,
      "Ġcontract": 4476,
      "Ġtruly": 4477,
      "assed": 4478,
      "well": 4479,
      "Ġadvice": 4480,
      "Ġadult": 4481,
      "Ġbro": 4482,
      "Ġbrain": 4483,
      "ĠStyl": 4484,
      "ĠStupid": 4485,
      "Ġderek": 4486,
      "ĠHaven": 4487,
      "Ġconstant": 4488,
      "comuk": 4489,
      "Ġenem": 4490,
      "Ġkey": 4491,
      "Ġserious": 4492,
      "Ġstopped": 4493,
      "Ġimagine": 4494,
      "Ġcheaper": 4495,
      "ĠTHAN": 4496,
      "Ġdropped": 4497,
      "Ġdrunk": 4498,
      "Ġappr": 4499,
      "Ġappointment": 4500,
      "Ġblank": 4501,
      "Ġcontacted": 4502,
      "Ġsurely": 4503,
      "Ġcars": 4504,
      "ments": 4505,
      "Ġchick": 4506,
      "Ġchoice": 4507,
      "Ġ09065": 4508,
      "ISH": 4509,
      "Ġintro": 4510,
      "Ġplaying": 4511,
      "Ġearth": 4512,
      "ized": 4513,
      "ĠXCHAT": 4514,
      "Ġaccident": 4515,
      "Ġcharges": 4516,
      "Ġplane": 4517,
      "Ġminuts": 4518,
      "Ġpartner": 4519,
      "Ġdint": 4520,
      "ICES": 4521,
      "Ġscore": 4522,
      "Ġpictu": 4523,
      "ĠLOL": 4524,
      "Ġprefer": 4525,
      "Ġhigh": 4526,
      "Ġrooms": 4527,
      "Ġbitch": 4528,
      "OWER": 4529,
      "warded": 4530,
      "ECT": 4531,
      "ECIAL": 4532,
      "Ġsatisf": 4533,
      "Ġfunny": 4534,
      "Ġ80062": 4535,
      "Ġtwice": 4536,
      "ĠLoves": 4537,
      "ĠLovely": 4538,
      "ooty": 4539,
      "Ġbirds": 4540,
      "Ġlaw": 4541,
      "Ġlaid": 4542,
      "Ġlookin": 4543,
      "Ġlooked": 4544,
      "151": 4545,
      "rental": 4546,
      "Ġselection": 4547,
      "555": 4548,
      "7870": 4549,
      "ĠPrin": 4550,
      "Ġsett": 4551,
      "ĠHAD": 4552,
      "Ġ09061790": 4553,
      "ertain": 4554,
      "anger": 4555,
      "696": 4556,
      "Ġ!!''": 4557,
      "ĠHEART": 4558,
      "Ġvalent": 4559,
      "Ġvideochat": 4560,
      "Ġawaiting": 4561,
      "Ġ08718720201": 4562,
      "ĠGOODMORNING": 4563,
      "Ġapolog": 4564,
      "Ġsurfing": 4565,
      "ĠTELL": 4566,
      "Ġrentl": 4567,
      "Ġcross": 4568,
      "ĠWHO": 4569,
      "unde": 4570,
      "Ġmarried": 4571,
      "Ġdiet": 4572,
      "ĠDelivered": 4573,
      "2004": 4574,
      "inese": 4575,
      "742": 4576,
      "Ġmoan": 4577,
      "Ġmeds": 4578,
      "ĠSOON": 4579,
      "Ġsearching": 4580,
      "Ġesc": 4581,
      "ĠSHIT": 4582,
      "Ġlistening": 4583,
      "'',": 4584,
      "Ġgals": 4585,
      "ĠTrue": 4586,
      "Ġselling": 4587,
      "hhhh": 4588,
      "ĠIndian": 4589,
      "ĠWishing": 4590,
      "Ġsingle": 4591,
      "ĠWORLD": 4592,
      "ighb": 4593,
      "winner": 4594,
      "ĠCDs": 4595,
      "ounge": 4596,
      "Ġlecture": 4597,
      "stoptxt": 4598,
      "Ġinterview": 4599,
      "ĠDecember": 4600,
      "Ġinteresting": 4601,
      "ĠREALLY": 4602,
      "0871872": 4603,
      "Ġreturns": 4604,
      "SHIP": 4605,
      "Ġdesp": 4606,
      "Ġfavor": 4607,
      "ĠSonyEric": 4608,
      "Ġcafe": 4609,
      "Ġforwarded": 4610,
      "Ġraining": 4611,
      "Ġjoking": 4612,
      "Ġlocal": 4613,
      "Ġlocations": 4614,
      "Ġphotos": 4615,
      "Ġconnection": 4616,
      "Ġairport": 4617,
      "Ġwaking": 4618,
      "Ġsilent": 4619,
      "ĠChance": 4620,
      "ĠChange": 4621,
      "ĠFANTASIES": 4622,
      "ĠAGAIN": 4623,
      "Ġbelly": 4624,
      "ĠOtherwise": 4625,
      "Ġhella": 4626,
      "Ġconsider": 4627,
      "Ġturns": 4628,
      "Ġopportunity": 4629,
      "ĠHeart": 4630,
      "Ġlovable": 4631,
      "Ġloverboy": 4632,
      "Ġconditions": 4633,
      "Ġresults": 4634,
      "Ġregards": 4635,
      "Ġsurprise": 4636,
      "ĠENGLAND": 4637,
      "Ġbasically": 4638,
      "MBER": 4639,
      "Ġtiming": 4640,
      "Ġwhether": 4641,
      "ĠComp": 4642,
      "Ġissues": 4643,
      "Ġjiu": 4644,
      "Ġarmand": 4645,
      "Ġexactly": 4646,
      "Ġroommate": 4647,
      "Ġ08718726270": 4648,
      "Ġignore": 4649,
      "ĠIBH": 4650,
      "ophones": 4651,
      "Ġdollars": 4652,
      "Ġoriginal": 4653,
      "PORTANT": 4654,
      "Ġcartoon": 4655,
      "ĠHolder": 4656,
      "Ġhostel": 4657,
      "Ġrevealed": 4658,
      "ĠMESSAGE": 4659,
      "urawinner": 4660,
      "Ġ3510": 4661,
      "ĠVideophones": 4662,
      "sighs": 4663,
      "Ġcabin": 4664,
      "Ġboston": 4665,
      "Ġpongal": 4666,
      "Ġjazz": 4667,
      "ĠJordan": 4668,
      "Ġsuggest": 4669,
      "Ġ090997": 4670,
      "Ġarrested": 4671,
      "Ġpictures": 4672,
      "Ġ!!''.": 4673,
      "ĠSonyEricsson": 4674,
      "!..": 4675,
      "),": 4676,
      ".:-)": 4677,
      "27": 4678,
      "345": 4679,
      "440": 4680,
      "428": 4681,
      "63": 4682,
      "6906": 4683,
      "76": 4684,
      "7239": 4685,
      "96": 4686,
      "910": 4687,
      "918": 4688,
      ":\"": 4689,
      ":(": 4690,
      ";:(": 4691,
      "AE": 4692,
      "AH": 4693,
      "AIL": 4694,
      "CY": 4695,
      "Care": 4696,
      "CLE": 4697,
      "Children": 4698,
      "DE": 4699,
      "DY": 4700,
      "Day": 4701,
      "EF": 4702,
      "EX": 4703,
      "FA": 4704,
      "FE": 4705,
      "FONE": 4706,
      "From": 4707,
      "Gme": 4708,
      "HG": 4709,
      "JHL": 4710,
      "JUST": 4711,
      "KPO": 4712,
      "LP": 4713,
      "MI": 4714,
      "MW": 4715,
      "Me": 4716,
      "Mar": 4717,
      "Miss": 4718,
      "Mtmsg": 4719,
      "Out": 4720,
      "Our": 4721,
      "PH": 4722,
      "Please": 4723,
      "QP": 4724,
      "RITE": 4725,
      "SK": 4726,
      "SO": 4727,
      "To": 4728,
      "TIC": 4729,
      "Tyr": 4730,
      "Un": 4731,
      "Ur": 4732,
      "WP": 4733,
      "WU": 4734,
      "WAY": 4735,
      "WAITING": 4736,
      "\\'": 4737,
      "_;": 4738,
      "after": 4739,
      "bl": 4740,
      "back": 4741,
      "box": 4742,
      "bles": 4743,
      "che": 4744,
      "ced": 4745,
      "did": 4746,
      "dont": 4747,
      "fu": 4748,
      "fet": 4749,
      "free": 4750,
      "ging": 4751,
      "gbp": 4752,
      "hw": 4753,
      "hone": 4754,
      "iw": 4755,
      "iet": 4756,
      "iot": 4757,
      "ius": 4758,
      "iec": 4759,
      "iola": 4760,
      "jith": 4761,
      "ked": 4762,
      "kts": 4763,
      "lor": 4764,
      "lanta": 4765,
      "ming": 4766,
      "mess": 4767,
      "miss": 4768,
      "mobile": 4769,
      "missed": 4770,
      "nam": 4771,
      "nice": 4772,
      "ners": 4773,
      "nical": 4774,
      "of": 4775,
      "oz": 4776,
      "oil": 4777,
      "oking": 4778,
      "pw": 4779,
      "pic": 4780,
      "pose": 4781,
      "qx": 4782,
      "rut": 4783,
      "rol": 4784,
      "ros": 4785,
      "rman": 4786,
      "she": 4787,
      "sen": 4788,
      "sol": 4789,
      "smore": 4790,
      "smiles": 4791,
      "ti": 4792,
      "tv": 4793,
      "ted": 4794,
      "tter": 4795,
      "tain": 4796,
      "ture": 4797,
      "times": 4798,
      "ury": 4799,
      "uce": 4800,
      "ures": 4801,
      "under": 4802,
      "uition": 4803,
      "ucoz": 4804,
      "uitions": 4805,
      "ucy": 4806,
      "vt": 4807,
      "vy": 4808,
      "via": 4809,
      "vity": 4810,
      "vious": 4811,
      "with": 4812,
      "ware": 4813,
      "yt": 4814,
      "yar": 4815,
      "ÂĶ": 4816,
      "Ġ[": 4817,
      "Ġz": 4818,
      "Ġll": 4819,
      "Ġtre": 4820,
      "Ġtab": 4821,
      "Ġtree": 4822,
      "Ġtkts": 4823,
      "Ġtuition": 4824,
      "Ġain": 4825,
      "Ġave": 4826,
      "Ġast": 4827,
      "Ġaut": 4828,
      "Ġaight": 4829,
      "Ġaint": 4830,
      "Ġalex": 4831,
      "ino": 4832,
      "inst": 4833,
      "ination": 4834,
      "ints": 4835,
      "including": 4836,
      "info": 4837,
      "oud": 4838,
      "oul": 4839,
      "Ġwal": 4840,
      "Ġwest": 4841,
      "Ġwap": 4842,
      "Ġsom": 4843,
      "Ġsam": 4844,
      "Ġsour": 4845,
      "Ġsens": 4846,
      "heart": 4847,
      "help": 4848,
      "rea": 4849,
      "rem": 4850,
      "rew": 4851,
      "rey": 4852,
      "real": 4853,
      "reep": 4854,
      "Ġmc": 4855,
      "Ġmt": 4856,
      "Ġmas": 4857,
      "Ġmass": 4858,
      "Ġmach": 4859,
      "Ġmummy": 4860,
      "Ġmasters": 4861,
      "..?": 4862,
      "Ġcn": 4863,
      "Ġcast": 4864,
      "Ġcap": 4865,
      "Ġcbe": 4866,
      "Ġcream": 4867,
      "Ġcreep": 4868,
      "Ġive": 4869,
      "Ġizzit": 4870,
      "llen": 4871,
      "llex": 4872,
      "Ġyer": 4873,
      "Ġyuo": 4874,
      "ĠIQ": 4875,
      "ĠINT": 4876,
      "ĠIVE": 4877,
      "ĠIND": 4878,
      "ĠIbiz": 4879,
      "Ġba": 4880,
      "Ġbin": 4881,
      "Ġban": 4882,
      "Ġbay": 4883,
      "Ġbday": 4884,
      "Ġbla": 4885,
      "Ġboss": 4886,
      "Ġbcoz": 4887,
      "Ġbuzz": 4888,
      "Ġbuild": 4889,
      "Ġbooty": 4890,
      "ingly": 4891,
      "Ġdou": 4892,
      "Ġdub": 4893,
      "Ġdouble": 4894,
      "Ġdanc": 4895,
      "erve": 4896,
      "ernal": 4897,
      "Ġfly": 4898,
      "Ġfur": 4899,
      "Ġfour": 4900,
      "Ġfile": 4901,
      "Ġfif": 4902,
      "Ġflo": 4903,
      "Ġfire": 4904,
      "Ġfiles": 4905,
      "Ġfanc": 4906,
      "Ġfyi": 4907,
      "Ġnw": 4908,
      "Ġnos": 4909,
      "Ġnag": 4910,
      "Ġgt": 4911,
      "Ġgra": 4912,
      "Ġgreen": 4913,
      "Ġpot": 4914,
      "Ġpop": 4915,
      "Ġpend": 4916,
      "Ġpred": 4917,
      "Ġpig": 4918,
      "Ġpress": 4919,
      "Ġpull": 4920,
      "Ġpages": 4921,
      "Ġppl": 4922,
      "anwh": 4923,
      "omber": 4924,
      "omantic": 4925,
      "atch": 4926,
      "eted": 4927,
      "arry": 4928,
      "arily": 4929,
      "ĠTR": 4930,
      "ĠTV": 4931,
      "ĠTa": 4932,
      "ĠToo": 4933,
      "ĠTick": 4934,
      "ĠTCs": 4935,
      "ĠTtyl": 4936,
      "itles": 4937,
      "ituitions": 4938,
      "ĠSN": 4939,
      "ĠSe": 4940,
      "ĠSing": 4941,
      "ĠSil": 4942,
      "ĠSAT": 4943,
      "ĠSOR": 4944,
      "ĠSince": 4945,
      "ĠSanta": 4946,
      "ĠSEX": 4947,
      "edy": 4948,
      "enny": 4949,
      "Ġov": 4950,
      "ĠHot": 4951,
      "ĠHouse": 4952,
      "ĠHOME": 4953,
      "Ġhai": 4954,
      "Ġham": 4955,
      "Ġhaha": 4956,
      "ĠWC": 4957,
      "ĠWed": 4958,
      "ĠWent": 4959,
      "ĠWine": 4960,
      "ĠWEE": 4961,
      "ĠWAN": 4962,
      "ĠWEN": 4963,
      "ising": 4964,
      "ishan": 4965,
      "Ġhon": 4966,
      "Ġhus": 4967,
      "Ġhug": 4968,
      "Ġmeal": 4969,
      "alling": 4970,
      "ĠCL": 4971,
      "ĠCW": 4972,
      "ĠCa": 4973,
      "ĠCust": 4974,
      "ĠCont": 4975,
      "ĠCould": 4976,
      "ĠCare": 4977,
      "ĠCAM": 4978,
      "ĠCOME": 4979,
      "Ġoni": 4980,
      "Ġeffe": 4981,
      "asure": 4982,
      "ashed": 4983,
      "asons": 4984,
      "Ġreb": 4985,
      "Ġrese": 4986,
      "Ġreleas": 4987,
      "Ġrenew": 4988,
      "Ġreasons": 4989,
      "ĠYM": 4990,
      "icate": 4991,
      "ĠNt": 4992,
      "ĠNear": 4993,
      "ĠNite": 4994,
      "ĠNobody": 4995,
      "ĠNAK": 4996,
      "kend": 4997,
      "ĠMK": 4998,
      "ĠMR": 4999,
      "ĠMon": 5000,
      "ĠMind": 5001,
      "ĠMuz": 5002,
      "ĠMoon": 5003,
      "ĠMAD": 5004,
      "ĠMEET": 5005,
      "Ġthree": 5006,
      "Ġthro": 5007,
      "Ġforgive": 5008,
      "alam": 5009,
      "Ġ250": 5010,
      "Ġbeg": 5011,
      "idz": 5012,
      "idge": 5013,
      "ĠDat": 5014,
      "ĠDarren": 5015,
      "ĠDOWN": 5016,
      "ĠDOUBLE": 5017,
      "oof": 5018,
      "ooo": 5019,
      "oop": 5020,
      "ĠUse": 5021,
      "ĠUmm": 5022,
      "ĠBB": 5023,
      "ĠBIT": 5024,
      "ĠBoth": 5025,
      "ĠBCM": 5026,
      "ĠBuzz": 5027,
      "ĠBEEN": 5028,
      "ache": 5029,
      "acem": 5030,
      "illa": 5031,
      "Ġweb": 5032,
      "ĠOver": 5033,
      "ĠOVER": 5034,
      "Ġstri": 5035,
      "Ġstick": 5036,
      "ĠPe": 5037,
      "ĠPain": 5038,
      "ĠPound": 5039,
      "ĠPART": 5040,
      "ĠPHONE": 5041,
      "ĠPurity": 5042,
      "ĠGd": 5043,
      "ĠGift": 5044,
      "ĠGlad": 5045,
      "ama": 5046,
      "amed": 5047,
      "amster": 5048,
      "Ġ145": 5049,
      "Ġ114": 5050,
      "Ġ195": 5051,
      "Ġrow": 5052,
      "Ġride": 5053,
      "Ġrude": 5054,
      "Ġrush": 5055,
      "ĠFA": 5056,
      "ĠFine": 5057,
      "ĠFind": 5058,
      "ĠFound": 5059,
      "ĠFLA": 5060,
      "Ġkal": 5061,
      "Ġkid": 5062,
      "Ġkett": 5063,
      "Ġkallis": 5064,
      "Ġanti": 5065,
      "Ġjack": 5066,
      "Ġlie": 5067,
      "Ġgold": 5068,
      "Ġgovt": 5069,
      "Ġdogg": 5070,
      "Ġ070": 5071,
      "ĠLine": 5072,
      "ĠLoy": 5073,
      "ĠLog": 5074,
      "ĠLovable": 5075,
      "Ġcann": 5076,
      "Ġcannot": 5077,
      "Ġcancer": 5078,
      "sex": 5079,
      "send": 5080,
      "Ġordered": 5081,
      "rying": 5082,
      "Ġneck": 5083,
      "Ġ45": 5084,
      "Ġ450": 5085,
      "Ġ4742": 5086,
      "5020": 5087,
      "50382": 5088,
      "Ġsore": 5089,
      "unel": 5090,
      "ionate": 5091,
      "pping": 5092,
      "Ġtear": 5093,
      "Ġteeth": 5094,
      "ession": 5095,
      "ilk": 5096,
      "ilGme": 5097,
      "nth": 5098,
      "Ġlos": 5099,
      "Ġloss": 5100,
      "Ġlosing": 5101,
      "Ġshout": 5102,
      "Ġshld": 5103,
      "Ġshoot": 5104,
      "Ġshirt": 5105,
      "Ġasap": 5106,
      "urch": 5107,
      "Ġupload": 5108,
      "Ġupto": 5109,
      "Ġupgr": 5110,
      "Ġupset": 5111,
      "ĠRose": 5112,
      "Ġ84": 5113,
      "Ġ830": 5114,
      "Ġ836": 5115,
      "Ġ804": 5116,
      "Ġ875": 5117,
      "Ġ87239": 5118,
      "Ġbutt": 5119,
      "Ġoutta": 5120,
      "thin": 5121,
      "thday": 5122,
      "Ġalong": 5123,
      "ourney": 5124,
      "ĠJAN": 5125,
      "ĠJada": 5126,
      "Ġpros": 5127,
      "Ġproper": 5128,
      "Ġfromm": 5129,
      "uman": 5130,
      "umber": 5131,
      "usy": 5132,
      "usrut": 5133,
      "Ġwhite": 5134,
      "Ġ0844": 5135,
      "Ġvry": 5136,
      "Ġvote": 5137,
      "els": 5138,
      "ĠEv": 5139,
      "ĠEve": 5140,
      "ĠEver": 5141,
      "ĠENT": 5142,
      "ĠEND": 5143,
      "ĠEasy": 5144,
      "ĠEUR": 5145,
      "Ġallow": 5146,
      "Ġabi": 5147,
      "EEL": 5148,
      "ĠHere": 5149,
      "ĠHeight": 5150,
      "lain": 5151,
      "Ġcomb": 5152,
      "Ġcomedy": 5153,
      "aintain": 5154,
      "Ġspoke": 5155,
      "Ġspoken": 5156,
      "aret": 5157,
      "Ġfell": 5158,
      "Ġfeet": 5159,
      "Ġfever": 5160,
      "ĠKing": 5161,
      "ĠKATE": 5162,
      "ĠKerala": 5163,
      "ĠKidz": 5164,
      "ĠKusrut": 5165,
      "Ġtexted": 5166,
      "Ġneeded": 5167,
      "ĠFRAN": 5168,
      "xxxxx": 5169,
      "berry": 5170,
      "ONG": 5171,
      "Ġphilos": 5172,
      "Ġcoins": 5173,
      "fect": 5174,
      "fered": 5175,
      "nings": 5176,
      "ĠThese": 5177,
      "ĠTheMob": 5178,
      "ptain": 5179,
      "raid": 5180,
      "Ġsmart": 5181,
      "Ġart": 5182,
      "Ġwats": 5183,
      "705022": 5184,
      "Ġsaved": 5185,
      "ĠVIP": 5186,
      "Ġafraid": 5187,
      "Ġ542": 5188,
      "ĠThose": 5189,
      "Ġusually": 5190,
      "Ġhappend": 5191,
      "ATCH": 5192,
      "Ġeverybody": 5193,
      "ALLY": 5194,
      "ERA": 5195,
      "ffff": 5196,
      "Ġ087198": 5197,
      "Ġ0871750": 5198,
      "Ġ0871918": 5199,
      "ORN": 5200,
      "ules": 5201,
      "Ġleona": 5202,
      "Ġuncl": 5203,
      "Ġunredeemed": 5204,
      "669": 5205,
      "Ġquote": 5206,
      "Ġtxtin": 5207,
      "VEAL": 5208,
      "Ġwaitin": 5209,
      "Ġcontin": 5210,
      "ĠNOTHING": 5211,
      "collex": 5212,
      "Ġadmin": 5213,
      "Ġbrand": 5214,
      "Ġbroke": 5215,
      "Ġdey": 5216,
      "Ġdevel": 5217,
      "ĠGoodnight": 5218,
      "Ġevent": 5219,
      "2050": 5220,
      "Ġconcent": 5221,
      "Ġ786": 5222,
      "Ġthangam": 5223,
      "ĠSTORE": 5224,
      "ĠPOD": 5225,
      "ĠPOST": 5226,
      "akes": 5227,
      "Ġrose": 5228,
      "ITY": 5229,
      "Ġseries": 5230,
      "Ġimpr": 5231,
      "Ġbabes": 5232,
      "XXX": 5233,
      "ĠURN": 5234,
      "Ġcarefully": 5235,
      "222": 5236,
      "40323": 5237,
      "Ġperfect": 5238,
      "Ġsometime": 5239,
      "Ġsomethin": 5240,
      "Ġwouldn": 5241,
      "Ġblow": 5242,
      "ĠGOING": 5243,
      "808": 5244,
      "ansaction": 5245,
      "ression": 5246,
      "Ġbefor": 5247,
      "Ġchurch": 5248,
      "Ġotherwise": 5249,
      "Ġ090651": 5250,
      "ANCE": 5251,
      "Ġwins": 5252,
      "Ġplayed": 5253,
      "Ġsooner": 5254,
      "Ġaccord": 5255,
      "OMOR": 5256,
      "ovd": 5257,
      "minMob": 5258,
      "878": 5259,
      "Ġmatured": 5260,
      "Ġreceiving": 5261,
      "111": 5262,
      "1151": 5263,
      "hedule": 5264,
      "Ġgram": 5265,
      "Ġboys": 5266,
      "Ġrespect": 5267,
      "Ġansr": 5268,
      "ĠLOT": 5269,
      "ĠLOOK": 5270,
      "Ġdrivin": 5271,
      "Ġhip": 5272,
      "ĠForgot": 5273,
      "like": 5274,
      "Ġwishing": 5275,
      "Ġ087028": 5276,
      "Ġaddict": 5277,
      "396": 5278,
      "39822": 5279,
      "Ġlargest": 5280,
      "LET": 5281,
      "Ġbathing": 5282,
      "Ġbiggest": 5283,
      "Ġinfernal": 5284,
      "Ġflow": 5285,
      "ĠMeanwh": 5286,
      "Ġringtones": 5287,
      "Ġlives": 5288,
      "Ġdecision": 5289,
      "ĠRef": 5290,
      "ĠReason": 5291,
      "ĠQuite": 5292,
      "REAT": 5293,
      "Ġbringing": 5294,
      "Ġdeliver": 5295,
      "Ġdeleted": 5296,
      "THER": 5297,
      "ivate": 5298,
      "club": 5299,
      "lets": 5300,
      "ĠHAV": 5301,
      "ĠCHEE": 5302,
      "ĠCHANCE": 5303,
      "ĠExcellent": 5304,
      "263": 5305,
      "plic": 5306,
      "ploy": 5307,
      "place": 5308,
      "planade": 5309,
      "Ġtaunt": 5310,
      "Ġswim": 5311,
      "Ġputting": 5312,
      "ĠBABY": 5313,
      "Ġanswers": 5314,
      "Ġmoms": 5315,
      "ruary": 5316,
      "ĠIMPORTANT": 5317,
      "ĠREVEAL": 5318,
      "taz": 5319,
      "Ġpassed": 5320,
      "Ġ080019": 5321,
      "Ġ090666": 5322,
      "Ġconfidence": 5323,
      "Ġtotally": 5324,
      "ĠSPECIAL": 5325,
      "Ġanswering": 5326,
      "Ġdaddy": 5327,
      "pects": 5328,
      "Ġapril": 5329,
      "Ġsura": 5330,
      "Ġcredited": 5331,
      "Ġenjoyed": 5332,
      "Ġhandle": 5333,
      "ĠBeer": 5334,
      "ĠBeen": 5335,
      "arently": 5336,
      "xxxxxxx": 5337,
      "Ġfaster": 5338,
      "ension": 5339,
      "ĠUnsub": 5340,
      "ĠBlack": 5341,
      "******": 5342,
      "aaa": 5343,
      "ĠBrit": 5344,
      "ĠBrother": 5345,
      "Ġassume": 5346,
      "Msgrcvd": 5347,
      "Ġchallen": 5348,
      "Ġcute": 5349,
      "Ġpublic": 5350,
      "Ġinches": 5351,
      "ĠAiya": 5352,
      "ĠAiyar": 5353,
      "ĠBaby": 5354,
      "Ġ08712778": 5355,
      "ĠSHOP": 5356,
      "ĠSomebody": 5357,
      "ĠCheers": 5358,
      "LDN": 5359,
      "Ġmurdered": 5360,
      "Ġnyc": 5361,
      "ĠTruth": 5362,
      "ĠTransaction": 5363,
      "ĠDOIN": 5364,
      "Ġrespons": 5365,
      "ylie": 5366,
      "Ġskype": 5367,
      "Ġsingles": 5368,
      "Ġmidnight": 5369,
      "Ġviol": 5370,
      "Ġterm": 5371,
      "Ġdarling": 5372,
      "Ġfollowed": 5373,
      "Ġntwk": 5374,
      "ĠTenants": 5375,
      "Ġshortly": 5376,
      "MORO": 5377,
      "Ġ;)": 5378,
      "Ġ;_;": 5379,
      "Ġsongs": 5380,
      "Ġexams": 5381,
      "Ġtransfer": 5382,
      "Ġ090663622": 5383,
      "087147": 5384,
      "9180": 5385,
      "going": 5386,
      "ĠGrl": 5387,
      "Ġraise": 5388,
      "Ġdepend": 5389,
      "Ġpriv": 5390,
      "Ġpurcha": 5391,
      "Ġpurpose": 5392,
      "Ġpleasure": 5393,
      "ĠDaddy": 5394,
      "Ġ08715705022": 5395,
      "Ġchildish": 5396,
      "Ġunderstanding": 5397,
      "POBox": 5398,
      "ringtones": 5399,
      "Ġsalary": 5400,
      "Ġyogasana": 5401,
      "ĠSky": 5402,
      "Ġmagical": 5403,
      "ĠValentine": 5404,
      "Ġcleaning": 5405,
      "ĠFANTASTIC": 5406,
      "Ġflag": 5407,
      "Ġgaps": 5408,
      "Ġhandset": 5409,
      "Ġrelation": 5410,
      "ĠNeva": 5411,
      "Ġ08712405020": 5412,
      "board": 5413,
      "flights": 5414,
      "Ġcentre": 5415,
      "Ġcenter": 5416,
      "Ġobviously": 5417,
      "ĠALRITE": 5418,
      "ĠNetcollex": 5419,
      "ĠMessage": 5420,
      "ĠMumtaz": 5421,
      "Ġwearing": 5422,
      "ĠPersonality": 5423,
      "ĠPICK": 5424,
      "Ġ87121": 5425,
      "Ġ87131": 5426,
      "Ġ88039": 5427,
      "ĠEXP": 5428,
      "ĠVodafone": 5429,
      "Ġexpecting": 5430,
      "Ġblackberry": 5431,
      "ĠReading": 5432,
      "Ġprofit": 5433,
      "Ġsurprised": 5434,
      "Ġtravel": 5435,
      "Ġbcums": 5436,
      "ĠSimple": 5437,
      "ĠSuper": 5438,
      "ĠHurry": 5439,
      "Ġinclusive": 5440,
      "Ġrecord": 5441,
      "Ġrecords": 5442,
      "ĠNature": 5443,
      "ĠDONT": 5444,
      "ĠGravity": 5445,
      "Ġfebruary": 5446,
      "Ġargue": 5447,
      "Ġunique": 5448,
      "Ġenglish": 5449,
      "Ġletters": 5450,
      "Ġactivities": 5451,
      "Winawk": 5452,
      "Ġtihs": 5453,
      "Ġirrit": 5454,
      "Ġboring": 5455,
      "Ġprescri": 5456,
      "ĠSometimes": 5457,
      "ĠABOUT": 5458,
      "Ġeasier": 5459,
      "Ġ0207": 5460,
      "Ġteaches": 5461,
      "ĠRaj": 5462,
      "Ġ83355": 5463,
      "Ġcloser": 5464,
      "40625": 5465,
      "Subscription": 5466,
      "thats": 5467,
      "Ġslipp": 5468,
      "Ġmarket": 5469,
      "Ġcooking": 5470,
      "Ġbowl": 5471,
      "ĠSLEEP": 5472,
      "ĠHUNNY": 5473,
      "ĠWkly": 5474,
      "ĠAccept": 5475,
      "ĠBLOOD": 5476,
      "ĠLooks": 5477,
      "Ġtemple": 5478,
      "Ġwonders": 5479,
      "Ġlegal": 5480,
      "Ġembarassed": 5481,
      "Ġsettings": 5482,
      "Ġ09061221066": 5483,
      "ictionary": 5484,
      "Ġcelebrate": 5485,
      "ĠCOLLECT": 5486,
      "Ġ08002986906": 5487,
      "3806": 5488,
      "Forwarded": 5489,
      "Stop": 5490,
      "Ġessential": 5491,
      "Ġmanda": 5492,
      "Ġladies": 5493,
      "Ġlonely": 5494,
      "ĠSERVICES": 5495,
      "Ġmembership": 5496,
      "ĠDepends": 5497,
      "ĠBirthday": 5498,
      "Ġradio": 5499,
      "Ġ8552": 5500,
      "Ġ84199": 5501,
      "ĠEngland": 5502,
      "ĠStylish": 5503,
      "Ġenemy": 5504,
      "Ġchicken": 5505,
      "Ġaccidentally": 5506,
      "ĠPrincess": 5507,
      "Ġsettled": 5508,
      "Ġvalentine": 5509,
      "Ġescape": 5510,
      "Ġconsidering": 5511,
      "Ġ09099726": 5512,
      "CLEAN": 5513,
      "KPOBOX": 5514,
      "Mtmsgrcvd": 5515,
      "Tyrone": 5516,
      "qxj": 5517,
      "ucozade": 5518,
      "Ġauto": 5519,
      "instituitions": 5520,
      "ĠIbiza": 5521,
      "Ġfurther": 5522,
      "omberg": 5523,
      "ĠSilent": 5524,
      "ĠSORRY": 5525,
      "ĠWEEK": 5526,
      "ĠCAMERA": 5527,
      "Ġresearch": 5528,
      "Ġreleased": 5529,
      "ĠNAKED": 5530,
      "Ġthroat": 5531,
      "acement": 5532,
      "ĠFLAG": 5533,
      "Ġkettoda": 5534,
      "ĠLoyalty": 5535,
      "Ġ83600": 5536,
      "Ġ80488": 5537,
      "Ġ87575": 5538,
      "ĠEURO": 5539,
      "ĠKusruthi": 5540,
      "Ġuncles": 5541,
      "minMobsmore": 5542,
      "Ġ08702840625": 5543,
      "Ġaddicted": 5544,
      "ĠMeanwhile": 5545,
      "Ġtaunton": 5546,
      "Ġ08001950382": 5547,
      "MsgrcvdHG": 5548,
      "Ġ0871277810": 5549,
      "08714740323": 5550,
      "Ġpurchase": 5551,
      "!:": 5552,
      "\"..": 5553,
      "+)": 5554,
      "+.": 5555,
      "-?": 5556,
      ".\"": 5557,
      ".:": 5558,
      "09": 5559,
      "087": 5560,
      "139": 5561,
      "1327": 5562,
      "230": 5563,
      "37": 5564,
      "3876": 5565,
      "450": 5566,
      "423": 5567,
      "54": 5568,
      "56": 5569,
      "600": 5570,
      "634": 5571,
      "678": 5572,
      "769": 5573,
      "82": 5574,
      "85": 5575,
      "823": 5576,
      "8130": 5577,
      "94": 5578,
      "980": 5579,
      "?\"": 5580,
      "?'": 5581,
      "AJ": 5582,
      "Age": 5583,
      "AND": 5584,
      "BCM": 5585,
      "Babe": 5586,
      "Call": 5587,
      "Cook": 5588,
      "CCE": 5589,
      "Cover": 5590,
      "Direct": 5591,
      "EIVE": 5592,
      "FT": 5593,
      "FW": 5594,
      "FOR": 5595,
      "FRI": 5596,
      "FORE": 5597,
      "FTER": 5598,
      "GT": 5599,
      "Gud": 5600,
      "Game": 5601,
      "Gently": 5602,
      "Garden": 5603,
      "His": 5604,
      "House": 5605,
      "HERE": 5606,
      "IO": 5607,
      "IV": 5608,
      "JOY": 5609,
      "Ksub": 5610,
      "LF": 5611,
      "LAY": 5612,
      "LOWER": 5613,
      "LKPOBOX": 5614,
      "MM": 5615,
      "Mell": 5616,
      "MIX": 5617,
      "MRW": 5618,
      "NN": 5619,
      "Ne": 5620,
      "Now": 5621,
      "Noon": 5622,
      "NIGHT": 5623,
      "OB": 5624,
      "OLY": 5625,
      "Oru": 5626,
      "One": 5627,
      "Press": 5628,
      "PLY": 5629,
      "POD": 5630,
      "Police": 5631,
      "PLEASE": 5632,
      "Rs": 5633,
      "Ring": 5634,
      "ROR": 5635,
      "RINK": 5636,
      "SW": 5637,
      "So": 5638,
      "Sent": 5639,
      "TA": 5640,
      "Take": 5641,
      "TONE": 5642,
      "Tomorrow": 5643,
      "UE": 5644,
      "UATION": 5645,
      "UMBER": 5646,
      "WW": 5647,
      "What": 5648,
      "Wait": 5649,
      "Wife": 5650,
      "Wars": 5651,
      "WKsub": 5652,
      "XY": 5653,
      "ax": 5654,
      "ale": 5655,
      "aur": 5656,
      "aff": 5657,
      "ba": 5658,
      "bc": 5659,
      "bt": 5660,
      "bing": 5661,
      "bol": 5662,
      "bum": 5663,
      "bra": 5664,
      "cm": 5665,
      "cas": 5666,
      "cost": 5667,
      "cert": 5668,
      "evr": 5669,
      "fil": 5670,
      "first": 5671,
      "fits": 5672,
      "frm": 5673,
      "gi": 5674,
      "ghed": 5675,
      "gift": 5676,
      "gument": 5677,
      "garet": 5678,
      "hm": 5679,
      "hil": 5680,
      "hol": 5681,
      "ik": 5682,
      "iam": 5683,
      "ige": 5684,
      "ium": 5685,
      "iod": 5686,
      "ivers": 5687,
      "jor": 5688,
      "jay": 5689,
      "ket": 5690,
      "light": 5691,
      "lol": 5692,
      "lub": 5693,
      "list": 5694,
      "lines": 5695,
      "mon": 5696,
      "met": 5697,
      "mit": 5698,
      "mart": 5699,
      "mov": 5700,
      "music": 5701,
      "mtmsg": 5702,
      "nr": 5703,
      "ns": 5704,
      "nel": 5705,
      "oen": 5706,
      "ole": 5707,
      "pout": 5708,
      "pare": 5709,
      "pool": 5710,
      "paper": 5711,
      "rst": 5712,
      "rant": 5713,
      "rite": 5714,
      "rong": 5715,
      "ration": 5716,
      "su": 5717,
      "sy": 5718,
      "sha": 5719,
      "sis": 5720,
      "sack": 5721,
      "song": 5722,
      "tom": 5723,
      "there": 5724,
      "tec": 5725,
      "tlp": 5726,
      "turn": 5727,
      "tbo": 5728,
      "uc": 5729,
      "uri": 5730,
      "uld": 5731,
      "uine": 5732,
      "ucts": 5733,
      "vir": 5734,
      "vour": 5735,
      "vble": 5736,
      "vailable": 5737,
      "vali": 5738,
      "wall": 5739,
      "want": 5740,
      "wel": 5741,
      "wks": 5742,
      "wys": 5743,
      "wthe": 5744,
      "ye": 5745,
      "yn": 5746,
      "ying": 5747,
      "yond": 5748,
      "years": 5749,
      "zing": 5750,
      "Ġ)": 5751,
      "Ġ00": 5752,
      "Ġtb": 5753,
      "Ġtay": 5754,
      "Ġtis": 5755,
      "Ġtight": 5756,
      "Ġtur": 5757,
      "Ġtable": 5758,
      "Ġtouc": 5759,
      "Ġtuesday": 5760,
      "Ġtape": 5761,
      "Ġalt": 5762,
      "Ġaunt": 5763,
      "inc": 5764,
      "inun": 5765,
      "inco": 5766,
      "ouri": 5767,
      "Ġwo": 5768,
      "Ġws": 5769,
      "Ġwt": 5770,
      "Ġwow": 5771,
      "Ġwate": 5772,
      "Ġwud": 5773,
      "Ġwise": 5774,
      "Ġwkend": 5775,
      "Ġsud": 5776,
      "Ġsqu": 5777,
      "Ġsig": 5778,
      "Ġsach": 5779,
      "Ġsorrow": 5780,
      "Ġsoooo": 5781,
      "heed": 5782,
      "hest": 5783,
      "reg": 5784,
      "realy": 5785,
      "Ġmor": 5786,
      "Ġmus": 5787,
      "Ġmite": 5788,
      "Ġmention": 5789,
      "Ġmilk": 5790,
      "onic": 5791,
      "onment": 5792,
      "onnect": 5793,
      "..:-": 5794,
      "Ġcit": 5795,
      "Ġcher": 5796,
      "Ġcol": 5797,
      "Ġcertain": 5798,
      "Ġib": 5799,
      "Ġiz": 5800,
      "Ġiouri": 5801,
      "lled": 5802,
      "Ġyay": 5803,
      "Ġyell": 5804,
      "Ġtog": 5805,
      "Ġtok": 5806,
      "ĠIL": 5807,
      "ĠImm": 5808,
      "ĠILL": 5809,
      "ĠIzzit": 5810,
      "Ġble": 5811,
      "Ġbra": 5812,
      "Ġbright": 5813,
      "Ġbuz": 5814,
      "Ġborn": 5815,
      "Ġbread": 5816,
      "Ġbishan": 5817,
      "oring": 5818,
      "orter": 5819,
      "orrible": 5820,
      "Ġdh": 5821,
      "Ġdent": 5822,
      "Ġdea": 5823,
      "Ġdare": 5824,
      "Ġdiv": 5825,
      "Ġdign": 5826,
      "Ġdsn": 5827,
      "ero": 5828,
      "eric": 5829,
      "Ġfre": 5830,
      "Ġfake": 5831,
      "Ġfab": 5832,
      "Ġful": 5833,
      "Ġfag": 5834,
      "Ġfli": 5835,
      "Ġfave": 5836,
      "Ġfath": 5837,
      "Ġfrying": 5838,
      "Ġlow": 5839,
      "Ġlen": 5840,
      "Ġlid": 5841,
      "Ġlag": 5842,
      "Ġlous": 5843,
      "Ġlang": 5844,
      "Ġlines": 5845,
      "Ġlacs": 5846,
      "Ġlounge": 5847,
      "Ġloud": 5848,
      "Ġnon": 5849,
      "Ġnor": 5850,
      "Ġnan": 5851,
      "Ġnig": 5852,
      "Ġnap": 5853,
      "Ġnak": 5854,
      "Ġnames": 5855,
      "Ġgp": 5856,
      "Ġgaut": 5857,
      "Ġgorge": 5858,
      "Ġgoogle": 5859,
      "Ġpc": 5860,
      "Ġpg": 5861,
      "Ġpin": 5862,
      "Ġpen": 5863,
      "Ġpun": 5864,
      "Ġport": 5865,
      "Ġpence": 5866,
      "Ġpopped": 5867,
      "Ġpiec": 5868,
      "Ġuk": 5869,
      "anish": 5870,
      "anna": 5871,
      "anjith": 5872,
      "vest": 5873,
      "oms": 5874,
      "omes": 5875,
      "omach": 5876,
      "omps": 5877,
      "ese": 5878,
      "esh": 5879,
      "ats": 5880,
      "oween": 5881,
      "ayin": 5882,
      "ayee": 5883,
      "etition": 5884,
      "etunde": 5885,
      "etBabe": 5886,
      "arrow": 5887,
      "arWars": 5888,
      "ĠTom": 5889,
      "ĠTop": 5890,
      "ĠTess": 5891,
      "ĠTear": 5892,
      "ĠTIT": 5893,
      "ĠTRY": 5894,
      "ĠTAKE": 5895,
      "ĠTitles": 5896,
      "ĠTOMOR": 5897,
      "itch": 5898,
      "itive": 5899,
      "ĠSI": 5900,
      "ĠSar": 5901,
      "ĠSep": 5902,
      "ĠSIT": 5903,
      "ĠSug": 5904,
      "ĠSAM": 5905,
      "ĠSave": 5906,
      "ĠSister": 5907,
      "ĠSym": 5908,
      "ĠSummer": 5909,
      "ĠSwthe": 5910,
      "eds": 5911,
      "still": 5912,
      "stood": 5913,
      "stomps": 5914,
      "eng": 5915,
      "enger": 5916,
      "ency": 5917,
      "Ġore": 5918,
      "Ġola": 5919,
      "ota": 5920,
      "othas": 5921,
      "ĠHm": 5922,
      "ĠHo": 5923,
      "ĠHall": 5924,
      "ĠHas": 5925,
      "ĠHard": 5926,
      "ĠHIM": 5927,
      "ĠHARD": 5928,
      "ĠHorrible": 5929,
      "Ġhar": 5930,
      "lea": 5931,
      "lebe": 5932,
      "leph": 5933,
      "leys": 5934,
      "Ġinnings": 5935,
      "ĠWa": 5936,
      "ĠWn": 5937,
      "ĠWAY": 5938,
      "ĠWKE": 5939,
      "ison": 5940,
      "Ġhoo": 5941,
      "Ġhund": 5942,
      "Ġmel": 5943,
      "Ġmemor": 5944,
      "Ġmeasure": 5945,
      "ĠCU": 5946,
      "ĠCha": 5947,
      "ĠCase": 5948,
      "ĠCra": 5949,
      "ĠCup": 5950,
      "ĠCity": 5951,
      "ĠCARD": 5952,
      "ĠChildren": 5953,
      "ĠAg": 5954,
      "ĠAVE": 5955,
      "ĠAah": 5956,
      "ĠALE": 5957,
      "ĠAUCTION": 5958,
      "ĠAWAITING": 5959,
      "ĠACCE": 5960,
      "ĠAFTER": 5961,
      "ĠAvailable": 5962,
      "Ġonwards": 5963,
      "Ġela": 5964,
      "Ġelect": 5965,
      "Ġeerie": 5966,
      "asp": 5967,
      "asam": 5968,
      "Ġrechar": 5969,
      "Ġrealy": 5970,
      "ĠYO": 5971,
      "ĠYay": 5972,
      "icy": 5973,
      "icut": 5974,
      "icine": 5975,
      "icult": 5976,
      "ĠNY": 5977,
      "ĠNur": 5978,
      "ĠNorm": 5979,
      "ĠNIC": 5980,
      "ĠNITE": 5981,
      "ĠNigeria": 5982,
      "ĠNvm": 5983,
      "ĠNUMBER": 5984,
      "keys": 5985,
      "ĠMet": 5986,
      "ĠMar": 5987,
      "ĠMac": 5988,
      "ĠMight": 5989,
      "ĠMur": 5990,
      "ĠMost": 5991,
      "ĠMATE": 5992,
      "ĠMUST": 5993,
      "ĠMusic": 5994,
      "ĠMORE": 5995,
      "ĠMuch": 5996,
      "ĠMaintain": 5997,
      "Ġthm": 5998,
      "Ġths": 5999,
      "Ġoften": 6000,
      "alous": 6001,
      "Ġ220": 6002,
      "Ġbein": 6003,
      "Ġbecoz": 6004,
      "Ġbegin": 6005,
      "Ġbehind": 6006,
      "Ġbehave": 6007,
      "Ġbeyond": 6008,
      "ĠDa": 6009,
      "ĠDes": 6010,
      "ĠDet": 6011,
      "ĠDie": 6012,
      "ĠDIS": 6013,
      "ĠDraw": 6014,
      "ĠDRE": 6015,
      "ĠDave": 6016,
      "ĠDai": 6017,
      "ĠDisc": 6018,
      "ĠDictionary": 6019,
      "ooh": 6020,
      "ools": 6021,
      "utter": 6022,
      "utive": 6023,
      "ĠUp": 6024,
      "ĠUnder": 6025,
      "ĠBoo": 6026,
      "ĠBel": 6027,
      "ĠBON": 6028,
      "ĠBew": 6029,
      "ĠBAN": 6030,
      "ĠBED": 6031,
      "ĠBlo": 6032,
      "ĠBored": 6033,
      "ĠBstfrnd": 6034,
      "ĠBMW": 6035,
      "ĠBusy": 6036,
      "acy": 6037,
      "acing": 6038,
      "acking": 6039,
      "ille": 6040,
      "illGame": 6041,
      "rix": 6042,
      "rivia": 6043,
      "ima": 6044,
      "imal": 6045,
      "imme": 6046,
      "ĠOic": 6047,
      "ĠOff": 6048,
      "ĠOUR": 6049,
      "ĠOkey": 6050,
      "Ġhen": 6051,
      "Ġhesit": 6052,
      "Ġstuck": 6053,
      "Ġstamps": 6054,
      "Ġstomach": 6055,
      "ĠPR": 6056,
      "ĠPS": 6057,
      "ĠPer": 6058,
      "ĠPart": 6059,
      "ĠPass": 6060,
      "ĠPoin": 6061,
      "ĠPock": 6062,
      "ĠPET": 6063,
      "ĠPleas": 6064,
      "ĠPERS": 6065,
      "ĠPIX": 6066,
      "ĠPLEASE": 6067,
      "ĠPORN": 6068,
      "ĠPsy": 6069,
      "ĠPtbo": 6070,
      "ĠGn": 6071,
      "ĠGam": 6072,
      "ĠGary": 6073,
      "ĠGerm": 6074,
      "amb": 6075,
      "amond": 6076,
      "enter": 6077,
      "Ġseat": 6078,
      "Ġseven": 6079,
      "Ġseemed": 6080,
      "verpool": 6081,
      "Ġron": 6082,
      "Ġrob": 6083,
      "Ġrub": 6084,
      "Ġrail": 6085,
      "Ġrich": 6086,
      "ophy": 6087,
      "ĠFM": 6088,
      "ĠFight": 6089,
      "ĠFace": 6090,
      "ĠFEEL": 6091,
      "ĠFLOWER": 6092,
      "Ġcaller": 6093,
      "Ġcallback": 6094,
      "Ġking": 6095,
      "Ġjan": 6096,
      "Ġjst": 6097,
      "Ġjesus": 6098,
      "Ġjourney": 6099,
      "Ġliving": 6100,
      "Ġlikes": 6101,
      "Ġlifet": 6102,
      "Ġdob": 6103,
      "Ġdoors": 6104,
      "Ġ06": 6105,
      "Ġ09": 6106,
      "Ġ0122": 6107,
      "ĠLA": 6108,
      "ĠLE": 6109,
      "ĠLe": 6110,
      "ĠLif": 6111,
      "ĠLive": 6112,
      "ĠLong": 6113,
      "ĠLET": 6114,
      "ĠLacs": 6115,
      "ĠLAST": 6116,
      "ĠLONG": 6117,
      "ĠLvble": 6118,
      "sey": 6119,
      "chin": 6120,
      "chless": 6121,
      "Ġneg": 6122,
      "Ġ434": 6123,
      "Ġatm": 6124,
      "50406": 6125,
      "ltd": 6126,
      "Ġsol": 6127,
      "unam": 6128,
      "ungu": 6129,
      "antly": 6130,
      "pperm": 6131,
      "Ġtelp": 6132,
      "Ġtemp": 6133,
      "Ġteasing": 6134,
      "essSubscription": 6135,
      "irts": 6136,
      "irty": 6137,
      "Ġfring": 6138,
      "Ġfront": 6139,
      "ila": 6140,
      "nted": 6141,
      "Ġshot": 6142,
      "Ġshut": 6143,
      "Ġshorter": 6144,
      "Ġshirts": 6145,
      "ĠRT": 6146,
      "ĠRed": 6147,
      "ĠRate": 6148,
      "ĠRain": 6149,
      "ĠRog": 6150,
      "ĠRental": 6151,
      "ĠRanjith": 6152,
      "Ġ86": 6153,
      "Ġ840": 6154,
      "Ġ816": 6155,
      "Ġ895": 6156,
      "Ġ886": 6157,
      "Ġ8130": 6158,
      "Ġoutstand": 6159,
      "hanks": 6160,
      "Ġalive": 6161,
      "Ġalco": 6162,
      "Ġalert": 6163,
      "Ġalbum": 6164,
      "ours": 6165,
      "Ġknowing": 6166,
      "ĠJer": 6167,
      "ĠJUS": 6168,
      "ĠJEN": 6169,
      "ĠJokes": 6170,
      "ĠJstfrnd": 6171,
      "abes": 6172,
      "ables": 6173,
      "Ġprove": 6174,
      "Ġprov": 6175,
      "Ġprog": 6176,
      "Ġprolly": 6177,
      "Ġproof": 6178,
      "Ġ.@": 6179,
      "ushes": 6180,
      ":).": 6181,
      "Ġvir": 6182,
      "Ġvava": 6183,
      "Ġvillage": 6184,
      "eling": 6185,
      "Ġanywhere": 6186,
      "Ġanythin": 6187,
      "ĠEm": 6188,
      "ĠEs": 6189,
      "ĠEy": 6190,
      "ĠEat": 6191,
      "ĠEach": 6192,
      "ĠEner": 6193,
      "ĠErm": 6194,
      "iforn": 6195,
      "ified": 6196,
      "Ġallah": 6197,
      "EESH": 6198,
      "Ġamazing": 6199,
      "ĠHell": 6200,
      "Ġwanting": 6201,
      "ĠHai": 6202,
      "ĠHaiz": 6203,
      "ĠHands": 6204,
      "inks": 6205,
      "90500": 6206,
      "ĠItalian": 6207,
      "Ġspl": 6208,
      "Ġspare": 6209,
      "Ġspee": 6210,
      "Ġspoil": 6211,
      "Ġsuite": 6212,
      "Ġsugar": 6213,
      "IND": 6214,
      "arer": 6215,
      "Ġfees": 6216,
      "Ġfema": 6217,
      "ĠKING": 6218,
      "ĠKEEP": 6219,
      "ĠÃ©": 6220,
      "711": 6221,
      "odka": 6222,
      "Ġloves": 6223,
      "Ġ...*": 6224,
      "Ġbye": 6225,
      "sgiving": 6226,
      "embe": 6227,
      "reats": 6228,
      "ONIC": 6229,
      "Ġphne": 6230,
      "Ġ09071": 6231,
      "Ġ090946": 6232,
      "Ġcock": 6233,
      "few": 6234,
      "ĠTheory": 6235,
      "ĠDoing": 6236,
      "Ġokie": 6237,
      ":-.": 6238,
      "ecause": 6239,
      "ecutive": 6240,
      "quest": 6241,
      "Ġsmokes": 6242,
      "Ġsmoking": 6243,
      "Ġarms": 6244,
      "Ġarng": 6245,
      "7040": 6246,
      "70150": 6247,
      "Ġsaucy": 6248,
      "ield": 6249,
      "Ġrepe": 6250,
      "ĠVi": 6251,
      "ĠVett": 6252,
      "ĠVIO": 6253,
      "igent": 6254,
      "ĠToll": 6255,
      "Ġfreezing": 6256,
      "ubby": 6257,
      "Ġmajor": 6258,
      "!!!!": 6259,
      "Ġusc": 6260,
      "Ġhasn": 6261,
      "Ġmeetin": 6262,
      "ALES": 6263,
      "ERROR": 6264,
      "iah": 6265,
      "mmma": 6266,
      "Ġ699": 6267,
      "Ġ698": 6268,
      "Ġsheets": 6269,
      "Ġ08719180": 6270,
      "Ġmessenger": 6271,
      "morro": 6272,
      "Ġexe": 6273,
      "Ġexcellent": 6274,
      "Ġexplic": 6275,
      "Ġnewest": 6276,
      "Ġlegs": 6277,
      "661": 6278,
      "6669": 6279,
      "OUNT": 6280,
      "Ġquiz": 6281,
      "Ġcontents": 6282,
      "assy": 6283,
      "Ġadore": 6284,
      "Ġadvent": 6285,
      "Ġbros": 6286,
      "Ġbrought": 6287,
      "Ġbrilliant": 6288,
      "Ġbrothas": 6289,
      "ĠStorm": 6290,
      "ĠStarWars": 6291,
      "Ġdeath": 6292,
      "owners": 6293,
      "301": 6294,
      "20946": 6295,
      "upur": 6296,
      "Ġconcert": 6297,
      "Ġcompla": 6298,
      "Ġcompetition": 6299,
      "Ġages": 6300,
      "ĠSTUD": 6301,
      "ĠSTUP": 6302,
      "Ġenuff": 6303,
      "Ġroast": 6304,
      "Ġroads": 6305,
      "Ġkeys": 6306,
      "Ġmsging": 6307,
      "Ġstops": 6308,
      "ists": 6309,
      "101": 6310,
      "bee": 6311,
      "bell": 6312,
      "Ġchechi": 6313,
      "Ġcares": 6314,
      "Ġcareer": 6315,
      "ĠTxts": 6316,
      "403": 6317,
      "Ġperform": 6318,
      "Ġperiod": 6319,
      "Ġdrinking": 6320,
      "EST": 6321,
      "Ġsometimes": 6322,
      "Ġappt": 6323,
      "Ġapparently": 6324,
      "Ġblo": 6325,
      "Ġbloo": 6326,
      "Ġblur": 6327,
      "Ġblake": 6328,
      "Ġblame": 6329,
      "ĠGOIN": 6330,
      "GET": 6331,
      "getables": 6332,
      "Ġdearly": 6333,
      "Ġguide": 6334,
      "Ġguilt": 6335,
      "ĠOrder": 6336,
      "âĢ¦": 6337,
      "âĢĻ": 6338,
      "Ġsentence": 6339,
      "Ġcaring": 6340,
      "Ġcarry": 6341,
      "ressed": 6342,
      "882": 6343,
      "ukk": 6344,
      "Ġchrist": 6345,
      "Ġchina": 6346,
      "Ġdisli": 6347,
      "Ġdispl": 6348,
      "Ġ090634": 6349,
      "Ġ0906345": 6350,
      "Ġchanges": 6351,
      "Ġgona": 6352,
      "Ġdates": 6353,
      "Ġlately": 6354,
      "Ġhopefully": 6355,
      "124": 6356,
      "12661": 6357,
      "izen": 6358,
      "ĠXx": 6359,
      "ĠXy": 6360,
      "Ġxmas": 6361,
      "Ġaccom": 6362,
      "ĠIncluding": 6363,
      "Ġpeace": 6364,
      "ĠWhenevr": 6365,
      "adeem": 6366,
      "avier": 6367,
      "Ġcollecting": 6368,
      "Ġcollected": 6369,
      "gged": 6370,
      "percent": 6371,
      "perWKsub": 6372,
      "Ġpartic": 6373,
      "Ġbusiness": 6374,
      "Ġeaten": 6375,
      "11000": 6376,
      "1170150": 6377,
      "248": 6378,
      "road": 6379,
      "working": 6380,
      "words": 6381,
      "Ġscr": 6382,
      "Ġscreen": 6383,
      "Ġscared": 6384,
      "Ġgroo": 6385,
      "Ġground": 6386,
      "Ġpayoh": 6387,
      "ĠShit": 6388,
      "ĠShop": 6389,
      "ĠShort": 6390,
      "MSG": 6391,
      "Ġboye": 6392,
      "Ġpicture": 6393,
      "ĠAnyways": 6394,
      "ĠAnytime": 6395,
      "ĠGudnite": 6396,
      "ĠHahaha": 6397,
      "Ġprem": 6398,
      "Ġpreviously": 6399,
      "Ġprevious": 6400,
      "ĠAsk": 6401,
      "Ġ08709": 6402,
      "Ġ087024": 6403,
      "ossible": 6404,
      "Ġshame": 6405,
      "Ġlinerental": 6406,
      "rator": 6407,
      "rated": 6408,
      "Ġsathy": 6409,
      "Ġ80082": 6410,
      "Ġaddie": 6411,
      "Ġrealize": 6412,
      "Ġrealized": 6413,
      "????": 6414,
      "?????": 6415,
      "LEAVE": 6416,
      "Ġbatch": 6417,
      "Ġbigger": 6418,
      "ĠSender": 6419,
      "Ġfinishing": 6420,
      "Ġbirla": 6421,
      "Ġflash": 6422,
      "Ġflower": 6423,
      "ĠMelle": 6424,
      "Ġreceived": 6425,
      "teen": 6426,
      "teasing": 6427,
      "ĠQue": 6428,
      "Ġ121": 6429,
      "Ġ125": 6430,
      "1500": 6431,
      "onsider": 6432,
      "Ġchatting": 6433,
      "Ġlooks": 6434,
      "ĠAmazing": 6435,
      "3800": 6436,
      "Ġdelay": 6437,
      "Ġdiff": 6438,
      "Ġdificult": 6439,
      "THIN": 6440,
      "UTES": 6441,
      "Ġhurry": 6442,
      "ĠProm": 6443,
      "ĠPrabha": 6444,
      "urns": 6445,
      "kkum": 6446,
      "Ġsettle": 6447,
      "ĠCHAR": 6448,
      "ĠNews": 6449,
      "Ġruns": 6450,
      "ĠINFOR": 6451,
      "Ġsupply": 6452,
      "Ġ0906120946": 6453,
      "Ġtax": 6454,
      "Ġpostcode": 6455,
      "ĠBAK": 6456,
      "RIED": 6457,
      "Ġmoments": 6458,
      "ĠAlready": 6459,
      "Ġ2005": 6460,
      "ructions": 6461,
      "Ġavatar": 6462,
      "Ġsuntec": 6463,
      "Ġidiot": 6464,
      "elligent": 6465,
      "Ġpassionate": 6466,
      "Ġinvite": 6467,
      "Ġinvnted": 6468,
      "Ġ09066358": 6469,
      "ĠSPOOK": 6470,
      "Ġregister": 6471,
      "Ġregular": 6472,
      "Ġheadache": 6473,
      "Ġelsewhere": 6474,
      "698": 6475,
      "Ġtests": 6476,
      "ĠHELP": 6477,
      "Ġvalid": 6478,
      "Ġvalue": 6479,
      "Ġcosts": 6480,
      "ssss": 6481,
      "Ġache": 6482,
      "Ġsimply": 6483,
      "Ġ87021": 6484,
      "Ġ08718730": 6485,
      "Ġ0871873800": 6486,
      "prints": 6487,
      "today": 6488,
      "Ġcleared": 6489,
      "Ġwalked": 6490,
      "Ġcricket": 6491,
      "ĠIdk": 6492,
      "Ġunderstood": 6493,
      "Ġhanded": 6494,
      "ĠWHEN": 6495,
      "ĠBehind": 6496,
      "ĠLIFE": 6497,
      "xxxxxxxxx": 6498,
      "Ġquestioned": 6499,
      "Ġtakin": 6500,
      "Ġtaken": 6501,
      "Ġdiamond": 6502,
      "ĠWINNER": 6503,
      "ĠUnless": 6504,
      "ĠUnsubscribe": 6505,
      "ĠUncle": 6506,
      "Ġsubscription": 6507,
      "CKS": 6508,
      "ĠAtlanta": 6509,
      "ĠBring": 6510,
      "ĠBrilliant": 6511,
      "Ġstranger": 6512,
      "Ġfinishes": 6513,
      "URL": 6514,
      "okin": 6515,
      "Ġmoon": 6516,
      "Ġmedicine": 6517,
      "Ġchain": 6518,
      "Ġchamp": 6519,
      "Ġincre": 6520,
      "Ġincident": 6521,
      "ĠChinese": 6522,
      "ĠArgument": 6523,
      "ĠAfterNoon": 6524,
      "Ġ08712402": 6525,
      "Ġdrinks": 6526,
      "Ġseconds": 6527,
      "989": 6528,
      "phine": 6529,
      "Ġesplanade": 6530,
      "ĠSHOW": 6531,
      "ĠSmiling": 6532,
      "Ġ0800093876": 6533,
      "ĠClos": 6534,
      "ĠDOES": 6535,
      "Ġprompt": 6536,
      "Ġpromises": 6537,
      "Ġaftr": 6538,
      "BPOLY": 6539,
      "exp": 6540,
      "Ġsorting": 6541,
      "Ġcalc": 6542,
      "Ġcalicut": 6543,
      "Ġcaliforn": 6544,
      "ĠIndians": 6545,
      "Ġdistance": 6546,
      "Ġoption": 6547,
      "Ġinstantly": 6548,
      "Ġinstructions": 6549,
      "Ġdownloads": 6550,
      "Ġconfirmed": 6551,
      "bye": 6552,
      "Ġwedding": 6553,
      "Ġmiddle": 6554,
      "Ġmoved": 6555,
      "Ġevry": 6556,
      "Ġstanding": 6557,
      "Ġvijay": 6558,
      "Ġuncon": 6559,
      "Ġ090580918": 6560,
      "Ġterrible": 6561,
      "Ġbilled": 6562,
      "Ġpossession": 6563,
      "Ġparked": 6564,
      "ĠWENT": 6565,
      "ĠActivate": 6566,
      "ĠMsgs": 6567,
      "Ġshortage": 6568,
      "Ġ80182": 6569,
      "Ġ80878": 6570,
      "..........": 6571,
      "...........": 6572,
      "Ġvaluable": 6573,
      "UDI": 6574,
      "UDDY": 6575,
      "Ġwisdom": 6576,
      "Ġforeign": 6577,
      "Ġparking": 6578,
      "Ġparag": 6579,
      "ĠDey": 6580,
      "ĠLoan": 6581,
      "ĠLoving": 6582,
      "ĠRemind": 6583,
      "ĠENJOY": 6584,
      "Ġtransf": 6585,
      "Ġtransfered": 6586,
      "Ġreturned": 6587,
      "PPM": 6588,
      "ginte": 6589,
      "Ġfilms": 6590,
      "ĠSUBPOLY": 6591,
      "ĠSubscri": 6592,
      "ĠYears": 6593,
      "Ġurgently": 6594,
      "Ġspending": 6595,
      "Ġimpossible": 6596,
      "Ġipad": 6597,
      "Ġipod": 6598,
      "Ġboost": 6599,
      "Ġbooking": 6600,
      "Ġbooks": 6601,
      "Ġfalls": 6602,
      "Ġfightng": 6603,
      "Ġprizes": 6604,
      "ĠCrack": 6605,
      "Ġrefused": 6606,
      "Ġrule": 6607,
      "ĠLiverpool": 6608,
      "ĠDoesn": 6609,
      "Ġ69888": 6610,
      "Ġthanksgiving": 6611,
      "Ġ0906401": 6612,
      "Ġchildren": 6613,
      "621170150": 6614,
      "82228": 6615,
      "RAND": 6616,
      "Ġvegetables": 6617,
      "Ġwaheed": 6618,
      "Ġsales": 6619,
      "ĠSkilGme": 6620,
      "ĠSkillGame": 6621,
      "Ġeye": 6622,
      "ĠMOB": 6623,
      "ĠBEFORE": 6624,
      "Ġpraying": 6625,
      "Ġvoicemail": 6626,
      "Ġmaga": 6627,
      "Ġadvise": 6628,
      "ĠPOLYPH": 6629,
      "ibility": 6630,
      "tuition": 6631,
      "Ġeduc": 6632,
      "Ġcudd": 6633,
      "Ġcuddle": 6634,
      "Ġbags": 6635,
      "Ġfills": 6636,
      "Ġflaked": 6637,
      "Ġfootprints": 6638,
      "Ġgenerally": 6639,
      "Ġgenuine": 6640,
      "ĠTCR": 6641,
      "ĠSolve": 6642,
      "Ġindia": 6643,
      "ĠNext": 6644,
      "ĠMmmm": 6645,
      "ĠMmmmm": 6646,
      "ĠFinal": 6647,
      "ĠFinally": 6648,
      "ĠFinish": 6649,
      "Ġnearly": 6650,
      "Ġ82242": 6651,
      "Ġcommon": 6652,
      "Ġcommunity": 6653,
      "Ġ300603": 6654,
      "Ġquickly": 6655,
      ">>>": 6656,
      "uxury": 6657,
      "Ġceleb": 6658,
      "Ġpackage": 6659,
      "araoke": 6660,
      "ĠSweetest": 6661,
      "ĠNetwork": 6662,
      "ĠMessages": 6663,
      "ĠBecause": 6664,
      "Ġsteam": 6665,
      "ĠPICS": 6666,
      "ĠFIND": 6667,
      "Ġ88066": 6668,
      "Ġpractic": 6669,
      "ĠVouchers": 6670,
      "Ġblessings": 6671,
      "Ġregarding": 6672,
      "COMUK": 6673,
      "SPE": 6674,
      "ilthy": 6675,
      "months": 6676,
      "ĠÂĸ": 6677,
      "Ġwalls": 6678,
      "Ġwallpaper": 6679,
      "Ġsnake": 6680,
      "Ġmachan": 6681,
      "Ġdresser": 6682,
      "ĠSimply": 6683,
      "ĠSuprman": 6684,
      "Ġinclude": 6685,
      "Ġeggs": 6686,
      "Ġissue": 6687,
      "Ġrecd": 6688,
      "ĠNatal": 6689,
      "ĠMINUTES": 6690,
      "ĠGrahm": 6691,
      "ĠFUCKIN": 6692,
      "Ġsports": 6693,
      "Ġsupervis": 6694,
      "ĠStarts": 6695,
      "Ġbloody": 6696,
      "Ġroommates": 6697,
      "Ġactivate": 6698,
      "Ġ087187269": 6699,
      "3585": 6700,
      "Ġresponding": 6701,
      "Ġgentleman": 6702,
      "Ġrandomly": 6703,
      "Ġsuccessful": 6704,
      "Ġsuccessfully": 6705,
      "Winaweek": 6706,
      "Ġqatar": 6707,
      "Ġtirunel": 6708,
      "Ġtirupur": 6709,
      "Ġbottle": 6710,
      "Ġbottom": 6711,
      "ĠSomething": 6712,
      "ĠSOMEONE": 6713,
      "ĠSOMETHING": 6714,
      "ĠWRK": 6715,
      "ĠABTA": 6716,
      "ĠAnother": 6717,
      "ĠAftr": 6718,
      "ĠYEAR": 6719,
      "ĠYEAH": 6720,
      "ĠMatrix": 6721,
      "ĠMANEESH": 6722,
      "Ġformat": 6723,
      "ĠDrop": 6724,
      "rief": 6725,
      "ĠFeb": 6726,
      "ĠRaji": 6727,
      "ĠRINGTONE": 6728,
      "Ġaffairs": 6729,
      "Ġ***********": 6730,
      "Ġremains": 6731,
      "ĠMeeting": 6732,
      "Ġ090617014": 6733,
      "Ġsubscribed": 6734,
      "Ġfavourite": 6735,
      "kias": 6736,
      "Ġtalent": 6737,
      "Ġwoman": 6738,
      "Ġsoryda": 6739,
      "Ġgarage": 6740,
      "ĠTwo": 6741,
      "ĠTONES": 6742,
      "Ġoccup": 6743,
      "ĠHoneybee": 6744,
      "Ġhanging": 6745,
      "ĠConvey": 6746,
      "ĠCutefrnd": 6747,
      "ĠAbout": 6748,
      "ĠPrepare": 6749,
      "ĠFriday": 6750,
      "Ġdocs": 6751,
      "ĠLaugh": 6752,
      "ĠLaughed": 6753,
      "ĠLdnW": 6754,
      "Ġsoftware": 6755,
      "Ġtechnical": 6756,
      "Ġ83222": 6757,
      "Ġ89555": 6758,
      "Ġvarious": 6759,
      "ĠHavnt": 6760,
      "Ġ087147123": 6761,
      "Ġmanagement": 6762,
      "1259": 6763,
      "Ġresponse": 6764,
      "Ġresponce": 6765,
      "ĠMobilesDirect": 6766,
      "Ġ08452810073": 6767,
      "HELLO": 6768,
      "partnr": 6769,
      "true": 6770,
      "Ġverify": 6771,
      "Ġaunty": 6772,
      "Ġaudition": 6773,
      "Ġcustomers": 6774,
      "Ġcruise": 6775,
      "Ġideas": 6776,
      "Ġboat": 6777,
      "Ġfailed": 6778,
      "ĠShijas": 6779,
      "ĠHomeowners": 6780,
      "ĠCARE": 6781,
      "ĠCLAIM": 6782,
      "Ġrecogn": 6783,
      "ĠMinnam": 6784,
      "ĠMORAL": 6785,
      "ĠDRAW": 6786,
      "ĠPARIS": 6787,
      "Ġjuicy": 6788,
      "ĠLeave": 6789,
      "Ġloyalty": 6790,
      "Ġshipping": 6791,
      "ĠRECEIVE": 6792,
      "ĠEVERY": 6793,
      "ĠThursday": 6794,
      "fficient": 6795,
      "Ġ087178980": 6796,
      "Ġexhausted": 6797,
      "Ġconstantly": 6798,
      "ĠTHANX": 6799,
      "Ġsatisfied": 6800,
      "Ġ09061790121": 6801,
      "Ġapologise": 6802,
      "ĠDeliveredTomorrow": 6803,
      "ighbour": 6804,
      "08718727870": 6805,
      "Ġdespar": 6806,
      "Ġ087187262701": 6807,
      "ĠIBHltd": 6808,
      "Margaret": 6809,
      "messages": 6810,
      "understand": 6811,
      "Ġtablets": 6812,
      "Ġwalmart": 6813,
      "Ġsource": 6814,
      "Ġmacho": 6815,
      "Ġbanks": 6816,
      "Ġblah": 6817,
      "Ġdubsack": 6818,
      "Ġfifteen": 6819,
      "Ġfloor": 6820,
      "Ġfancies": 6821,
      "Ġpotential": 6822,
      "Ġpending": 6823,
      "ĠSingle": 6824,
      "ĠWANNA": 6825,
      "Ġhusband": 6826,
      "ĠContent": 6827,
      "Ġreboot": 6828,
      "ĠMonday": 6829,
      "ĠUmmmmma": 6830,
      "ĠBBD": 6831,
      "ĠPARTY": 6832,
      "Ġ1956669": 6833,
      "Ġ45239": 6834,
      "Ġloses": 6835,
      "Ġshouted": 6836,
      "Ġupgrade": 6837,
      "Ġ84128": 6838,
      "Ġprospects": 6839,
      "ĠENTER": 6840,
      "Ġphilosophy": 6841,
      "Ġ08719899": 6842,
      "Ġdevelop": 6843,
      "Ġaccordingly": 6844,
      "ĠCHEERS": 6845,
      "Ġswimming": 6846,
      "Ġ09066612661": 6847,
      "Ġchallenge": 6848,
      "Ġ09066362231": 6849,
      "Ġdepends": 6850,
      "Ġprivate": 6851,
      "Ġslippers": 6852,
      "minMobsmoreLKPOBOX": 6853,
      "087147403231": 6854,
      "08700": 6855,
      "FRIEND": 6856,
      "Gardener": 6857,
      "Melle": 6858,
      "Neighbour": 6859,
      "aurant": 6860,
      "pouts": 6861,
      "vironment": 6862,
      "Ġtaylor": 6863,
      "Ġtouched": 6864,
      "inunginte": 6865,
      "Ġsachin": 6866,
      "Ġmorphine": 6867,
      "Ġcitizen": 6868,
      "Ġcertainly": 6869,
      "ĠImmediately": 6870,
      "Ġbuzy": 6871,
      "Ġdearer": 6872,
      "Ġdignity": 6873,
      "erican": 6874,
      "Ġfathima": 6875,
      "Ġlido": 6876,
      "Ġlousy": 6877,
      "Ġnaked": 6878,
      "Ġgautham": 6879,
      "Ġgorgeous": 6880,
      "Ġpieces": 6881,
      "ĠTessy": 6882,
      "ĠTITLE": 6883,
      "ĠSept": 6884,
      "ĠSITUATION": 6885,
      "ĠSwtheart": 6886,
      "ĠHalloween": 6887,
      "Ġhundred": 6888,
      "ĠACCEPT": 6889,
      "ĠNurungu": 6890,
      "ĠMurdered": 6891,
      "ĠBelovd": 6892,
      "ĠBONUS": 6893,
      "ĠBeware": 6894,
      "ĠPoints": 6895,
      "ĠPocketBabe": 6896,
      "ĠPleasure": 6897,
      "ĠPERSON": 6898,
      "ĠGermany": 6899,
      "Ġrailway": 6900,
      "ĠFighting": 6901,
      "Ġlifetime": 6902,
      "Ġ01223585": 6903,
      "ĠLifpartnr": 6904,
      "ĠLvblefrnd": 6905,
      "ppermessSubscription": 6906,
      "Ġtelphone": 6907,
      "ĠRoger": 6908,
      "Ġ84025": 6909,
      "Ġ81618": 6910,
      "Ġ89545": 6911,
      "Ġ88600": 6912,
      "Ġ81303": 6913,
      "Ġoutstanding": 6914,
      "Ġalcohol": 6915,
      "ĠEnergy": 6916,
      "9050000": 6917,
      "Ġspeechless": 6918,
      "Ġfemale": 6919,
      "embered": 6920,
      "704050406": 6921,
      "ĠVettam": 6922,
      "Ġexplicit": 6923,
      "ĠStorming": 6924,
      "ĠSTUPID": 6925,
      "Ġguilty": 6926,
      "Ġdislikes": 6927,
      "Ġdisplay": 6928,
      "Ġ09063458130": 6929,
      "ĠINFORM": 6930,
      "Ġ09061209465": 6931,
      "Ġ08000938767": 6932,
      "Ġcalifornia": 6933,
      "ĠPOLYPHONIC": 6934,
      "ĠGrahmbell": 6935,
      "Ġsupervisor": 6936,
      "ĠMANEESHA": 6937,
      "ĠMinnaminunginte": 6938,
      "Ġ08717898035": 6939,
      "ĠUmmmmmaah": 6940,
      "!\"": 6941,
      "!)": 6942,
      "!,": 6943,
      "\",": 6944,
      "*Â£": 6945,
      "+-": 6946,
      "-(": 6947,
      "035": 6948,
      "0778": 6949,
      "01327": 6950,
      "09050000": 6951,
      "120": 6952,
      "140": 6953,
      "123": 6954,
      "1182": 6955,
      "1808": 6956,
      "280": 6957,
      "212": 6958,
      "215": 6959,
      "27870": 6960,
      "318": 6961,
      "338": 6962,
      "326": 6963,
      "4000": 6964,
      "445": 6965,
      "412": 6966,
      "426": 6967,
      "435": 6968,
      "578": 6969,
      "533": 6970,
      "5124": 6971,
      "64": 6972,
      "624": 6973,
      "674": 6974,
      "79": 6975,
      "740": 6976,
      "744": 6977,
      "795": 6978,
      "762": 6979,
      "83": 6980,
      "810": 6981,
      "899": 6982,
      "833": 6983,
      "819": 6984,
      "82050": 6985,
      "81151": 6986,
      "8704050406": 6987,
      "93": 6988,
      "AW": 6989,
      "AZ": 6990,
      "At": 6991,
      "Are": 6992,
      "And": 6993,
      "App": 6994,
      "Ala": 6995,
      "Acom": 6996,
      "AUS": 6997,
      "AUT": 6998,
      "ACH": 6999,
      "AVAL": 7000,
      "BT": 7001,
      "Boo": 7002,
      "But": 7003,
      "Best": 7004,
      "Buy": 7005,
      "Book": 7006,
      "BUT": 7007,
      "Bank": 7008,
      "BEEN": 7009,
      "Biola": 7010,
      "Because": 7011,
      "BUDDY": 7012,
      "CA": 7013,
      "CR": 7014,
      "CU": 7015,
      "Can": 7016,
      "Com": 7017,
      "Cir": 7018,
      "CED": 7019,
      "CUS": 7020,
      "Ctxt": 7021,
      "CARD": 7022,
      "CCL": 7023,
      "CIST": 7024,
      "Club": 7025,
      "COUNT": 7026,
      "DA": 7027,
      "DO": 7028,
      "DX": 7029,
      "Do": 7030,
      "Dis": 7031,
      "Dont": 7032,
      "Date": 7033,
      "DAMS": 7034,
      "Es": 7035,
      "Ex": 7036,
      "End": 7037,
      "Ent": 7038,
      "EGE": 7039,
      "ELL": 7040,
      "EMS": 7041,
      "Enjoy": 7042,
      "EAD": 7043,
      "FF": 7044,
      "Fe": 7045,
      "Frm": 7046,
      "FOUND": 7047,
      "GO": 7048,
      "Get": 7049,
      "Good": 7050,
      "GIN": 7051,
      "GNT": 7052,
      "Greet": 7053,
      "GUD": 7054,
      "HB": 7055,
      "HO": 7056,
      "Hi": 7057,
      "How": 7058,
      "Hope": 7059,
      "HAM": 7060,
      "HOL": 7061,
      "HOPE": 7062,
      "Haha": 7063,
      "HAVE": 7064,
      "Harry": 7065,
      "IZ": 7066,
      "It": 7067,
      "ILE": 7068,
      "IRE": 7069,
      "Idew": 7070,
      "IOUS": 7071,
      "KI": 7072,
      "KS": 7073,
      "KED": 7074,
      "KUDI": 7075,
      "LS": 7076,
      "LOT": 7077,
      "LIE": 7078,
      "MT": 7079,
      "Ma": 7080,
      "Mu": 7081,
      "My": 7082,
      "Mess": 7083,
      "More": 7084,
      "MAR": 7085,
      "MED": 7086,
      "MOB": 7087,
      "NG": 7088,
      "Name": 7089,
      "NED": 7090,
      "Number": 7091,
      "OE": 7092,
      "OO": 7093,
      "Oh": 7094,
      "Or": 7095,
      "Opt": 7096,
      "OKE": 7097,
      "PM": 7098,
      "PS": 7099,
      "Pr": 7100,
      "Pls": 7101,
      "PLE": 7102,
      "POWER": 7103,
      "Ppw": 7104,
      "RG": 7105,
      "RR": 7106,
      "Res": 7107,
      "RAN": 7108,
      "Reply": 7109,
      "Sg": 7110,
      "Sup": 7111,
      "SIM": 7112,
      "Sweet": 7113,
      "SIVE": 7114,
      "SCO": 7115,
      "TD": 7116,
      "TG": 7117,
      "TY": 7118,
      "Ts": 7119,
      "That": 7120,
      "TIN": 7121,
      "TXT": 7122,
      "TAKE": 7123,
      "TALK": 7124,
      "Text": 7125,
      "Thanks": 7126,
      "UG": 7127,
      "UJ": 7128,
      "Unt": 7129,
      "UED": 7130,
      "UITE": 7131,
      "Va": 7132,
      "VIN": 7133,
      "WA": 7134,
      "WE": 7135,
      "WR": 7136,
      "WT": 7137,
      "Win": 7138,
      "Walk": 7139,
      "WIL": 7140,
      "WHERE": 7141,
      "XE": 7142,
      "XN": 7143,
      "YA": 7144,
      "YF": 7145,
      "Your": 7146,
      "YAR": 7147,
      "ahat": 7148,
      "aith": 7149,
      "aus": 7150,
      "aud": 7151,
      "aie": 7152,
      "bin": 7153,
      "bha": 7154,
      "bat": 7155,
      "bay": 7156,
      "bit": 7157,
      "bel": 7158,
      "bud": 7159,
      "bage": 7160,
      "buk": 7161,
      "break": 7162,
      "con": 7163,
      "cing": 7164,
      "can": 7165,
      "core": 7166,
      "could": 7167,
      "cred": 7168,
      "congrat": 7169,
      "colour": 7170,
      "castic": 7171,
      "dc": 7172,
      "di": 7173,
      "dge": 7174,
      "del": 7175,
      "dress": 7176,
      "dison": 7177,
      "dbuk": 7178,
      "eg": 7179,
      "eh": 7180,
      "ey": 7181,
      "eone": 7182,
      "fc": 7183,
      "for": 7184,
      "fore": 7185,
      "fine": 7186,
      "fice": 7187,
      "fie": 7188,
      "friend": 7189,
      "ford": 7190,
      "fidence": 7191,
      "gor": 7192,
      "gan": 7193,
      "gard": 7194,
      "gks": 7195,
      "games": 7196,
      "gds": 7197,
      "ghest": 7198,
      "hon": 7199,
      "hth": 7200,
      "hod": 7201,
      "hmm": 7202,
      "hough": 7203,
      "htu": 7204,
      "hley": 7205,
      "hja": 7206,
      "ior": 7207,
      "iing": 7208,
      "ike": 7209,
      "iri": 7210,
      "iking": 7211,
      "iary": 7212,
      "iated": 7213,
      "ju": 7214,
      "jst": 7215,
      "jits": 7216,
      "kn": 7217,
      "kin": 7218,
      "ker": 7219,
      "kara": 7220,
      "lk": 7221,
      "lace": 7222,
      "lane": 7223,
      "lSup": 7224,
      "mat": 7225,
      "mill": 7226,
      "mate": 7227,
      "mod": 7228,
      "mpt": 7229,
      "mark": 7230,
      "mates": 7231,
      "mirer": 7232,
      "mnth": 7233,
      "ni": 7234,
      "nu": 7235,
      "non": 7236,
      "nly": 7237,
      "nec": 7238,
      "nna": 7239,
      "nup": 7240,
      "norm": 7241,
      "need": 7242,
      "nss": 7243,
      "off": 7244,
      "oices": 7245,
      "ofl": 7246,
      "oley": 7247,
      "oanna": 7248,
      "pH": 7249,
      "pa": 7250,
      "pre": 7251,
      "pon": 7252,
      "ping": 7253,
      "pes": 7254,
      "pri": 7255,
      "pun": 7256,
      "pers": 7257,
      "pod": 7258,
      "please": 7259,
      "rc": 7260,
      "ram": 7261,
      "ront": 7262,
      "rish": 7263,
      "rcv": 7264,
      "rict": 7265,
      "rrit": 7266,
      "rAcom": 7267,
      "sb": 7268,
      "sm": 7269,
      "sp": 7270,
      "son": 7271,
      "ser": 7272,
      "sed": 7273,
      "sut": 7274,
      "shi": 7275,
      "somet": 7276,
      "slp": 7277,
      "slet": 7278,
      "sEMS": 7279,
      "tow": 7280,
      "tic": 7281,
      "tms": 7282,
      "tomorrow": 7283,
      "tilla": 7284,
      "ued": 7285,
      "uage": 7286,
      "uls": 7287,
      "ucc": 7288,
      "uches": 7289,
      "vad": 7290,
      "vary": 7291,
      "vous": 7292,
      "voice": 7293,
      "vision": 7294,
      "ville": 7295,
      "viking": 7296,
      "ws": 7297,
      "wy": 7298,
      "wood": 7299,
      "wear": 7300,
      "wive": 7301,
      "wick": 7302,
      "wait": 7303,
      "wave": 7304,
      "water": 7305,
      "wrc": 7306,
      "xy": 7307,
      "xst": 7308,
      "xahat": 7309,
      "yo": 7310,
      "yan": 7311,
      "your": 7312,
      "yde": 7313,
      "ziest": 7314,
      "zhth": 7315,
      "Â¡": 7316,
      "Ġing": 7317,
      "Ġ__": 7318,
      "Ġtc": 7319,
      "Ġtou": 7320,
      "Ġtall": 7321,
      "Ġtac": 7322,
      "Ġtact": 7323,
      "Ġtag": 7324,
      "Ġtap": 7325,
      "Ġtank": 7326,
      "Ġtip": 7327,
      "Ġtyp": 7328,
      "Ġtaste": 7329,
      "Ġttyl": 7330,
      "Ġtlk": 7331,
      "Ġaer": 7332,
      "Ġapt": 7333,
      "Ġavent": 7334,
      "Ġayn": 7335,
      "iny": 7336,
      "into": 7337,
      "Ġwes": 7338,
      "Ġwth": 7339,
      "Ġwast": 7340,
      "Ġwks": 7341,
      "Ġwren": 7342,
      "Ġwah": 7343,
      "Ġwoot": 7344,
      "Ġwip": 7345,
      "Ġwoken": 7346,
      "Ġwtf": 7347,
      "Ġwml": 7348,
      "Ġwylie": 7349,
      "Ġwuld": 7350,
      "Ġsd": 7351,
      "Ġsac": 7352,
      "Ġsake": 7353,
      "Ġshan": 7354,
      "Ġsack": 7355,
      "Ġsco": 7356,
      "Ġswe": 7357,
      "Ġsno": 7358,
      "Ġsrs": 7359,
      "Ġsix": 7360,
      "Ġsigh": 7361,
      "Ġsize": 7362,
      "Ġsoup": 7363,
      "hex": 7364,
      "hey": 7365,
      "hemat": 7366,
      "hews": 7367,
      "rep": 7368,
      "rees": 7369,
      "rection": 7370,
      "Ġmb": 7371,
      "Ġmi": 7372,
      "Ġmj": 7373,
      "Ġmp": 7374,
      "Ġmes": 7375,
      "Ġmot": 7376,
      "Ġmall": 7377,
      "Ġmut": 7378,
      "Ġmill": 7379,
      "Ġmone": 7380,
      "Ġmain": 7381,
      "Ġmits": 7382,
      "Ġmiles": 7383,
      "Ġmotorola": 7384,
      "Ġmouth": 7385,
      "Ġmsn": 7386,
      "Ġmca": 7387,
      "Ġmental": 7388,
      "onw": 7389,
      "oning": 7390,
      "onaut": 7391,
      "Ġcc": 7392,
      "Ġcy": 7393,
      "Ġcst": 7394,
      "Ġcld": 7395,
      "Ġcough": 7396,
      "Ġcous": 7397,
      "Ġcity": 7398,
      "Ġchip": 7399,
      "Ġcme": 7400,
      "Ġcave": 7401,
      "Ġcaught": 7402,
      "Ġcuri": 7403,
      "Ġym": 7404,
      "Ġyun": 7405,
      "Ġyep": 7406,
      "Ġyck": 7407,
      "Ġyummy": 7408,
      "Ġtoa": 7409,
      "Ġtoot": 7410,
      "Ġtooo": 7411,
      "Ġtoler": 7412,
      "Ġtomorro": 7413,
      "Ġtoshi": 7414,
      "ĠIK": 7415,
      "ĠIc": 7416,
      "ĠInt": 7417,
      "ĠIAS": 7418,
      "ĠIKE": 7419,
      "ĠIrrit": 7420,
      "hay": 7421,
      "hand": 7422,
      "hant": 7423,
      "hala": 7424,
      "happy": 7425,
      "haya": 7426,
      "haps": 7427,
      "haved": 7428,
      "Ġball": 7429,
      "Ġbree": 7430,
      "Ġband": 7431,
      "Ġbite": 7432,
      "Ġbase": 7433,
      "Ġbul": 7434,
      "Ġbang": 7435,
      "Ġbonus": 7436,
      "Ġborrow": 7437,
      "Ġbsn": 7438,
      "Ġbrea": 7439,
      "orce": 7440,
      "ords": 7441,
      "orrect": 7442,
      "orating": 7443,
      "Ġdt": 7444,
      "Ġdu": 7445,
      "Ġdime": 7446,
      "Ġdest": 7447,
      "Ġdud": 7448,
      "Ġdick": 7449,
      "Ġdig": 7450,
      "Ġdough": 7451,
      "Ġdial": 7452,
      "Ġdorm": 7453,
      "Ġdance": 7454,
      "Ġdirt": 7455,
      "Ġdurb": 7456,
      "Ġdamn": 7457,
      "Ġdanger": 7458,
      "Ġyoure": 7459,
      "Ġyoung": 7460,
      "erg": 7461,
      "ering": 7462,
      "eries": 7463,
      "erable": 7464,
      "ermin": 7465,
      "ercial": 7466,
      "eronaut": 7467,
      "Ġfo": 7468,
      "Ġfan": 7469,
      "Ġfow": 7470,
      "Ġfit": 7471,
      "Ġfal": 7472,
      "Ġfond": 7473,
      "Ġfurn": 7474,
      "Ġfret": 7475,
      "Ġfund": 7476,
      "Ġfair": 7477,
      "Ġfield": 7478,
      "Ġfilthy": 7479,
      "Ġfgks": 7480,
      "Ġlt": 7481,
      "Ġlv": 7482,
      "Ġlin": 7483,
      "Ġling": 7484,
      "Ġlap": 7485,
      "Ġltt": 7486,
      "Ġlower": 7487,
      "Ġlays": 7488,
      "Ġlane": 7489,
      "Ġlucozade": 7490,
      "Ġlamb": 7491,
      "Ġluxury": 7492,
      "Ġnb": 7493,
      "Ġnd": 7494,
      "Ġnu": 7495,
      "Ġned": 7496,
      "Ġnut": 7497,
      "Ġnus": 7498,
      "Ġnast": 7499,
      "Ġnort": 7500,
      "Ġnav": 7501,
      "Ġnoun": 7502,
      "Ġnurs": 7503,
      "Ġnvm": 7504,
      "Ġnamed": 7505,
      "Ġgf": 7506,
      "Ġgv": 7507,
      "Ġgain": 7508,
      "Ġgast": 7509,
      "Ġgig": 7510,
      "Ġgving": 7511,
      "Ġgist": 7512,
      "Ġgiv": 7513,
      "Ġgang": 7514,
      "Ġgarden": 7515,
      "ndry": 7516,
      "ndrst": 7517,
      "Ġpim": 7518,
      "Ġpol": 7519,
      "Ġpool": 7520,
      "Ġpeak": 7521,
      "Ġpouch": 7522,
      "Ġparent": 7523,
      "Ġpuzz": 7524,
      "Ġpush": 7525,
      "Ġpours": 7526,
      "Ġthesis": 7527,
      "Ġure": 7528,
      "Ġultim": 7529,
      "Ġutter": 7530,
      "Ġundrst": 7531,
      "anite": 7532,
      "anag": 7533,
      "anuman": 7534,
      "ato": 7535,
      "athe": 7536,
      "atic": 7537,
      "atum": 7538,
      "atus": 7539,
      "atient": 7540,
      "athaya": 7541,
      "aya": 7542,
      "aying": 7543,
      "ayut": 7544,
      "ayse": 7545,
      "ayment": 7546,
      "etrol": 7547,
      "arm": 7548,
      "arter": 7549,
      "arish": 7550,
      "arner": 7551,
      "argg": 7552,
      "arfull": 7553,
      "ĠTot": 7554,
      "ĠTis": 7555,
      "ĠTak": 7556,
      "ĠTOP": 7557,
      "ĠTOT": 7558,
      "ĠTouch": 7559,
      "ĠTUL": 7560,
      "ĠTension": 7561,
      "ĠTWIL": 7562,
      "itt": 7563,
      "itis": 7564,
      "itic": 7565,
      "itting": 7566,
      "iture": 7567,
      "itude": 7568,
      "itina": 7569,
      "ĠSC": 7570,
      "ĠSac": 7571,
      "ĠSch": 7572,
      "ĠSear": 7573,
      "ĠSqu": 7574,
      "ĠSAY": 7575,
      "ĠScor": 7576,
      "ĠSuite": 7577,
      "ĠSEND": 7578,
      "ĠSAME": 7579,
      "ĠScare": 7580,
      "ĠSIX": 7581,
      "ĠSlow": 7582,
      "ĠSinco": 7583,
      "ĠSitting": 7584,
      "edu": 7585,
      "edom": 7586,
      "edia": 7587,
      "edinto": 7588,
      "str": 7589,
      "stone": 7590,
      "stops": 7591,
      "stery": 7592,
      "stairs": 7593,
      "stini": 7594,
      "enal": 7595,
      "enry": 7596,
      "environment": 7597,
      "Ġos": 7598,
      "Ġoz": 7599,
      "Ġoil": 7600,
      "Ġots": 7601,
      "Ġodi": 7602,
      "...,": 7603,
      "...!!": 7604,
      "...!!!": 7605,
      "otic": 7606,
      "otch": 7607,
      "otion": 7608,
      "otter": 7609,
      "otect": 7610,
      "othi": 7611,
      "othes": 7612,
      "otland": 7613,
      "ĠHol": 7614,
      "ĠHON": 7615,
      "ĠHER": 7616,
      "ĠHOR": 7617,
      "ĠHAR": 7618,
      "ĠHIT": 7619,
      "ĠHlp": 7620,
      "ĠHIS": 7621,
      "ĠHog": 7622,
      "ĠHug": 7623,
      "ĠHang": 7624,
      "ĠHOL": 7625,
      "ĠHospital": 7626,
      "ĠHalla": 7627,
      "ĠHOUS": 7628,
      "ĠHols": 7629,
      "ĠHero": 7630,
      "ĠHrish": 7631,
      "Ġhall": 7632,
      "Ġinch": 7633,
      "Ġinfe": 7634,
      "Ġinvest": 7635,
      "ĠWon": 7636,
      "ĠWil": 7637,
      "ĠWood": 7638,
      "ĠWest": 7639,
      "ĠWick": 7640,
      "ĠWOU": 7641,
      "ĠWOM": 7642,
      "ĠWIF": 7643,
      "ĠWAITING": 7644,
      "ĠWISH": 7645,
      "ĠWALES": 7646,
      "isk": 7647,
      "isation": 7648,
      "isions": 7649,
      "Ġhid": 7650,
      "Ġhpp": 7651,
      "Ġhum": 7652,
      "Ġhist": 7653,
      "Ġhint": 7654,
      "Ġhols": 7655,
      "Ġhmmm": 7656,
      "Ġhubby": 7657,
      "Ġmei": 7658,
      "Ġmeow": 7659,
      "Ġmelt": 7660,
      "alli": 7661,
      "ĠCt": 7662,
      "ĠCard": 7663,
      "ĠCAL": 7664,
      "ĠCER": 7665,
      "ĠChar": 7666,
      "ĠCuz": 7667,
      "ĠColour": 7668,
      "ĠCorn": 7669,
      "ĠCSH": 7670,
      "ĠCele": 7671,
      "ĠCUP": 7672,
      "ĠCtter": 7673,
      "ĠCNN": 7674,
      "ĠCorrect": 7675,
      "ĠAve": 7676,
      "ĠAud": 7677,
      "ĠAww": 7678,
      "ĠAco": 7679,
      "ĠArs": 7680,
      "ĠAOM": 7681,
      "ĠAug": 7682,
      "ĠACTION": 7683,
      "ĠACL": 7684,
      "ĠAlex": 7685,
      "ĠAWARD": 7686,
      "ĠAeronaut": 7687,
      "Ġandros": 7688,
      "lyn": 7689,
      "Ġeps": 7690,
      "Ġebay": 7691,
      "Ġiscom": 7692,
      "Ġisland": 7693,
      "asu": 7694,
      "ases": 7695,
      "asda": 7696,
      "asota": 7697,
      "Ġreass": 7698,
      "Ġrecess": 7699,
      "ĠYA": 7700,
      "ĠYOR": 7701,
      "ĠYahoo": 7702,
      "ĠYetunde": 7703,
      "ication": 7704,
      "icated": 7705,
      "icib": 7706,
      "icsson": 7707,
      "Ġitem": 7708,
      "Ġitwh": 7709,
      "Ġitalian": 7710,
      "Ġitcould": 7711,
      "ĠNan": 7712,
      "ĠNic": 7713,
      "ĠNone": 7714,
      "ĠNoooo": 7715,
      "ĠNyt": 7716,
      "ĠNumber": 7717,
      "ĠNasda": 7718,
      "keep": 7719,
      "kered": 7720,
      "kempt": 7721,
      "ĠMom": 7722,
      "ĠMen": 7723,
      "ĠMis": 7724,
      "ĠMid": 7725,
      "ĠMnt": 7726,
      "ĠMine": 7727,
      "ĠMand": 7728,
      "ĠMap": 7729,
      "ĠMAR": 7730,
      "ĠMail": 7731,
      "ĠMother": 7732,
      "ĠMoney": 7733,
      "ĠMonth": 7734,
      "ĠMarch": 7735,
      "ĠMUN": 7736,
      "ĠMATCH": 7737,
      "ĠMMM": 7738,
      "ĠMila": 7739,
      "ĠMTALK": 7740,
      "Ġthin": 7741,
      "Ġthot": 7742,
      "Ġthous": 7743,
      "Ġthts": 7744,
      "Ġthread": 7745,
      "Ġthrew": 7746,
      "Ġforce": 7747,
      "Ġforum": 7748,
      "Ġforms": 7749,
      "Ġforums": 7750,
      "Ġofice": 7751,
      "0060": 7752,
      "aler": 7753,
      "aland": 7754,
      "also": 7755,
      "Ġ27": 7756,
      "Ġ29": 7757,
      "Ġ2000": 7758,
      "Ġ218": 7759,
      "Ġbear": 7760,
      "Ġbegging": 7761,
      "idal": 7762,
      "idual": 7763,
      "ĠDis": 7764,
      "ĠDone": 7765,
      "ĠDnt": 7766,
      "ĠDream": 7767,
      "ĠDOT": 7768,
      "ĠDirect": 7769,
      "ĠDIR": 7770,
      "ĠDEF": 7771,
      "ĠDuches": 7772,
      "utly": 7773,
      "utra": 7774,
      "ĠUmma": 7775,
      "ĠUltim": 7776,
      "ĠBC": 7777,
      "ĠBY": 7778,
      "ĠBx": 7779,
      "ĠBit": 7780,
      "ĠBall": 7781,
      "ĠBill": 7782,
      "ĠBur": 7783,
      "ĠBig": 7784,
      "ĠBright": 7785,
      "ĠBOR": 7786,
      "ĠBUS": 7787,
      "ĠBRE": 7788,
      "ĠBET": 7789,
      "ĠBaa": 7790,
      "ĠBOUT": 7791,
      "ĠBaha": 7792,
      "ĠBRO": 7793,
      "ĠBOY": 7794,
      "ĠBRAND": 7795,
      "aced": 7796,
      "acher": 7797,
      "aching": 7798,
      "ached": 7799,
      "ackered": 7800,
      "ills": 7801,
      "illed": 7802,
      "Ġweas": 7803,
      "Ġwelp": 7804,
      "Ġweigh": 7805,
      "river": 7806,
      "rific": 7807,
      "ribut": 7808,
      "rifice": 7809,
      "iment": 7810,
      "imum": 7811,
      "imation": 7812,
      "ĠOi": 7813,
      "ĠOp": 7814,
      "ĠOz": 7815,
      "ĠOld": 7816,
      "ĠONT": 7817,
      "ĠOoooo": 7818,
      "ĠOPT": 7819,
      "ĠOooh": 7820,
      "Ġhee": 7821,
      "Ġhel": 7822,
      "Ġhes": 7823,
      "Ġheal": 7824,
      "Ġheld": 7825,
      "Ġheater": 7826,
      "Ġstd": 7827,
      "Ġstone": 7828,
      "Ġstamp": 7829,
      "Ġstones": 7830,
      "Ġstret": 7831,
      "Ġstatement": 7832,
      "Ġstyl": 7833,
      "Ġstars": 7834,
      "Ġstaff": 7835,
      "Ġstatus": 7836,
      "ĠPT": 7837,
      "ĠPa": 7838,
      "ĠPink": 7839,
      "ĠPIN": 7840,
      "ĠPick": 7841,
      "ĠPres": 7842,
      "ĠPub": 7843,
      "ĠPAY": 7844,
      "ĠPRE": 7845,
      "ĠPics": 7846,
      "ĠPHP": 7847,
      "ĠPRO": 7848,
      "ĠPolo": 7849,
      "ĠPUB": 7850,
      "ĠPLAY": 7851,
      "ĠPayee": 7852,
      "ĠPotter": 7853,
      "ĠGin": 7854,
      "ĠGay": 7855,
      "ĠGir": 7856,
      "ĠGON": 7857,
      "ĠGame": 7858,
      "ĠGuy": 7859,
      "ĠGEND": 7860,
      "ĠGENT": 7861,
      "ĠGoogle": 7862,
      "ĠGAIL": 7863,
      "ĠGREAT": 7864,
      "ĠGIV": 7865,
      "ĠGimme": 7866,
      "ĠGHO": 7867,
      "amm": 7868,
      "amma": 7869,
      "entre": 7870,
      "entry": 7871,
      "Ġ13": 7872,
      "Ġ140": 7873,
      "Ġ177": 7874,
      "Ġ153": 7875,
      "Ġsever": 7876,
      "Ġsept": 7877,
      "Ġseeds": 7878,
      "adu": 7879,
      "adem": 7880,
      "adays": 7881,
      "verb": 7882,
      "Ġrc": 7883,
      "Ġrid": 7884,
      "Ġrum": 7885,
      "Ġrice": 7886,
      "Ġroy": 7887,
      "Ġrange": 7888,
      "Ġrang": 7889,
      "Ġrcv": 7890,
      "Ġrhy": 7891,
      "Ġromantic": 7892,
      "Ġracing": 7893,
      "Ġryan": 7894,
      "opal": 7895,
      "opose": 7896,
      "oplane": 7897,
      "ĠFl": 7898,
      "ĠFri": 7899,
      "ĠFun": 7900,
      "ĠFant": 7901,
      "ĠFore": 7902,
      "ĠFear": 7903,
      "ĠFAR": 7904,
      "ĠFoot": 7905,
      "ĠFails": 7906,
      "ĠFIR": 7907,
      "ĠFrnd": 7908,
      "ĠFIF": 7909,
      "ĠFingers": 7910,
      "ĠFuture": 7911,
      "ĠFyi": 7912,
      "ĠFffff": 7913,
      "ĠFoley": 7914,
      "Ġcalld": 7915,
      "Ġcallin": 7916,
      "Ġkg": 7917,
      "Ġko": 7918,
      "Ġkz": 7919,
      "Ġkor": 7920,
      "Ġkar": 7921,
      "Ġkod": 7922,
      "Ġkerala": 7923,
      "Ġkapp": 7924,
      "Ġkadeem": 7925,
      "Ġkaraoke": 7926,
      "Ġkonw": 7927,
      "Ġanj": 7928,
      "Ġanot": 7929,
      "Ġanth": 7930,
      "Ġanna": 7931,
      "Ġanimation": 7932,
      "Ġjess": 7933,
      "Ġjason": 7934,
      "Ġjune": 7935,
      "Ġjanuary": 7936,
      "Ġjump": 7937,
      "Ġjamster": 7938,
      "Ġlib": 7939,
      "Ġlip": 7940,
      "Ġgoal": 7941,
      "Ġgoals": 7942,
      "Ġdogging": 7943,
      "Ġdokey": 7944,
      "ldest": 7945,
      "ldish": 7946,
      "ldew": 7947,
      "Ġ071": 7948,
      "Ġ021": 7949,
      "Ġ0578": 7950,
      "ĠLook": 7951,
      "ĠLions": 7952,
      "ĠLATE": 7953,
      "ĠLiving": 7954,
      "ĠLemme": 7955,
      "ĠLots": 7956,
      "ĠLIST": 7957,
      "ĠLucozade": 7958,
      "ĠLCCL": 7959,
      "Ġcanal": 7960,
      "Ġcancell": 7961,
      "Ġneighb": 7962,
      "Ġarent": 7963,
      "Ġ44": 7964,
      "Ġ400": 7965,
      "Ġ420": 7966,
      "Ġ416": 7967,
      "Ġ404": 7968,
      "Ġ447": 7969,
      "Ġ4403": 7970,
      "Ġ4882": 7971,
      "5069": 7972,
      "Ġnotxt": 7973,
      "Ġgetstop": 7974,
      "unna": 7975,
      "unsub": 7976,
      "unga": 7977,
      "unately": 7978,
      "anth": 7979,
      "antha": 7980,
      "ppucc": 7981,
      "Ġteleph": 7982,
      "essive": 7983,
      "essors": 7984,
      "essarily": 7985,
      "irit": 7986,
      "irting": 7987,
      "Ġfraud": 7988,
      "ili": 7989,
      "ilon": 7990,
      "ilities": 7991,
      "ightly": 7992,
      "Ġlock": 7993,
      "Ġlovers": 7994,
      "Ġloxahat": 7995,
      "Ġshr": 7996,
      "Ġshu": 7997,
      "Ġshy": 7998,
      "Ġshore": 7999
    },
    "merges": [
      [
        "Ġ",
        "t"
      ],
      [
        "Ġ",
        "a"
      ],
      [
        "i",
        "n"
      ],
      [
        "o",
        "u"
      ],
      [
        "Ġ",
        "w"
      ],
      [
        "Ġ",
        "s"
      ],
      [
        "h",
        "e"
      ],
      [
        "r",
        "e"
      ],
      [
        "Ġ",
        "m"
      ],
      [
        "o",
        "n"
      ],
      [
        ".",
        "."
      ],
      [
        "Ġ",
        "c"
      ],
      [
        "Ġ",
        "i"
      ],
      [
        "l",
        "l"
      ],
      [
        "Ġ",
        "y"
      ],
      [
        "Ġt",
        "o"
      ],
      [
        "Ġ",
        "I"
      ],
      [
        "h",
        "a"
      ],
      [
        "Ġ",
        "b"
      ],
      [
        "o",
        "r"
      ],
      [
        "in",
        "g"
      ],
      [
        "Ġ",
        "d"
      ],
      [
        "Ġy",
        "ou"
      ],
      [
        "e",
        "r"
      ],
      [
        "Ġ",
        "f"
      ],
      [
        "Ġ",
        "l"
      ],
      [
        "Ġ",
        "n"
      ],
      [
        "Ġ",
        "g"
      ],
      [
        "n",
        "d"
      ],
      [
        "Ġ",
        "p"
      ],
      [
        "Ġt",
        "he"
      ],
      [
        "Ġ",
        "u"
      ],
      [
        "a",
        "n"
      ],
      [
        "v",
        "e"
      ],
      [
        "o",
        "m"
      ],
      [
        "e",
        "s"
      ],
      [
        "a",
        "t"
      ],
      [
        "o",
        "w"
      ],
      [
        "a",
        "y"
      ],
      [
        "e",
        "t"
      ],
      [
        "a",
        "r"
      ],
      [
        "Ġ",
        "T"
      ],
      [
        "i",
        "t"
      ],
      [
        "Ġ",
        "S"
      ],
      [
        "e",
        "d"
      ],
      [
        "s",
        "t"
      ],
      [
        "e",
        "n"
      ],
      [
        "Ġ",
        "o"
      ],
      [
        "..",
        "."
      ],
      [
        "o",
        "t"
      ],
      [
        "Ġ",
        "H"
      ],
      [
        "Ġ",
        "ha"
      ],
      [
        "l",
        "e"
      ],
      [
        "Ġ",
        "in"
      ],
      [
        "Ġ",
        "W"
      ],
      [
        "i",
        "s"
      ],
      [
        "Ġ",
        "h"
      ],
      [
        "ha",
        "t"
      ],
      [
        "Ġm",
        "e"
      ],
      [
        "a",
        "ll"
      ],
      [
        "Ġ",
        "C"
      ],
      [
        "Ġ",
        "A"
      ],
      [
        "Ġ",
        "on"
      ],
      [
        "Ġa",
        "nd"
      ],
      [
        "l",
        "y"
      ],
      [
        "Ġ",
        "e"
      ],
      [
        "Ġi",
        "s"
      ],
      [
        "a",
        "s"
      ],
      [
        "Ġ",
        "re"
      ],
      [
        "Ġ",
        "Y"
      ],
      [
        "i",
        "c"
      ],
      [
        "Ġi",
        "t"
      ],
      [
        "Ġ",
        "N"
      ],
      [
        "k",
        "e"
      ],
      [
        "Ġ",
        "M"
      ],
      [
        "Ġt",
        "h"
      ],
      [
        "Ġf",
        "or"
      ],
      [
        "Ġo",
        "f"
      ],
      [
        "0",
        "0"
      ],
      [
        "a",
        "l"
      ],
      [
        "Ġ",
        "2"
      ],
      [
        "Ġb",
        "e"
      ],
      [
        "i",
        "d"
      ],
      [
        "Ġ",
        "D"
      ],
      [
        "o",
        "o"
      ],
      [
        "u",
        "t"
      ],
      [
        "g",
        "h"
      ],
      [
        "Ġ",
        "U"
      ],
      [
        "Ġ",
        "B"
      ],
      [
        "a",
        "c"
      ],
      [
        "i",
        "ll"
      ],
      [
        "Ġw",
        "e"
      ],
      [
        "om",
        "e"
      ],
      [
        "Ġm",
        "y"
      ],
      [
        "r",
        "i"
      ],
      [
        "i",
        "m"
      ],
      [
        "Ġ",
        "O"
      ],
      [
        "Ġ",
        "he"
      ],
      [
        "Ġyou",
        "r"
      ],
      [
        "Ġs",
        "t"
      ],
      [
        "Ġ",
        "P"
      ],
      [
        "Ġ",
        "G"
      ],
      [
        "a",
        "m"
      ],
      [
        "en",
        "t"
      ],
      [
        "Ġ",
        "1"
      ],
      [
        "Ġs",
        "e"
      ],
      [
        "a",
        "d"
      ],
      [
        "x",
        "t"
      ],
      [
        "gh",
        "t"
      ],
      [
        "ou",
        "t"
      ],
      [
        "Ġt",
        "hat"
      ],
      [
        "Ġ",
        "&"
      ],
      [
        "Ġha",
        "ve"
      ],
      [
        "v",
        "er"
      ],
      [
        "Ġ",
        "r"
      ],
      [
        "o",
        "p"
      ],
      [
        "Ġ",
        "F"
      ],
      [
        "on",
        "e"
      ],
      [
        "u",
        "st"
      ],
      [
        "Ġc",
        "all"
      ],
      [
        "'",
        "s"
      ],
      [
        "Ġ",
        "k"
      ],
      [
        "Ġa",
        "n"
      ],
      [
        "Ġ",
        "j"
      ],
      [
        "Ġl",
        "i"
      ],
      [
        "Ġg",
        "o"
      ],
      [
        "Ġd",
        "o"
      ],
      [
        "l",
        "d"
      ],
      [
        "Ġ",
        "0"
      ],
      [
        "Ġ",
        "L"
      ],
      [
        "Ġc",
        "an"
      ],
      [
        "s",
        "e"
      ],
      [
        "c",
        "h"
      ],
      [
        "Ġ",
        "or"
      ],
      [
        "it",
        "h"
      ],
      [
        "r",
        "y"
      ],
      [
        "Ġn",
        "e"
      ],
      [
        "Ġa",
        "re"
      ],
      [
        "Ġ",
        "4"
      ],
      [
        "Ġa",
        "t"
      ],
      [
        "5",
        "0"
      ],
      [
        "o",
        "b"
      ],
      [
        "Ġn",
        "ot"
      ],
      [
        "Ġg",
        "et"
      ],
      [
        "l",
        "t"
      ],
      [
        "Ġs",
        "o"
      ],
      [
        "Ġn",
        "ow"
      ],
      [
        "'",
        "m"
      ],
      [
        "he",
        "n"
      ],
      [
        "ĠY",
        "ou"
      ],
      [
        "Ġw",
        "ith"
      ],
      [
        "u",
        "n"
      ],
      [
        "an",
        "t"
      ],
      [
        "i",
        "on"
      ],
      [
        "p",
        "p"
      ],
      [
        "Ġt",
        "e"
      ],
      [
        "'",
        "t"
      ],
      [
        "es",
        "s"
      ],
      [
        "on",
        "t"
      ],
      [
        "i",
        "r"
      ],
      [
        "Ġw",
        "ill"
      ],
      [
        "Ġf",
        "r"
      ],
      [
        "i",
        "l"
      ],
      [
        "i",
        "ght"
      ],
      [
        "n",
        "t"
      ],
      [
        "c",
        "t"
      ],
      [
        "Ġl",
        "o"
      ],
      [
        "Â",
        "£"
      ],
      [
        "Ġu",
        "r"
      ],
      [
        "Ġs",
        "h"
      ],
      [
        "g",
        "t"
      ],
      [
        "Ġa",
        "s"
      ],
      [
        "u",
        "r"
      ],
      [
        "c",
        "e"
      ],
      [
        "Ġu",
        "p"
      ],
      [
        "g",
        "e"
      ],
      [
        "oo",
        "d"
      ],
      [
        "d",
        "ay"
      ],
      [
        "Ġk",
        "n"
      ],
      [
        "Ġ",
        "R"
      ],
      [
        "a",
        "ke"
      ],
      [
        "Ġ",
        "8"
      ],
      [
        "Ġw",
        "or"
      ],
      [
        "Ġb",
        "ut"
      ],
      [
        "Ġ",
        "Â£"
      ],
      [
        "he",
        "r"
      ],
      [
        "Ġ",
        "out"
      ],
      [
        "t",
        "h"
      ],
      [
        "Ġp",
        "l"
      ],
      [
        "ha",
        "n"
      ],
      [
        "#",
        "&"
      ],
      [
        ";",
        "#&"
      ],
      [
        "e",
        "p"
      ],
      [
        "t",
        "er"
      ],
      [
        "at",
        "e"
      ],
      [
        "Ġa",
        "l"
      ],
      [
        "ou",
        "r"
      ],
      [
        "o",
        "re"
      ],
      [
        "Ġkn",
        "ow"
      ],
      [
        "Ġ",
        "J"
      ],
      [
        "o",
        "l"
      ],
      [
        "a",
        "b"
      ],
      [
        "Ġp",
        "r"
      ],
      [
        "Ġfr",
        "om"
      ],
      [
        "Ġ",
        "."
      ],
      [
        "e",
        "a"
      ],
      [
        "in",
        "e"
      ],
      [
        "u",
        "m"
      ],
      [
        "i",
        "le"
      ],
      [
        "u",
        "s"
      ],
      [
        "ou",
        "ld"
      ],
      [
        ":",
        ")"
      ],
      [
        "Ġw",
        "h"
      ],
      [
        "Ġ0",
        "8"
      ],
      [
        "Ġ",
        "v"
      ],
      [
        "Ġw",
        "hen"
      ],
      [
        "e",
        "l"
      ],
      [
        "ĠN",
        "o"
      ],
      [
        "Ġan",
        "y"
      ],
      [
        "Ġ",
        "E"
      ],
      [
        "e",
        "ar"
      ],
      [
        "o",
        "s"
      ],
      [
        "Ġj",
        "ust"
      ],
      [
        "k",
        "ing"
      ],
      [
        "Ġi",
        "f"
      ],
      [
        "i",
        "f"
      ],
      [
        "Ġa",
        "ll"
      ],
      [
        "Ġth",
        "is"
      ],
      [
        "im",
        "e"
      ],
      [
        "Ġli",
        "ke"
      ],
      [
        "es",
        "t"
      ],
      [
        "ic",
        "e"
      ],
      [
        "'",
        "ll"
      ],
      [
        "Ġa",
        "b"
      ],
      [
        "i",
        "ve"
      ],
      [
        "Ġd",
        "ay"
      ],
      [
        "Ġg",
        "ot"
      ],
      [
        "ver",
        "y"
      ],
      [
        "E",
        "E"
      ],
      [
        "Ġa",
        "m"
      ],
      [
        "ĠH",
        "e"
      ],
      [
        "Ġw",
        "ant"
      ],
      [
        "ĠH",
        "a"
      ],
      [
        "e",
        "nd"
      ],
      [
        "Ġw",
        "as"
      ],
      [
        "re",
        "e"
      ],
      [
        "Ġc",
        "ome"
      ],
      [
        "c",
        "k"
      ],
      [
        "ar",
        "t"
      ],
      [
        "ac",
        "k"
      ],
      [
        "l",
        "a"
      ],
      [
        "Ġthe",
        "re"
      ],
      [
        "in",
        "k"
      ],
      [
        "Ġ",
        "?"
      ],
      [
        "Ġt",
        "ime"
      ],
      [
        "in",
        "d"
      ],
      [
        "Ġc",
        "om"
      ],
      [
        "Ġwe",
        "e"
      ],
      [
        "Ġn",
        "o"
      ],
      [
        "ĠW",
        "e"
      ],
      [
        "ĠC",
        "all"
      ],
      [
        "9",
        "0"
      ],
      [
        "ĠI",
        "t"
      ],
      [
        "u",
        "d"
      ],
      [
        "er",
        "s"
      ],
      [
        "Ġs",
        "ome"
      ],
      [
        "Ġ",
        "3"
      ],
      [
        "a",
        "in"
      ],
      [
        "all",
        "y"
      ],
      [
        "Ġs",
        "p"
      ],
      [
        "Ġs",
        "u"
      ],
      [
        "is",
        "s"
      ],
      [
        "00",
        "0"
      ],
      [
        "a",
        "nd"
      ],
      [
        "ĠO",
        "k"
      ],
      [
        "I",
        "N"
      ],
      [
        "Ġw",
        "hat"
      ],
      [
        "ar",
        "d"
      ],
      [
        "a",
        "re"
      ],
      [
        "Ġf",
        "e"
      ],
      [
        "Ġ",
        "K"
      ],
      [
        "Ġ",
        "Ã"
      ],
      [
        "he",
        "re"
      ],
      [
        "ic",
        "k"
      ],
      [
        "Ġte",
        "xt"
      ],
      [
        "Ġthe",
        "n"
      ],
      [
        "Ġne",
        "ed"
      ],
      [
        "ĠH",
        "ow"
      ],
      [
        "Ġon",
        "ly"
      ],
      [
        "7",
        "1"
      ],
      [
        "o",
        "d"
      ],
      [
        "Ġlo",
        "ve"
      ],
      [
        "it",
        "e"
      ],
      [
        "Ġ",
        "..."
      ],
      [
        "o",
        "y"
      ],
      [
        "Ġse",
        "nd"
      ],
      [
        "Ġb",
        "y"
      ],
      [
        "ob",
        "ile"
      ],
      [
        "Ġl",
        "or"
      ],
      [
        "Ġl",
        "at"
      ],
      [
        "ĠF",
        "R"
      ],
      [
        "s",
        "g"
      ],
      [
        "Ġh",
        "ome"
      ],
      [
        "a",
        "st"
      ],
      [
        "Ġab",
        "out"
      ],
      [
        "is",
        "h"
      ],
      [
        "Ġg",
        "ood"
      ],
      [
        "x",
        "x"
      ],
      [
        "b",
        "er"
      ],
      [
        "e",
        "m"
      ],
      [
        "or",
        "ry"
      ],
      [
        "re",
        "d"
      ],
      [
        "re",
        "at"
      ],
      [
        "Ġon",
        "e"
      ],
      [
        "O",
        "N"
      ],
      [
        "ou",
        "nd"
      ],
      [
        "a",
        "ge"
      ],
      [
        "Ġp",
        "h"
      ],
      [
        "Ġ0",
        "90"
      ],
      [
        "Ġwee",
        "k"
      ],
      [
        "as",
        "e"
      ],
      [
        "Ġgo",
        "ing"
      ],
      [
        "a",
        "it"
      ],
      [
        "Ġc",
        "o"
      ],
      [
        "Ġd",
        "a"
      ],
      [
        "Ġd",
        "id"
      ],
      [
        "am",
        "e"
      ],
      [
        "f",
        "e"
      ],
      [
        "n",
        "ing"
      ],
      [
        "Ġh",
        "ow"
      ],
      [
        "ĠT",
        "he"
      ],
      [
        "ĠD",
        "o"
      ],
      [
        "p",
        "t"
      ],
      [
        "Ġo",
        "k"
      ],
      [
        ":",
        "-"
      ],
      [
        "e",
        "c"
      ],
      [
        "q",
        "u"
      ],
      [
        "u",
        "y"
      ],
      [
        "Ġb",
        "ack"
      ],
      [
        "r",
        "a"
      ],
      [
        "Ġs",
        "m"
      ],
      [
        "Ġa",
        "r"
      ],
      [
        "Ġw",
        "at"
      ],
      [
        "on",
        "g"
      ],
      [
        "Ġth",
        "ink"
      ],
      [
        "Ġse",
        "e"
      ],
      [
        "7",
        "0"
      ],
      [
        "ad",
        "y"
      ],
      [
        "Ġs",
        "a"
      ],
      [
        "Ġst",
        "ill"
      ],
      [
        "i",
        "e"
      ],
      [
        "Ġm",
        "in"
      ],
      [
        "op",
        "e"
      ],
      [
        "Ġre",
        "p"
      ],
      [
        "ĠB",
        "ut"
      ],
      [
        "Ġ",
        "V"
      ],
      [
        "i",
        "g"
      ],
      [
        "v",
        "ing"
      ],
      [
        "Ġs",
        "ay"
      ],
      [
        "Ġof",
        "f"
      ],
      [
        "Ġas",
        "k"
      ],
      [
        "l",
        "s"
      ],
      [
        "re",
        "s"
      ],
      [
        "ĠI",
        "f"
      ],
      [
        "Ġd",
        "on"
      ],
      [
        "Ġhe",
        "r"
      ],
      [
        "r",
        "ow"
      ],
      [
        "Ġa",
        "f"
      ],
      [
        "Ġa",
        "w"
      ],
      [
        "Ġm",
        "u"
      ],
      [
        "Ġ",
        "5"
      ],
      [
        "ac",
        "t"
      ],
      [
        "ĠT",
        "h"
      ],
      [
        "le",
        "ase"
      ],
      [
        "e",
        "ct"
      ],
      [
        "Ġit",
        "s"
      ],
      [
        "ĠFR",
        "EE"
      ],
      [
        "N",
        "T"
      ],
      [
        "Ġ",
        "our"
      ],
      [
        "Ġto",
        "day"
      ],
      [
        "Ġte",
        "ll"
      ],
      [
        "Ġlat",
        "er"
      ],
      [
        "n",
        "a"
      ],
      [
        "ĠT",
        "o"
      ],
      [
        "ri",
        "end"
      ],
      [
        "or",
        "t"
      ],
      [
        "Ġf",
        "ree"
      ],
      [
        "ĠW",
        "hat"
      ],
      [
        "Ġ",
        "\""
      ],
      [
        "Ġ",
        "*"
      ],
      [
        "u",
        "b"
      ],
      [
        "Ġm",
        "a"
      ],
      [
        "Ġto",
        "o"
      ],
      [
        "Ġbe",
        "en"
      ],
      [
        "!",
        "!"
      ],
      [
        "o",
        "st"
      ],
      [
        "Ġu",
        "s"
      ],
      [
        "ĠS",
        "o"
      ],
      [
        "ac",
        "e"
      ],
      [
        "h",
        "ing"
      ],
      [
        "Ġha",
        "s"
      ],
      [
        "Ġha",
        "pp"
      ],
      [
        "Ġme",
        "et"
      ],
      [
        "A",
        "T"
      ],
      [
        "k",
        "s"
      ],
      [
        "at",
        "ion"
      ],
      [
        "Ġe",
        "very"
      ],
      [
        "ri",
        "ght"
      ],
      [
        "ĠJ",
        "ust"
      ],
      [
        "ĠÃ",
        "¼"
      ],
      [
        "A",
        "L"
      ],
      [
        "la",
        "im"
      ],
      [
        "E",
        "R"
      ],
      [
        "i",
        "a"
      ],
      [
        "w",
        "w"
      ],
      [
        "Ġwh",
        "o"
      ],
      [
        "Ġhe",
        "re"
      ],
      [
        "m",
        "m"
      ],
      [
        "s",
        "o"
      ],
      [
        "am",
        "p"
      ],
      [
        "f",
        "f"
      ],
      [
        "Ġ",
        "6"
      ],
      [
        "Ġs",
        "he"
      ],
      [
        "ĠS",
        "orry"
      ],
      [
        "Ġ08",
        "71"
      ],
      [
        "Ġph",
        "one"
      ],
      [
        "z",
        "e"
      ],
      [
        "Ġm",
        "ess"
      ],
      [
        "id",
        "e"
      ],
      [
        "Ġ1",
        "50"
      ],
      [
        "m",
        "or"
      ],
      [
        "Ġm",
        "iss"
      ],
      [
        "Ġc",
        "l"
      ],
      [
        "Ġn",
        "ight"
      ],
      [
        "Ġth",
        "ing"
      ],
      [
        "Ġw",
        "on"
      ],
      [
        "Ġe",
        "x"
      ],
      [
        "Ġne",
        "w"
      ],
      [
        "O",
        "R"
      ],
      [
        "u",
        "l"
      ],
      [
        "Ġn",
        "um"
      ],
      [
        "Ġh",
        "im"
      ],
      [
        "th",
        "ing"
      ],
      [
        "Ġm",
        "obile"
      ],
      [
        "Ġl",
        "e"
      ],
      [
        "ĠYou",
        "r"
      ],
      [
        "..",
        ".."
      ],
      [
        "Ġu",
        "n"
      ],
      [
        "oo",
        "k"
      ],
      [
        ":-",
        ")"
      ],
      [
        "6",
        "6"
      ],
      [
        "O",
        "U"
      ],
      [
        "Ġmu",
        "ch"
      ],
      [
        "l",
        "f"
      ],
      [
        "Ġf",
        "riend"
      ],
      [
        "ĠM",
        "y"
      ],
      [
        "Ġwor",
        "k"
      ],
      [
        "Ġ",
        "qu"
      ],
      [
        "Ġt",
        "xt"
      ],
      [
        "Ġt",
        "ake"
      ],
      [
        "Ġd",
        "ont"
      ],
      [
        "V",
        "E"
      ],
      [
        "Ġ",
        "-"
      ],
      [
        "Ġw",
        "ait"
      ],
      [
        "Ġc",
        "ont"
      ],
      [
        "ĠN",
        "O"
      ],
      [
        "c",
        "o"
      ],
      [
        "h",
        "i"
      ],
      [
        "Ġt",
        "r"
      ],
      [
        "Ġrep",
        "ly"
      ],
      [
        "Ġw",
        "ay"
      ],
      [
        "as",
        "s"
      ],
      [
        "a",
        "u"
      ],
      [
        "o",
        "ve"
      ],
      [
        "w",
        "e"
      ],
      [
        "Ġm",
        "an"
      ],
      [
        "Ġg",
        "ive"
      ],
      [
        "Ġthe",
        "y"
      ],
      [
        "ĠH",
        "i"
      ],
      [
        "Ġa",
        "d"
      ],
      [
        "Ġb",
        "r"
      ],
      [
        "ĠS",
        "t"
      ],
      [
        "ĠA",
        "nd"
      ],
      [
        "a",
        "g"
      ],
      [
        "ĠHe",
        "y"
      ],
      [
        "Ġd",
        "e"
      ],
      [
        "Ġl",
        "ea"
      ],
      [
        "ow",
        "n"
      ],
      [
        "t",
        "ing"
      ],
      [
        "w",
        "ay"
      ],
      [
        "Ġm",
        "ore"
      ],
      [
        "Ġaf",
        "ter"
      ],
      [
        "c",
        "c"
      ],
      [
        "ĠHa",
        "ve"
      ],
      [
        "3",
        "0"
      ],
      [
        "Ġg",
        "reat"
      ],
      [
        "ĠG",
        "ood"
      ],
      [
        "o",
        "x"
      ],
      [
        "ĠC",
        "an"
      ],
      [
        "Ġe",
        "ve"
      ],
      [
        "as",
        "h"
      ],
      [
        "2",
        "0"
      ],
      [
        "u",
        "p"
      ],
      [
        "Ġt",
        "on"
      ],
      [
        "re",
        "ady"
      ],
      [
        "Ġc",
        "on"
      ],
      [
        "Ġf",
        "in"
      ],
      [
        "ri",
        "ze"
      ],
      [
        "Ġcom",
        "p"
      ],
      [
        "Ġfe",
        "el"
      ],
      [
        "'",
        "ve"
      ],
      [
        "a",
        "p"
      ],
      [
        "Ġ",
        "7"
      ],
      [
        "Ġt",
        "han"
      ],
      [
        "Ġa",
        "g"
      ],
      [
        "Ġm",
        "ake"
      ],
      [
        "mor",
        "row"
      ],
      [
        "Ġnum",
        "ber"
      ],
      [
        "'",
        "re"
      ],
      [
        "A",
        "R"
      ],
      [
        "Ġ",
        "right"
      ],
      [
        "Ġw",
        "an"
      ],
      [
        "ĠT",
        "han"
      ],
      [
        "ĠS",
        "T"
      ],
      [
        "ĠP",
        "O"
      ],
      [
        "a",
        "k"
      ],
      [
        "c",
        "om"
      ],
      [
        "Ġ",
        "en"
      ],
      [
        "le",
        "ep"
      ],
      [
        "Ġr",
        "o"
      ],
      [
        "Ġal",
        "ready"
      ],
      [
        "Ġpr",
        "ob"
      ],
      [
        "I",
        "T"
      ],
      [
        "a",
        "il"
      ],
      [
        "Ġ",
        "ke"
      ],
      [
        "Ġt",
        "ry"
      ],
      [
        "Ġm",
        "sg"
      ],
      [
        "O",
        "P"
      ],
      [
        "om",
        "et"
      ],
      [
        "Ġs",
        "er"
      ],
      [
        "Ġto",
        "morrow"
      ],
      [
        "Ġst",
        "op"
      ],
      [
        "Ġdo",
        "ing"
      ],
      [
        "i",
        "st"
      ],
      [
        "ou",
        "gh"
      ],
      [
        "Ġi",
        "m"
      ],
      [
        "Ġb",
        "ab"
      ],
      [
        "Ġthe",
        "m"
      ],
      [
        "ĠT",
        "hat"
      ],
      [
        "ea",
        "h"
      ],
      [
        "Ġmess",
        "age"
      ],
      [
        "X",
        "X"
      ],
      [
        "Ġw",
        "ww"
      ],
      [
        "ĠT",
        "e"
      ],
      [
        "Ġsh",
        "ould"
      ],
      [
        "d",
        "er"
      ],
      [
        "t",
        "her"
      ],
      [
        "ĠU",
        "R"
      ],
      [
        "1",
        "0"
      ],
      [
        "b",
        "e"
      ],
      [
        "n",
        "y"
      ],
      [
        "Ġc",
        "he"
      ],
      [
        "Ġc",
        "are"
      ],
      [
        "Ġsa",
        "id"
      ],
      [
        "ĠT",
        "H"
      ],
      [
        "ĠT",
        "xt"
      ],
      [
        "Ġha",
        "d"
      ],
      [
        "oo",
        "l"
      ],
      [
        "Ġsh",
        "ow"
      ],
      [
        "i",
        "al"
      ],
      [
        "u",
        "ck"
      ],
      [
        "Ġc",
        "laim"
      ],
      [
        "ĠA",
        "re"
      ],
      [
        "2",
        "2"
      ],
      [
        "4",
        "0"
      ],
      [
        "n",
        "o"
      ],
      [
        "u",
        "e"
      ],
      [
        "Ġp",
        "er"
      ],
      [
        "e",
        "e"
      ],
      [
        "o",
        "in"
      ],
      [
        "Ġd",
        "r"
      ],
      [
        "ĠO",
        "h"
      ],
      [
        "ha",
        "r"
      ],
      [
        "or",
        "ning"
      ],
      [
        "ĠU",
        "r"
      ],
      [
        "ĠTh",
        "is"
      ],
      [
        "E",
        "S"
      ],
      [
        "N",
        "D"
      ],
      [
        "Ġ",
        "("
      ],
      [
        "ou",
        "nt"
      ],
      [
        "Ġs",
        "leep"
      ],
      [
        "Ġs",
        "omet"
      ],
      [
        "Ġp",
        "ick"
      ],
      [
        "ĠN",
        "ot"
      ],
      [
        "Ġa",
        "pp"
      ],
      [
        "ac",
        "h"
      ],
      [
        "Ġw",
        "ould"
      ],
      [
        "Ġb",
        "l"
      ],
      [
        "Ġb",
        "et"
      ],
      [
        "Ġl",
        "et"
      ],
      [
        "ot",
        "her"
      ],
      [
        "Ġre",
        "ally"
      ],
      [
        "ĠG",
        "O"
      ],
      [
        "Ġcont",
        "act"
      ],
      [
        "8",
        "0"
      ],
      [
        "G",
        "E"
      ],
      [
        "Ġd",
        "own"
      ],
      [
        "Ġp",
        "rize"
      ],
      [
        "ĠY",
        "es"
      ],
      [
        "g",
        "et"
      ],
      [
        "l",
        "p"
      ],
      [
        "Ġw",
        "here"
      ],
      [
        "Ġc",
        "ash"
      ],
      [
        "Ġb",
        "uy"
      ],
      [
        "ar",
        "y"
      ],
      [
        "al",
        "k"
      ],
      [
        "ĠIt",
        "s"
      ],
      [
        "e",
        "w"
      ],
      [
        "Ġd",
        "ear"
      ],
      [
        "an",
        "s"
      ],
      [
        "one",
        "y"
      ],
      [
        "Ġco",
        "ll"
      ],
      [
        "ou",
        "s"
      ],
      [
        "Ġg",
        "u"
      ],
      [
        "ĠO",
        "r"
      ],
      [
        "ĠP",
        "ls"
      ],
      [
        "â",
        "Ģ"
      ],
      [
        "Ġ",
        ":)"
      ],
      [
        "Ġ",
        "very"
      ],
      [
        "Ġs",
        "ent"
      ],
      [
        "Ġwe",
        "ll"
      ],
      [
        "Ġli",
        "fe"
      ],
      [
        "Ġsu",
        "re"
      ],
      [
        "Ġag",
        "ain"
      ],
      [
        "n",
        "er"
      ],
      [
        "Ġc",
        "ar"
      ],
      [
        "Ġf",
        "ind"
      ],
      [
        "ĠY",
        "OU"
      ],
      [
        "ĠO",
        "n"
      ],
      [
        "res",
        "s"
      ],
      [
        "1",
        "50"
      ],
      [
        "A",
        "S"
      ],
      [
        "L",
        "L"
      ],
      [
        "v",
        "ice"
      ],
      [
        "it",
        "y"
      ],
      [
        "ic",
        "h"
      ],
      [
        "Ġbe",
        "f"
      ],
      [
        "ĠST",
        "OP"
      ],
      [
        "8",
        "8"
      ],
      [
        "u",
        "k"
      ],
      [
        "ĠP",
        "lease"
      ],
      [
        "Ġke",
        "ep"
      ],
      [
        "i",
        "es"
      ],
      [
        "l",
        "ine"
      ],
      [
        "m",
        "ent"
      ],
      [
        "o",
        "se"
      ],
      [
        "u",
        "ff"
      ],
      [
        "Ġm",
        "orning"
      ],
      [
        "Ġc",
        "h"
      ],
      [
        "Ġe",
        "nd"
      ],
      [
        "ust",
        "om"
      ],
      [
        "Ġaw",
        "ard"
      ],
      [
        "t",
        "s"
      ],
      [
        "u",
        "re"
      ],
      [
        "Ġc",
        "ould"
      ],
      [
        "Ġd",
        "is"
      ],
      [
        "Ġo",
        "ver"
      ],
      [
        "Ġo",
        "ther"
      ],
      [
        "Ġst",
        "art"
      ],
      [
        "ir",
        "st"
      ],
      [
        "ers",
        "on"
      ],
      [
        "Ġsp",
        "ec"
      ],
      [
        "Ġ090",
        "6"
      ],
      [
        "Ġsomet",
        "hing"
      ],
      [
        "4",
        "5"
      ],
      [
        "A",
        "N"
      ],
      [
        "I",
        "S"
      ],
      [
        "Ġ",
        "ent"
      ],
      [
        "Ġin",
        "t"
      ],
      [
        "Ġany",
        "thing"
      ],
      [
        "Ġlea",
        "ve"
      ],
      [
        "Ġbef",
        "ore"
      ],
      [
        "2",
        "3"
      ],
      [
        "I",
        "M"
      ],
      [
        "Ġw",
        "in"
      ],
      [
        "Ġc",
        "han"
      ],
      [
        "Ġl",
        "ast"
      ],
      [
        "Ġg",
        "on"
      ],
      [
        "Ġg",
        "uy"
      ],
      [
        "id",
        "ay"
      ],
      [
        "ĠF",
        "ree"
      ],
      [
        "Ġpl",
        "ay"
      ],
      [
        "ab",
        "le"
      ],
      [
        "Ġar",
        "ound"
      ],
      [
        "ou",
        "ght"
      ],
      [
        "Ġd",
        "at"
      ],
      [
        "Ġd",
        "un"
      ],
      [
        "Ġl",
        "ate"
      ],
      [
        "Ġh",
        "ope"
      ],
      [
        "Ġre",
        "m"
      ],
      [
        "Ġpl",
        "ace"
      ],
      [
        "IN",
        "G"
      ],
      [
        "way",
        "s"
      ],
      [
        "b",
        "le"
      ],
      [
        "Ġ",
        "!"
      ],
      [
        "Ġy",
        "ear"
      ],
      [
        "Ġp",
        "lease"
      ],
      [
        "ĠS",
        "he"
      ],
      [
        "ĠL",
        "ol"
      ],
      [
        "Ġne",
        "xt"
      ],
      [
        "Ġso",
        "on"
      ],
      [
        "Ġwor",
        "d"
      ],
      [
        "Ġton",
        "ight"
      ],
      [
        "ustom",
        "er"
      ],
      [
        "Ġm",
        "ay"
      ],
      [
        "Ġl",
        "ot"
      ],
      [
        "ĠT",
        "hen"
      ],
      [
        "ĠW",
        "h"
      ],
      [
        "Ġe",
        "ar"
      ],
      [
        "au",
        "se"
      ],
      [
        "1",
        "8"
      ],
      [
        "k",
        "ia"
      ],
      [
        "ĠI",
        "s"
      ],
      [
        "or",
        "m"
      ],
      [
        "ĠD",
        "ear"
      ],
      [
        "Ġ1",
        "6"
      ],
      [
        "Ġcan",
        "t"
      ],
      [
        "Ġfriend",
        "s"
      ],
      [
        "Ġgon",
        "na"
      ],
      [
        "1",
        "2"
      ],
      [
        "r",
        "s"
      ],
      [
        "Ġ",
        "'"
      ],
      [
        "re",
        "n"
      ],
      [
        "Ġm",
        "oney"
      ],
      [
        "Ġc",
        "os"
      ],
      [
        "ĠY",
        "eah"
      ],
      [
        "Ġ1",
        "0"
      ],
      [
        "ont",
        "h"
      ],
      [
        "Ġal",
        "so"
      ],
      [
        "f",
        "t"
      ],
      [
        "i",
        "z"
      ],
      [
        "Ġ",
        "9"
      ],
      [
        "Ġ",
        "X"
      ],
      [
        "Ġ",
        "x"
      ],
      [
        "Ġa",
        "cc"
      ],
      [
        "Ġc",
        "har"
      ],
      [
        "ĠI",
        "n"
      ],
      [
        "Ġp",
        "e"
      ],
      [
        "ĠW",
        "hen"
      ],
      [
        "pp",
        "y"
      ],
      [
        "Ġwat",
        "ch"
      ],
      [
        "7",
        "7"
      ],
      [
        "C",
        "s"
      ],
      [
        "O",
        "M"
      ],
      [
        "o",
        "v"
      ],
      [
        "u",
        "ll"
      ],
      [
        "Ġw",
        "ent"
      ],
      [
        "Ġto",
        "ld"
      ],
      [
        "Ġwe",
        "re"
      ],
      [
        "ad",
        "e"
      ],
      [
        "Ġpl",
        "an"
      ],
      [
        "Ġman",
        "y"
      ],
      [
        "*",
        "*"
      ],
      [
        "A",
        "Y"
      ],
      [
        "a",
        "v"
      ],
      [
        "m",
        "in"
      ],
      [
        "ĠW",
        "at"
      ],
      [
        "Ġh",
        "is"
      ],
      [
        "ĠD",
        "id"
      ],
      [
        "ep",
        "ly"
      ],
      [
        "if",
        "e"
      ],
      [
        "ĠÃ",
        "ľ"
      ],
      [
        "Ġmin",
        "ut"
      ],
[...]
