{
  "version": "1.0",
  "truncation": null,
  "padding": {
    "strategy": "BatchLongest",
    "direction": "Right",
    "pad_to_multiple_of": null,
    "pad_id": 2,
    "pad_type_id": 0,
    "pad_token": "[pad]"
  },
  "added_tokens": [
    {
      "id": 0,
      "content": "[start]",
      "single_word": false,
      "lstrip": false,
      "rstrip": false,
      "normalized": false,
      "special": true
    },
    {
      "id": 1,
      "content": "[end]",
      "single_word": false,
      "lstrip": false,
      "rstrip": false,
      "normalized": false,
      "special": true
    },
    {
      "id": 2,
      "content": "[pad]",
      "single_word": false,
      "lstrip": false,
      "rstrip": false,
      "normalized": false,
      "special": true
    }
  ],
  "normalizer": null,
  "pre_tokenizer": {
    "type": "ByteLevel",
    "add_prefix_space": true,
    "trim_offsets": true,
    "use_regex": true
  },
  "post_processor": null,
  "decoder": {
    "type": "ByteLevel",
    "add_prefix_space": true,
    "trim_offsets": true,
    "use_regex": true
  },
  "model": {
    "type": "BPE",
    "dropout": null,
    "unk_token": null,
    "continuing_subword_prefix": null,
    "end_of_word_suffix": null,
    "fuse_unk": false,
    "byte_fallback": false,
    "ignore_merges": false,
    "vocab": {
      "[start]": 0,
      "[end]": 1,
      "[pad]": 2,
      "!": 3,
      "\"": 4,
      "$": 5,
      "%": 6,
      "&": 7,
      "'": 8,
      "+": 9,
      ",": 10,
      "-": 11,
      ".": 12,
      "/": 13,
      "0": 14,
      "1": 15,
      "2": 16,
      "3": 17,
      "4": 18,
      "5": 19,
      "6": 20,
      "7": 21,
      "8": 22,
      "9": 23,
      ":": 24,
      ";": 25,
      "?": 26,
      "a": 27,
      "b": 28,
      "c": 29,
      "d": 30,
      "e": 31,
      "f": 32,
      "g": 33,
      "h": 34,
      "i": 35,
      "j": 36,
      "k": 37,
      "l": 38,
      "m": 39,
      "n": 40,
      "o": 41,
      "p": 42,
      "q": 43,
      "r": 44,
      "s": 45,
      "t": 46,
      "u": 47,
      "v": 48,
      "w": 49,
      "x": 50,
      "y": 51,
      "z": 52,
      "§": 53,
      "©": 54,
      "¬": 55,
      "°": 56,
      "¶": 57,
      "º": 58,
      "Â": 59,
      "Ã": 60,
      "Ð": 61,
      "â": 62,
      "Ġ": 63,
      "Ģ": 64,
      "Ĥ": 65,
      "ĵ": 66,
      "Ķ": 67,
      "ĺ": 68,
      "Ļ": 69,
      "Ń": 70,
      "Ġt": 71,
      "Ġi": 72,
      "he": 73,
      "ou": 74,
      "Ġa": 75,
      "Ġw": 76,
      "re": 77,
      "Ġs": 78,
      "Ġy": 79,
      "Ġto": 80,
      "Ġyou": 81,
      "ha": 82,
      "in": 83,
      "Ġd": 84,
      "Ġm": 85,
      "Ġthe": 86,
      "on": 87,
      "Ġb": 88,
      "ve": 89,
      "Ġc": 90,
      "Ġf": 91,
      "Ġl": 92,
      "ing": 93,
      "an": 94,
      "ed": 95,
      "is": 96,
      "ll": 97,
      "Ġhe": 98,
      "or": 99,
      "hat": 100,
      "Ġn": 101,
      "Ġg": 102,
      "en": 103,
      "Ġp": 104,
      "'t": 105,
      "er": 106,
      "Ġha": 107,
      "Ġh": 108,
      "Ġth": 109,
      "Ġo": 110,
      "as": 111,
      "Ġis": 112,
      "Ġdo": 113,
      "ar": 114,
      "ow": 115,
      "Ġbe": 116,
      "me": 117,
      "it": 118,
      "Ġwe": 119,
      "ot": 120,
      "Ġtom": 121,
      "at": 122,
      "es": 123,
      "Ġit": 124,
      "Ġthat": 125,
      "Ġin": 126,
      "ay": 127,
      "Ġof": 128,
      "id": 129,
      "ld": 130,
      "le": 131,
      "Ġe": 132,
      "ke": 133,
      "Ġme": 134,
      "'s": 135,
      "us": 136,
      "Ġan": 137,
      "ver": 138,
      "oo": 139,
      "Ġdon": 140,
      "Ġthis": 141,
      "et": 142,
      "Ġhave": 143,
      "Ġwas": 144,
      "Ġon": 145,
      "Ġre": 146,
      "gh": 147,
      "Ġst": 148,
      "Ġli": 149,
      "Ġfor": 150,
      "ic": 151,
      "Ġk": 152,
      "ant": 153,
      "ome": 154,
      "Ġwhat": 155,
      "Ġmy": 156,
      "Ġare": 157,
      "Ġcan": 158,
      "Ġyour": 159,
      "ould": 160,
      "Ġwant": 161,
      "ri": 162,
      "Ġne": 163,
      "ght": 164,
      "Ġdid": 165,
      "'m": 166,
      "Ġnot": 167,
      "al": 168,
      "ch": 169,
      "out": 170,
      "st": 171,
      "Ġgo": 172,
      "Ġkn": 173,
      "ro": 174,
      "Ġshe": 175,
      "ad": 176,
      "'re": 177,
      "se": 178,
      "Ġwh": 179,
      "un": 180,
      "Ġknow": 181,
      "ent": 182,
      "ly": 183,
      "very": 184,
      "ith": 185,
      "Ġwith": 186,
      "th": 187,
      "her": 188,
      "ter": 189,
      "Ġlike": 190,
      "im": 191,
      "Ġj": 192,
      "pp": 193,
      "all": 194,
      "ee": 195,
      "one": 196,
      "ink": 197,
      "ion": 198,
      "Ġat": 199,
      "ac": 200,
      "Ġas": 201,
      "ill": 202,
      "Ġsh": 203,
      "Ġr": 204,
      "Ġthey": 205,
      "ust": 206,
      "ut": 207,
      "Ġall": 208,
      "Ġsu": 209,
      "Ġhis": 210,
      "ir": 211,
      "ook": 212,
      "Ġti": 213,
      "Ġab": 214,
      "Ġte": 215,
      "Ġwhe": 216,
      "ain": 217,
      "Ġsome": 218,
      "Ġhow": 219,
      "Ġthink": 220,
      "Ġhim": 221,
      "ake": 222,
      "Ġany": 223,
      "Ġco": 224,
      "ore": 225,
      "Ġtr": 226,
      "Ġwor": 227,
      "ce": 228,
      "thing": 229,
      "Ġthere": 230,
      "end": 231,
      "Ġso": 232,
      "Ġget": 233,
      "Ġtime": 234,
      "'ll": 235,
      "Ġal": 236,
      "up": 237,
      "Ġus": 238,
      "Ġand": 239,
      "Ġno": 240,
      "ur": 241,
      "ood": 242,
      "'ve": 243,
      "Ġabout": 244,
      "pe": 245,
      "Ġhere": 246,
      "ak": 247,
      "ct": 248,
      "Ġle": 249,
      "Ġwere": 250,
      "Ġvery": 251,
      "Ġsa": 252,
      "Ġher": 253,
      "han": 254,
      "Ġsee": 255,
      "Ġdidn": 256,
      "Ġout": 257,
      "mp": 258,
      "ong": 259,
      "Ġwill": 260,
      "ally": 261,
      "ive": 262,
      "Ġmar": 263,
      "ind": 264,
      "Ġup": 265,
      "red": 266,
      "Ġhad": 267,
      "Ġwould": 268,
      "ble": 269,
      "Ġevery": 270,
      "Ġex": 271,
      "ul": 272,
      "Ġpl": 273,
      "Ġhas": 274,
      "Ġif": 275,
      "Ġhapp": 276,
      "ight": 277,
      "Ġlo": 278,
      "Ġun": 279,
      "Ġneed": 280,
      "Ġone": 281,
      "Ġwhy": 282,
      "Ġjust": 283,
      "ren": 284,
      "ry": 285,
      "ge": 286,
      "Ġca": 287,
      "Ġlet": 288,
      "alk": 289,
      "nd": 290,
      "day": 291,
      "Ġlook": 292,
      "Ġwho": 293,
      "op": 294,
      "rom": 295,
      "Ġcould": 296,
      "Ġshould": 297,
      "ast": 298,
      "Ġgoing": 299,
      "il": 300,
      "ase": 301,
      "Ġde": 302,
      "Ġgood": 303,
      "'d": 304,
      "Ġtell": 305,
      "ate": 306,
      "Ġhel": 307,
      "qu": 308,
      "Ġhelp": 309,
      "Ġcome": 310,
      "and": 311,
      "ist": 312,
      "Ġdoes": 313,
      "art": 314,
      "our": 315,
      "Ġtoo": 316,
      "ie": 317,
      "Ġmary": 318,
      "Ġen": 319,
      "Ġwork": 320,
      "fe": 321,
      "Ġman": 322,
      "Ġse": 323,
      "ice": 324,
      "der": 325,
      "Ġple": 326,
      "Ġch": 327,
      "Ġwhen": 328,
      "ess": 329,
      "ought": 330,
      "ss": 331,
      "Ġthan": 332,
      "Ġfrom": 333,
      "ave": 334,
      "Ġby": 335,
      "Ġreally": 336,
      "Ġwhere": 337,
      "Ġam": 338,
      "est": 339,
      "Ġcon": 340,
      "dy": 341,
      "Ġag": 342,
      "am": 343,
      "Ġplease": 344,
      "lf": 345,
      "Ġbo": 346,
      "ays": 347,
      "Ġtalk": 348,
      "Ġpro": 349,
      "ack": 350,
      "ish": 351,
      "riend": 352,
      "ation": 353,
      "ep": 354,
      "Ġbeen": 355,
      "Ġnow": 356,
      "Ġqu": 357,
      "Ġnever": 358,
      "Ġmore": 359,
      "ous": 360,
      "Ġtake": 361,
      "other": 362,
      "Ġgot": 363,
      "ck": 364,
      "Ġri": 365,
      "ol": 366,
      "Ġaf": 367,
      "if": 368,
      "ers": 369,
      "Ġcar": 370,
      "ig": 371,
      "Ġsomething": 372,
      "Ġmo": 373,
      "ree": 374,
      "Ġint": 375,
      "wn": 376,
      "Ġask": 377,
      "row": 378,
      "Ġwr": 379,
      "Ġar": 380,
      "Ġcl": 381,
      "ound": 382,
      "Ġsp": 383,
      "Ġhome": 384,
      "Ġmu": 385,
      "Ġhappen": 386,
      "Ġbut": 387,
      "ort": 388,
      "Ġeat": 389,
      "Ġv": 390,
      "Ġmuch": 391,
      "Ġmake": 392,
      "ine": 393,
      "Ġsay": 394,
      "Ġfriend": 395,
      "Ġread": 396,
      "ap": 397,
      "ather": 398,
      "mb": 399,
      "Ġoff": 400,
      "Ġright": 401,
      "Ġjo": 402,
      "Ġpre": 403,
      "Ġfe": 404,
      "Ġwon": 405,
      "ard": 406,
      "ite": 407,
      "eel": 408,
      "Ġlove": 409,
      "Ġlong": 410,
      "Ġspe": 411,
      "Ġgive": 412,
      "oney": 413,
      "itt": 414,
      "Ġfeel": 415,
      "Ġke": 416,
      "Ġmoney": 417,
      "Ġbook": 418,
      "Ġnew": 419,
      "self": 420,
      "bo": 421,
      "Ġlast": 422,
      "ning": 423,
      "Ġpe": 424,
      "Ġbus": 425,
      "Ġbr": 426,
      "Ġthought": 427,
      "Ġbet": 428,
      "Ġback": 429,
      "Ġad": 430,
      "Ġstu": 431,
      "Ġdr": 432,
      "Ġmad": 433,
      "Ġsure": 434,
      "Ġho": 435,
      "Ġwat": 436,
      "ame": 437,
      "Ġanything": 438,
      "Ġbu": 439,
      "Ġbel": 440,
      "ough": 441,
      "Ġday": 442,
      "Ġthing": 443,
      "body": 444,
      "Ġor": 445,
      "ild": 446,
      "Ġdoesn": 447,
      "ear": 448,
      "ool": 449,
      "ried": 450,
      "ass": 451,
      "ure": 452,
      "ag": 453,
      "Ġlot": 454,
      "Ġour": 455,
      "hed": 456,
      "Ġtold": 457,
      "oom": 458,
      "Ġpeop": 459,
      "Ġpeople": 460,
      "Ġac": 461,
      "Ġagain": 462,
      "Ġmust": 463,
      "Ġpo": 464,
      "ick": 465,
      "de": 466,
      "ieve": 467,
      "Ġspeak": 468,
      "Ġunder": 469,
      "Ġmade": 470,
      "ts": 471,
      "Ġmay": 472,
      "ide": 473,
      "Ġway": 474,
      "Ġcomp": 475,
      "Ġstay": 476,
      "Ġold": 477,
      "Ġlive": 478,
      "Ġcall": 479,
      "Ġmany": 480,
      "Ġsaid": 481,
      "Ġcare": 482,
      "Ġsm": 483,
      "ouse": 484,
      "Ġtry": 485,
      "ving": 486,
      "Ġtw": 487,
      "Ġtoday": 488,
      "Ġbelieve": 489,
      "Ġhar": 490,
      "Ġwent": 491,
      "nt": 492,
      "Ġleave": 493,
      "ther": 494,
      "Ġyear": 495,
      "Ġstill": 496,
      "Ġpr": 497,
      "ait": 498,
      "ways": 499,
      "Ġonly": 500,
      "Ġhouse": 501,
      "Ġalways": 502,
      "Ġbetter": 503,
      "Ġhappy": 504,
      "Ġdoing": 505,
      "rench": 506,
      "Ġfrench": 507,
      "ach": 508,
      "urn": 509,
      "orrow": 510,
      "Ġgu": 511,
      "ra": 512,
      "Ġthem": 513,
      "Ġchild": 514,
      "Ġwait": 515,
      "Ġplay": 516,
      "Ġover": 517,
      "Ġroom": 518,
      "Ġaw": 519,
      "Ġisn": 520,
      "ft": 521,
      "os": 522,
      "Ġafter": 523,
      "Ġdis": 524,
      "Ġjob": 525,
      "fore": 526,
      "age": 527,
      "ose": 528,
      "Ġapp": 529,
      "Ġnight": 530,
      "ue": 531,
      "Ġbefore": 532,
      "Ġsch": 533,
      "ty": 534,
      "Ġschool": 535,
      "ress": 536,
      "Ġhand": 537,
      "mber": 538,
      "ace": 539,
      "Ġdown": 540,
      "om": 541,
      "ment": 542,
      "Ġwell": 543,
      "able": 544,
      "Ġexp": 545,
      "ittle": 546,
      "Ġlittle": 547,
      "Ġop": 548,
      "Ġpart": 549,
      "Ġyes": 550,
      "iss": 551,
      "Ġbl": 552,
      "Ġfather": 553,
      "ting": 554,
      "blem": 555,
      "Ġproblem": 556,
      "Ġunderst": 557,
      "iz": 558,
      "get": 559,
      "Ġeverything": 560,
      "Ġchan": 561,
      "Ġdog": 562,
      "hing": 563,
      "ity": 564,
      "ful": 565,
      "Ġear": 566,
      "Ġput": 567,
      "Ġbec": 568,
      "ff": 569,
      "reat": 570,
      "Ġwanted": 571,
      "Ġsw": 572,
      "terday": 573,
      "Ġplan": 574,
      "Ġyesterday": 575,
      "leep": 576,
      "Ġhard": 577,
      "Ġfind": 578,
      "Ġtomorrow": 579,
      "Ġfa": 580,
      "ise": 581,
      "Ġkeep": 582,
      "ang": 583,
      "Ġleft": 584,
      "Ġother": 585,
      "Ġpa": 586,
      "Ġalone": 587,
      "Ġhappened": 588,
      "Ġsc": 589,
      "Ġfin": 590,
      "ek": 591,
      "Ġunderstand": 592,
      "Ġtwo": 593,
      "Ġgl": 594,
      "Ġthree": 595,
      "Ġimp": 596,
      "Ġhur": 597,
      "Ġseem": 598,
      "ved": 599,
      "xt": 600,
      "use": 601,
      "pt": 602,
      "Ġbuy": 603,
      "Ġstop": 604,
      "Ġmeet": 605,
      "Ġdrink": 606,
      "ven": 607,
      "Ġweek": 608,
      "ies": 609,
      "Ġenough": 610,
      "ied": 611,
      "Ġfl": 612,
      "Ġcom": 613,
      "Ġasked": 614,
      "Ġacc": 615,
      "act": 616,
      "ised": 617,
      "Ġfriends": 618,
      "Ġthese": 619,
      "ict": 620,
      "Ġsaw": 621,
      "ab": 622,
      "Ġdif": 623,
      "estion": 624,
      "Ġinto": 625,
      "rest": 626,
      "ious": 627,
      "Ġdone": 628,
      "Ġstart": 629,
      "Ġever": 630,
      "Ġshow": 631,
      "Ġla": 632,
      "read": 633,
      "ount": 634,
      "Ġide": 635,
      "Ġnothing": 636,
      "Ġquestion": 637,
      "Ġsor": 638,
      "ile": 639,
      "Ġnext": 640,
      "Ġsorry": 641,
      "Ġhope": 642,
      "ire": 643,
      "Ġturn": 644,
      "Ġdoor": 645,
      "Ġsur": 646,
      "Ġcat": 647,
      "irst": 648,
      "ary": 649,
      "Ġhear": 650,
      "Ġres": 651,
      "Ġeng": 652,
      "akes": 653,
      "Ġlate": 654,
      "Ġgir": 655,
      "ated": 656,
      "ten": 657,
      "Ġwalk": 658,
      "Ġbusy": 659,
      "Ġaway": 660,
      "Ġhat": 661,
      "Ġadv": 662,
      "Ġwrong": 663,
      "Ġreme": 664,
      "Ġlife": 665,
      "Ġsleep": 666,
      "Ġdec": 667,
      "Ġkind": 668,
      "Ġfun": 669,
      "pect": 670,
      "Ġmother": 671,
      "ng": 672,
      "Ġteac": 673,
      "Ġmat": 674,
      "Ġfirst": 675,
      "ence": 676,
      "Ġeveryone": 677,
      "ult": 678,
      "Ġthings": 679,
      "ich": 680,
      "Ġgr": 681,
      "ston": 682,
      "arn": 683,
      "sw": 684,
      "Ġansw": 685,
      "Ġname": 686,
      "Ġremember": 687,
      "ark": 688,
      "Ġwatch": 689,
      "Ġche": 690,
      "Ġopen": 691,
      "ew": 692,
      "ance": 693,
      "Ġanyone": 694,
      "Ġidea": 695,
      "Ġwasn": 696,
      "Ġboston": 697,
      "Ġteacher": 698,
      "Ġsoon": 699,
      "ted": 700,
      "ught": 701,
      "Ġinte": 702,
      "Ġbeing": 703,
      "Ġyears": 704,
      "Ġtheir": 705,
      "Ġtook": 706,
      "Ġbot": 707,
      "Ġgave": 708,
      "Ġchildren": 709,
      "Ġmind": 710,
      "Ġbad": 711,
      "Ġwithout": 712,
      "Ġlist": 713,
      "Ġsupp": 714,
      "Ġcame": 715,
      "Ġfam": 716,
      "Ġstud": 717,
      "Ġcouldn": 718,
      "Ġbig": 719,
      "te": 720,
      "Ġmor": 721,
      "Ġuse": 722,
      "Ġdri": 723,
      "Ġstr": 724,
      "Ġyet": 725,
      "Ġengl": 726,
      "Ġbed": 727,
      "Ġknew": 728,
      "Ġalread": 729,
      "Ġalready": 730,
      "Ġfo": 731,
      "ory": 732,
      "Ġpers": 733,
      "Ġrain": 734,
      "Ġused": 735,
      "ci": 736,
      "oy": 737,
      "Ġtired": 738,
      "Ġwater": 739,
      "Ġmorning": 740,
      "mer": 741,
      "Ġlooking": 742,
      "Ġinterest": 743,
      "Ġheard": 744,
      "ily": 745,
      "Ġseen": 746,
      "Ġboy": 747,
      "Ġbest": 748,
      "Ġfound": 749,
      "ote": 750,
      "Ġph": 751,
      "ident": 752,
      "Ġlost": 753,
      "Ġmist": 754,
      "Ġcle": 755,
      "Ġmon": 756,
      "Ġeven": 757,
      "Ġsho": 758,
      "Ġbeg": 759,
      "Ġsame": 760,
      "apan": 761,
      "are": 762,
      "Ġhaven": 763,
      "Ġjapan": 764,
      "og": 765,
      "Ġtrain": 766,
      "Ġenglish": 767,
      "ner": 768,
      "Ġact": 769,
      "um": 770,
      "Ġword": 771,
      "Ġten": 772,
      "Ġanswer": 773,
      "Ġstudy": 774,
      "Ġoften": 775,
      "mo": 776,
      "Ġpol": 777,
      "Ġaren": 778,
      "ible": 779,
      "ull": 780,
      "Ġeas": 781,
      "Ġro": 782,
      "Ġatt": 783,
      "Ġel": 784,
      "pr": 785,
      "Ġ\"": 786,
      "Ġwish": 787,
      "Ġmean": 788,
      "Ġlik": 789,
      "Ġafra": 790,
      "Ġafraid": 791,
      "Ġmin": 792,
      "Ġready": 793,
      "Ġper": 794,
      "Ġrun": 795,
      "Ġcont": 796,
      "igh": 797,
      "Ġyoung": 798,
      "Ġmiss": 799,
      "Ġsomeone": 800,
      "Ġtru": 801,
      "aking": 802,
      "gry": 803,
      "Ġyourself": 804,
      "Ġparty": 805,
      "Ġlearn": 806,
      "Ġfew": 807,
      "osed": 808,
      "Ġperson": 809,
      "Ġpain": 810,
      "Ġsing": 811,
      "orm": 812,
      "lain": 813,
      "Ġfr": 814,
      "ister": 815,
      "Ġgreat": 816,
      "rents": 817,
      "ished": 818,
      "Ġdes": 819,
      "Ġcold": 820,
      "Ġthank": 821,
      "Ġelse": 822,
      "Ġwhile": 823,
      "Ġpay": 824,
      "Ġbrother": 825,
      "Ġgirl": 826,
      "be": 827,
      "Ġsec": 828,
      "gg": 829,
      "ually": 830,
      "Ġparents": 831,
      "Ġtalking": 832,
      "Ġpret": 833,
      "Ġswim": 834,
      "Ġstudent": 835,
      "aut": 836,
      "Ġcount": 837,
      "ail": 838,
      "ian": 839,
      "Ġmight": 840,
      "Ġbeaut": 841,
      "Ġrec": 842,
      "Ġsha": 843,
      "ared": 844,
      "cle": 845,
      "ince": 846,
      "Ġhour": 847,
      "Ġwants": 848,
      "Ġglad": 849,
      "side": 850,
      "Ġmatter": 851,
      "ited": 852,
      "Ġmyself": 853,
      "Ġnice": 854,
      "Ġaround": 855,
      "Ġcha": 856,
      "Ġsurpr": 857,
      "Ġbre": 858,
      "Ġbought": 859,
      "Ġletter": 860,
      "hes": 861,
      "Ġboth": 862,
      "Ġlisten": 863,
      "Ġgetting": 864,
      "ream": 865,
      "Ġsister": 866,
      "Ġmarried": 867,
      "Ġfood": 868,
      "Ġbro": 869,
      "Ġprom": 870,
      "ause": 871,
      "ip": 872,
      "ctor": 873,
      "Ġanother": 874,
      "Ġplace": 875,
      "uck": 876,
      "inner": 877,
      "Ġinv": 878,
      "iful": 879,
      "vor": 880,
      "Ġrest": 881,
      "fic": 882,
      "Ġminut": 883,
      "Ġtrue": 884,
      "Ġown": 885,
      "Ġlooks": 886,
      "ife": 887,
      "ert": 888,
      "Ġearly": 889,
      "Ġbecause": 890,
      "most": 891,
      "Ġhun": 892,
      "les": 893,
      "Ġsuch": 894,
      "Ġwind": 895,
      "Ġknows": 896,
      "Ġbeautiful": 897,
      "Ġsit": 898,
      "ond": 899,
      "Ġexpect": 900,
      "Ġrep": 901,
      "ket": 902,
      "Ġwrite": 903,
      "Ġdoctor": 904,
      "Ġhurt": 905,
      "Ġbreak": 906,
      "Ġfar": 907,
      "Ġwouldn": 908,
      "ize": 909,
      "Ġable": 910,
      "Ġalmost": 911,
      "Ġser": 912,
      "Ġeverybody": 913,
      "ork": 914,
      "ced": 915,
      "night": 916,
      "Ġthose": 917,
      "Ġmet": 918,
      "Ġarri": 919,
      "Ġonce": 920,
      "pped": 921,
      "Ġvis": 922,
      "Ġwonder": 923,
      "Ġforg": 924,
      "Ġwhich": 925,
      "Ġtried": 926,
      "joy": 927,
      "Ġsun": 928,
      "Ġenjoy": 929,
      "Ġmov": 930,
      "sp": 931,
      "Ġdinner": 932,
      "no": 933,
      "Ġdays": 934,
      "ese": 935,
      "Ġtruth": 936,
      "ret": 937,
      "Ġpass": 938,
      "Ġey": 939,
      "Ġcoff": 940,
      "ign": 941,
      "Ġmeeting": 942,
      "Ġcoffee": 943,
      "Ġmost": 944,
      "ock": 945,
      "ect": 946,
      "feren": 947,
      "more": 948,
      "Ġsmo": 949,
      "Ġanymore": 950,
      "Ġcoming": 951,
      "Ġpict": 952,
      "Ġpicture": 953,
      "ix": 954,
      "Ġdiffic": 955,
      "ons": 956,
      "med": 957,
      "Ġsince": 958,
      "Ġmine": 959,
      "Ġsn": 960,
      "cess": 961,
      "Ġwar": 962,
      "llow": 963,
      "Ġspend": 964,
      "Ġbooks": 965,
      "Ġforget": 966,
      "ath": 967,
      "lt": 968,
      "Ġwin": 969,
      "ti": 970,
      "Ġsl": 971,
      "ens": 972,
      "Ġsk": 973,
      "ars": 974,
      "used": 975,
      "Ġkid": 976,
      "Ġaccident": 977,
      "Ġshouldn": 978,
      "we": 979,
      "Ġcareful": 980,
      "gether": 981,
      "Ġeach": 982,
      "Ġlight": 983,
      "Ġfamily": 984,
      "Ġtogether": 985,
      "Ġimport": 986,
      "Ġworld": 987,
      "Ġhate": 988,
      "oud": 989,
      "Ġsat": 990,
      "Ġtonight": 991,
      "Ġtrust": 992,
      "Ġfelt": 993,
      "Ġbir": 994,
      "Ġseems": 995,
      "Ġcook": 996,
      "here": 997,
      "Ġkill": 998,
      "Ġchange": 999,
      "Ġnobody": 1000,
      "Ġap": 1001,
      "Ġdifferen": 1002,
      "Ġdrive": 1003,
      "Ġlikes": 1004,
      "Ġeasy": 1005,
      "Ġim": 1006,
      "Ġreal": 1007,
      "unch": 1008,
      "ured": 1009,
      "ater": 1010,
      "Ġstand": 1011,
      "Ġwaiting": 1012,
      "anger": 1013,
      "Ġ1": 1014,
      "Ġcut": 1015,
      "Ġpretty": 1016,
      "Ġdifficult": 1017,
      "ank": 1018,
      "Ġphone": 1019,
      "int": 1020,
      "Ġdied": 1021,
      "Ġdisc": 1022,
      "Ġtrying": 1023,
      "Ġworking": 1024,
      "ys": 1025,
      "Ġgone": 1026,
      "Ġrel": 1027,
      "Ġsound": 1028,
      "Ġsick": 1029,
      "ient": 1030,
      "Ġend": 1031,
      "Ġluck": 1032,
      "Ġsmall": 1033,
      "Ġstarted": 1034,
      "Ġdress": 1035,
      "Ġstation": 1036,
      "Ġwife": 1037,
      "Ġmus": 1038,
      "ssible": 1039,
      "Ġpres": 1040,
      "Ġbit": 1041,
      "aught": 1042,
      "Ġwom": 1043,
      "Ġbor": 1044,
      "Ġfinished": 1045,
      "Ġpolice": 1046,
      "Ġwindow": 1047,
      "Ġlonger": 1048,
      "ided": 1049,
      "Ġfollow": 1050,
      "Ġsurprised": 1051,
      "ors": 1052,
      "Ġexc": 1053,
      "Ġimportant": 1054,
      "less": 1055,
      "Ġwear": 1056,
      "Ġclass": 1057,
      "Ġair": 1058,
      "Ġunt": 1059,
      "Ġlooked": 1060,
      "Ġquite": 1061,
      "Ġlunch": 1062,
      "Ġsuc": 1063,
      "ged": 1064,
      "Ġcho": 1065,
      "Ġclose": 1066,
      "Ġfavor": 1067,
      "Ġpark": 1068,
      "ia": 1069,
      "ub": 1070,
      "man": 1071,
      "Ġanybody": 1072,
      "zy": 1073,
      "Ġnu": 1074,
      "icy": 1075,
      "aper": 1076,
      "Ġweather": 1077,
      "fect": 1078,
      "led": 1079,
      "Ġfire": 1080,
      "ason": 1081,
      "Ġlau": 1082,
      "Ġmusic": 1083,
      "Ġdi": 1084,
      "Ġquestions": 1085,
      "work": 1086,
      "where": 1087,
      "Ġfast": 1088,
      "Ġnear": 1089,
      "Ġreading": 1090,
      "Ġconc": 1091,
      "iness": 1092,
      "cept": 1093,
      "Ġgame": 1094,
      "Ġmovie": 1095,
      "Ġguess": 1096,
      "Ġmakes": 1097,
      "Ġfish": 1098,
      "ision": 1099,
      "ord": 1100,
      "Ġhaving": 1101,
      "Ġdanger": 1102,
      "Ġcr": 1103,
      "ition": 1104,
      "Ġforgot": 1105,
      "Ġyours": 1106,
      "Ġmistake": 1107,
      "Ġvisit": 1108,
      "Ġeyes": 1109,
      "lve": 1110,
      "Ġexact": 1111,
      "Ġsupposed": 1112,
      "Ġtri": 1113,
      "Ġhair": 1114,
      "time": 1115,
      "Ġfree": 1116,
      "Ġstory": 1117,
      "Ġoffice": 1118,
      "Ġuntil": 1119,
      "Ġson": 1120,
      "Ġhigh": 1121,
      "Ġdream": 1122,
      "Ġmonth": 1123,
      "Ġtv": 1124,
      "Ġrem": 1125,
      "king": 1126,
      "Ġhead": 1127,
      "Ġtimes": 1128,
      "ans": 1129,
      "ating": 1130,
      "Ġsto": 1131,
      "ud": 1132,
      "Ġhimself": 1133,
      "Ġworry": 1134,
      "ense": 1135,
      "Ġstup": 1136,
      "Ġadd": 1137,
      "Ġplaying": 1138,
      "Ġstupid": 1139,
      "Ġtrou": 1140,
      "ever": 1141,
      "ken": 1142,
      "Ġangry": 1143,
      "Ġbring": 1144,
      "ably": 1145,
      "olog": 1146,
      "Ġserious": 1147,
      "ired": 1148,
      "ward": 1149,
      "Ġfig": 1150,
      "Ġent": 1151,
      "Ġdep": 1152,
      "Ġago": 1153,
      "Ġcalled": 1154,
      "als": 1155,
      "Ġfeeling": 1156,
      "Ġhurry": 1157,
      "Ġadvice": 1158,
      "Ġhours": 1159,
      "ax": 1160,
      ".\"": 1161,
      "Ġsong": 1162,
      "eric": 1163,
      "Ġref": 1164,
      "Ġcons": 1165,
      "Ġagree": 1166,
      "Ġexplain": 1167,
      "Ġbicy": 1168,
      "Ġinc": 1169,
      "Ġhands": 1170,
      "Ġbroke": 1171,
      "Ġexactly": 1172,
      "lic": 1173,
      "Ġsays": 1174,
      "Ġstudents": 1175,
      "app": 1176,
      "Ġsent": 1177,
      "Ġcaught": 1178,
      "Ġameric": 1179,
      "Ġafterno": 1180,
      "ib": 1181,
      "uss": 1182,
      "Ġprob": 1183,
      "Ġlives": 1184,
      "Ġclean": 1185,
      "Ġafternoon": 1186,
      "sh": 1187,
      "Ġfell": 1188,
      "Ġminutes": 1189,
      "alth": 1190,
      "Ġtable": 1191,
      "Ġob": 1192,
      "Ġkiss": 1193,
      "Ġconf": 1194,
      "Ġhot": 1195,
      "Ġran": 1196,
      "Ġsafe": 1197,
      "Ġappre": 1198,
      "ny": 1199,
      "Ġreg": 1200,
      "Ġeating": 1201,
      "Ġbicycle": 1202,
      "Ġtall": 1203,
      "Ġturned": 1204,
      "ier": 1205,
      "Ġthinking": 1206,
      "Ġappreci": 1207,
      "Ġdecided": 1208,
      "ph": 1209,
      "Ġreason": 1210,
      "Ġjapanese": 1211,
      "mmer": 1212,
      "Ġcry": 1213,
      "Ġusually": 1214,
      "Ġprobably": 1215,
      "ger": 1216,
      "Ġglass": 1217,
      "Ġcountry": 1218,
      "reet": 1219,
      "Ġgrow": 1220,
      "Ġinteresting": 1221,
      "Ġinterested": 1222,
      "Ġtrouble": 1223,
      "Ġthr": 1224,
      "ross": 1225,
      "Ġtown": 1226,
      "Ġlar": 1227,
      "ized": 1228,
      "Ġallow": 1229,
      "Ġdead": 1230,
      "Ġlang": 1231,
      "Ġthir": 1232,
      "Ġred": 1233,
      "Ġarrived": 1234,
      "Ġlangu": 1235,
      "00": 1236,
      "Ġbox": 1237,
      "air": 1238,
      "Ġok": 1239,
      "ital": 1240,
      "ention": 1241,
      "Ġsnow": 1242,
      "Ġtele": 1243,
      "Ġspo": 1244,
      "Ġdisapp": 1245,
      "Ġcomm": 1246,
      "Ġfore": 1247,
      "Ġweren": 1248,
      "ject": 1249,
      "Ġcost": 1250,
      "Ġhomework": 1251,
      "Ġadvised": 1252,
      "Ġnumber": 1253,
      "Ġthrough": 1254,
      "per": 1255,
      "Ġbegin": 1256,
      "em": 1257,
      "Ġfinish": 1258,
      "ouch": 1259,
      "Ġquit": 1260,
      "ered": 1261,
      "Ġquick": 1262,
      "Ġbab": 1263,
      "Ġliving": 1264,
      "Ġnews": 1265,
      "Ġagainst": 1266,
      "Ġdifferent": 1267,
      "Ġappreciate": 1268,
      "ched": 1269,
      "Ġage": 1270,
      "Ġele": 1271,
      "Ġproud": 1272,
      "Ġlaw": 1273,
      "Ġsecret": 1274,
      "oup": 1275,
      "Ġdaught": 1276,
      "vel": 1277,
      "any": 1278,
      "Ġbusiness": 1279,
      "Ġcatch": 1280,
      "Ġpromise": 1281,
      "Ġfull": 1282,
      "Ġcoll": 1283,
      "Ġchance": 1284,
      "Ġcheck": 1285,
      "Ġabs": 1286,
      "Ġsaying": 1287,
      "Ġmil": 1288,
      "Ġcra": 1289,
      "ither": 1290,
      "Ġpossible": 1291,
      "Ġbecome": 1292,
      "Ġ2": 1293,
      "ical": 1294,
      "Ġlater": 1295,
      "Ġinf": 1296,
      "Ġmaybe": 1297,
      "Ġtrip": 1298,
      "Ġcomple": 1299,
      "Ġter": 1300,
      "Ġwine": 1301,
      "Ġthen": 1302,
      "ions": 1303,
      "ison": 1304,
      "Ġsummer": 1305,
      "Ġoutside": 1306,
      "Ġmoment": 1307,
      "Ġkept": 1308,
      "Ġpri": 1309,
      "Ġeve": 1310,
      "Ġclot": 1311,
      "ience": 1312,
      "Ġtaking": 1313,
      "Ġhealth": 1314,
      "unk": 1315,
      "ange": 1316,
      "Ġtrave": 1317,
      "Ġhungry": 1318,
      "br": 1319,
      "uter": 1320,
      "Ġlie": 1321,
      "Ġshort": 1322,
      "Ġneeds": 1323,
      "Ġborn": 1324,
      "Ġmaking": 1325,
      "Ġinter": 1326,
      "Ġstrong": 1327,
      "enc": 1328,
      "Ġru": 1329,
      "Ġwrit": 1330,
      "Ġtree": 1331,
      "Ġfive": 1332,
      "Ġface": 1333,
      "Ġhold": 1334,
      "lfriend": 1335,
      "ately": 1336,
      "Ġcomplain": 1337,
      "Ġu": 1338,
      "Ġpick": 1339,
      "Ġcomputer": 1340,
      "Ġgirlfriend": 1341,
      "not": 1342,
      "ative": 1343,
      "ustr": 1344,
      "Ġfavorite": 1345,
      "Ġdoll": 1346,
      "Ġcompany": 1347,
      "Ġolder": 1348,
      "Ġshoes": 1349,
      "du": 1350,
      "hind": 1351,
      "Ġbehind": 1352,
      "Ġmess": 1353,
      "Ġteam": 1354,
      "Ġbirth": 1355,
      "Ġbaby": 1356,
      "fast": 1357,
      "ower": 1358,
      "Ġguy": 1359,
      "Ġdaughter": 1360,
      "ming": 1361,
      "Ġsometime": 1362,
      "Ġworks": 1363,
      "Ġfail": 1364,
      "Ġapolog": 1365,
      "Ġlaugh": 1366,
      "Ġcor": 1367,
      "ressed": 1368,
      "Ġdie": 1369,
      "Ġmed": 1370,
      "Ġbuild": 1371,
      "ertain": 1372,
      "Ġbreakfast": 1373,
      "Ġdiscuss": 1374,
      "aw": 1375,
      "ned": 1376,
      "Ġcity": 1377,
      "Ġpresent": 1378,
      "Ġret": 1379,
      "Ġstreet": 1380,
      "Ġtea": 1381,
      "aken": 1382,
      "Ġeaten": 1383,
      "az": 1384,
      "rew": 1385,
      "Ġarm": 1386,
      "fer": 1387,
      "vers": 1388,
      "Ġrich": 1389,
      "Ġperfect": 1390,
      "dd": 1391,
      "Ġhor": 1392,
      "Ġneeded": 1393,
      "Ġaccept": 1394,
      "iet": 1395,
      "Ġsal": 1396,
      "Ġdark": 1397,
      "Ġpat": 1398,
      "Ġdeal": 1399,
      "Ġpoint": 1400,
      "Ġset": 1401,
      "Ġce": 1402,
      "ended": 1403,
      "Ġhosp": 1404,
      "Ġsomebody": 1405,
      "Ġorder": 1406,
      "Ġexpens": 1407,
      "Ġfunny": 1408,
      "otel": 1409,
      "Ġgun": 1410,
      "Ġsuit": 1411,
      "Ġcomes": 1412,
      "Ġwoman": 1413,
      "Ġquickly": 1414,
      "ual": 1415,
      "Ġkey": 1416,
      "Ġstayed": 1417,
      "Ġpaid": 1418,
      "Ġfall": 1419,
      "Ġpie": 1420,
      "Ġadm": 1421,
      "Ġchar": 1422,
      "ying": 1423,
      "erv": 1424,
      "Ġhotel": 1425,
      "Ġbeer": 1426,
      "Ġate": 1427,
      "Ġlose": 1428,
      "Ġmonday": 1429,
      "Ġdisappo": 1430,
      "Ġcrazy": 1431,
      "nis": 1432,
      "Ġsign": 1433,
      "ont": 1434,
      "Ġstore": 1435,
      "Ġgrand": 1436,
      "Ġwatching": 1437,
      "Ġtennis": 1438,
      "Ġlarge": 1439,
      "Ġart": 1440,
      "Ġclear": 1441,
      "Ġcomplete": 1442,
      "Ġhospital": 1443,
      "aur": 1444,
      "Ġsugg": 1445,
      "Ġdecision": 1446,
      "Ġinvited": 1447,
      "Ġtouch": 1448,
      "ush": 1449,
      "Ġcannot": 1450,
      "Ġill": 1451,
      "inted": 1452,
      "ular": 1453,
      "Ġdeath": 1454,
      "Ġprep": 1455,
      "Ġclothes": 1456,
      "Ġtic": 1457,
      "Ġaustr": 1458,
      "Ġemp": 1459,
      "Ġseat": 1460,
      "Ġsmoking": 1461,
      "Ġaustral": 1462,
      "ling": 1463,
      "Ġdro": 1464,
      "Ġhit": 1465,
      "Ġkids": 1466,
      "Ġchoice": 1467,
      "Ġdist": 1468,
      "Ġbag": 1469,
      "Ġasleep": 1470,
      "ps": 1471,
      "set": 1472,
      "itten": 1473,
      "pping": 1474,
      "Ġlock": 1475,
      "Ġleg": 1476,
      "Ġquiet": 1477,
      "Ġspent": 1478,
      "Ġswe": 1479,
      "Ġaustralia": 1480,
      "bed": 1481,
      "Ġfix": 1482,
      "Ġheart": 1483,
      "Ġpaper": 1484,
      "Ġhalf": 1485,
      "Ġass": 1486,
      "Ġworried": 1487,
      "Ġbegan": 1488,
      "Ġwords": 1489,
      "Ġrestaur": 1490,
      "Ġmilk": 1491,
      "Ġrestaurant": 1492,
      "?\"": 1493,
      "ump": 1494,
      "Ġwall": 1495,
      "ined": 1496,
      "Ġcertain": 1497,
      "Ġworth": 1498,
      "Ġlived": 1499,
      "iction": 1500,
      "Ġwearing": 1501,
      "uation": 1502,
      "Ġsix": 1503,
      "Ġhandle": 1504,
      "Ġstudying": 1505,
      "Ġsunday": 1506,
      "Ġsometimes": 1507,
      "Ġexpensive": 1508,
      "ike": 1509,
      "ness": 1510,
      "Ġless": 1511,
      "Ġins": 1512,
      "Ġgoes": 1513,
      "Ġriver": 1514,
      "Ġresp": 1515,
      "ased": 1516,
      "Ġris": 1517,
      "Ġdrunk": 1518,
      "Ġbecame": 1519,
      "Ġothers": 1520,
      "cc": 1521,
      "cl": 1522,
      "Ġes": 1523,
      "Ġdet": 1524,
      "Ġteach": 1525,
      "Ġbuilding": 1526,
      "Ġmen": 1527,
      "erve": 1528,
      "ash": 1529,
      "Ġneigh": 1530,
      "aged": 1531,
      "Ġneighb": 1532,
      "Ġcup": 1533,
      "Ġfight": 1534,
      "ates": 1535,
      "oose": 1536,
      "ceed": 1537,
      "Ġwhole": 1538,
      "ween": 1539,
      "Ġkilled": 1540,
      "Ġbirthday": 1541,
      "Ġhon": 1542,
      "ider": 1543,
      "Ġrather": 1544,
      "Ġdel": 1545,
      "Ġtelling": 1546,
      "Ġbetween": 1547,
      "Ġchanged": 1548,
      "Ġreport": 1549,
      "30": 1550,
      "Ġboss": 1551,
      "ully": 1552,
      "Ġsituation": 1553,
      "Ġtakes": 1554,
      "Ġcake": 1555,
      "Ġscared": 1556,
      "Ġlucky": 1557,
      "Ġinform": 1558,
      "Ġext": 1559,
      "Ġexam": 1560,
      "Ġmove": 1561,
      "Ġweekend": 1562,
      "Ġstrange": 1563,
      "Ġlanguage": 1564,
      "by": 1565,
      "Ġborrow": 1566,
      "Ġclosed": 1567,
      "Ġminute": 1568,
      "ber": 1569,
      "Ġhelped": 1570,
      "Ġconv": 1571,
      "Ġexper": 1572,
      "Ġproblems": 1573,
      "Ġstopped": 1574,
      "fully": 1575,
      "irt": 1576,
      "Ġspeaking": 1577,
      "Ġfront": 1578,
      "room": 1579,
      "Ġinst": 1580,
      "Ġupset": 1581,
      "Ġmistakes": 1582,
      "Ġsecond": 1583,
      "Ġsuccess": 1584,
      "Ġfigured": 1585,
      "ces": 1586,
      "port": 1587,
      "Ġcoat": 1588,
      "Ġgets": 1589,
      "Ġworked": 1590,
      "Ġprison": 1591,
      "Ġearth": 1592,
      "Ġfinally": 1593,
      "eal": 1594,
      "fort": 1595,
      "Ġshut": 1596,
      "Ġalong": 1597,
      "Ġblack": 1598,
      "rist": 1599,
      "Ġsense": 1600,
      "Ġnecess": 1601,
      "Ġflo": 1602,
      "Ġthanks": 1603,
      "ract": 1604,
      "Ġsim": 1605,
      "Ġwrote": 1606,
      "Ġhappening": 1607,
      "Ġimag": 1608,
      "Ġdangerous": 1609,
      "io": 1610,
      "ky": 1611,
      "Ġdiction": 1612,
      "Ġcour": 1613,
      "Ġchrist": 1614,
      "Ġdogs": 1615,
      "Ġterri": 1616,
      "vent": 1617,
      "Ġtalked": 1618,
      "Ġspeaks": 1619,
      "Ġopin": 1620,
      "Ġliked": 1621,
      "Ġpian": 1622,
      "Ġforward": 1623,
      "Ġchin": 1624,
      "Ġmissed": 1625,
      "Ġexpected": 1626,
      "Ġgard": 1627,
      "Ġbeach": 1628,
      "Ġknown": 1629,
      "Ġactually": 1630,
      "Ġgen": 1631,
      "ics": 1632,
      "Ġwhether": 1633,
      "Ġprefer": 1634,
      "Ġbrought": 1635,
      "Ġrunning": 1636,
      "Ġslow": 1637,
      "Ġevening": 1638,
      "Ġhid": 1639,
      "Ġits": 1640,
      "Ġwhatever": 1641,
      "Ġsell": 1642,
      "Ġvac": 1643,
      "itting": 1644,
      "ages": 1645,
      "Ġplane": 1646,
      "Ġflow": 1647,
      "cial": 1648,
      "phone": 1649,
      "Ġthirty": 1650,
      "Ġesc": 1651,
      "Ġdictionary": 1652,
      "Ġgarden": 1653,
      "reed": 1654,
      "Ġseeing": 1655,
      "airs": 1656,
      "tle": 1657,
      "Ġdou": 1658,
      "enty": 1659,
      "Ġswimming": 1660,
      "Ġsuggest": 1661,
      "Ġrid": 1662,
      "Ġexpl": 1663,
      "Ġwalked": 1664,
      "ds": 1665,
      "fied": 1666,
      "Ġcase": 1667,
      "ction": 1668,
      "Ġloves": 1669,
      "Ġroad": 1670,
      "Ġallowed": 1671,
      "ball": 1672,
      "mas": 1673,
      "Ġsme": 1674,
      "Ġfut": 1675,
      "Ġrul": 1676,
      "Ġcol": 1677,
      "Ġleast": 1678,
      "Ġoffer": 1679,
      "Ġfamous": 1680,
      "Ġbroken": 1681,
      "Ġreturn": 1682,
      "bit": 1683,
      "gu": 1684,
      "Ġtax": 1685,
      "ored": 1686,
      "Ġsold": 1687,
      "Ġnovel": 1688,
      "Ġhappens": 1689,
      "Ġsucceed": 1690,
      "Ġdisappointed": 1691,
      "Ġhonest": 1692,
      "Ġsmell": 1693,
      "gn": 1694,
      "Ġtemp": 1695,
      "Ġtrans": 1696,
      "Ġwritten": 1697,
      "ding": 1698,
      "Ġcal": 1699,
      "ations": 1700,
      "Ġsmoke": 1701,
      "Ġchristmas": 1702,
      "Ġtest": 1703,
      "Ġlibr": 1704,
      "Ġsub": 1705,
      "ility": 1706,
      "Ġdrinking": 1707,
      "clock": 1708,
      "Ġtreat": 1709,
      "aster": 1710,
      "Ġeither": 1711,
      "Ġcamer": 1712,
      "Ġchoose": 1713,
      "Ġdollars": 1714,
      "Ġcompletely": 1715,
      "aff": 1716,
      "rect": 1717,
      "Ġpar": 1718,
      "Ġopp": 1719,
      "Ġlea": 1720,
      "Ġmedic": 1721,
      "Ġfuture": 1722,
      "Ġav": 1723,
      "Ġdance": 1724,
      "Ġconsider": 1725,
      "Ġcrying": 1726,
      "Ġfine": 1727,
      "Ġnecessary": 1728,
      "Ġpiano": 1729,
      "Ġsad": 1730,
      "Ġpun": 1731,
      "Ġsol": 1732,
      "uring": 1733,
      "Ġhasn": 1734,
      "Ġaff": 1735,
      "Ġpoor": 1736,
      "Ġchair": 1737,
      "Ġopinion": 1738,
      "Ġhum": 1739,
      "ries": 1740,
      "Ġjoin": 1741,
      "Ġfoot": 1742,
      "Ġaddress": 1743,
      "Ġapologize": 1744,
      "Ġrules": 1745,
      "Ġlibrary": 1746,
      "av": 1747,
      "ug": 1748,
      "Ġbill": 1749,
      "Ġweight": 1750,
      "Ġnoise": 1751,
      "lves": 1752,
      "Ġleaving": 1753,
      "band": 1754,
      "Ġtast": 1755,
      "ination": 1756,
      "Ġpainting": 1757,
      "Ġflowers": 1758,
      "iv": 1759,
      "Ġbank": 1760,
      "Ġfat": 1761,
      "Ġfool": 1762,
      "Ġpop": 1763,
      "usband": 1764,
      "dered": 1765,
      "Ġarrive": 1766,
      "Ġwriting": 1767,
      "Ġcamera": 1768,
      "Ġtaken": 1769,
      "Ġind": 1770,
      "Ġsudd": 1771,
      "Ġsomewhere": 1772,
      "Ġsave": 1773,
      "ountain": 1774,
      "Ġlearned": 1775,
      "Ġsudden": 1776,
      "Ġhusband": 1777,
      "veral": 1778,
      "Ġstar": 1779,
      "Ġseveral": 1780,
      "Ġgirls": 1781,
      "Ġlawy": 1782,
      "Ġcolle": 1783,
      "Ġfloor": 1784,
      "ove": 1785,
      "Ġnerv": 1786,
      "road": 1787,
      "Ġwhite": 1788,
      "Ġrad": 1789,
      "Ġblame": 1790,
      "Ġattention": 1791,
      "Ġsatis": 1792,
      "Ġnervous": 1793,
      "ne": 1794,
      "Ġtoky": 1795,
      "Ġcri": 1796,
      "Ġanim": 1797,
      "right": 1798,
      "selves": 1799,
      "eep": 1800,
      "ute": 1801,
      "Ġclim": 1802,
      "ogn": 1803,
      "Ġrecogn": 1804,
      "Ġtokyo": 1805,
      "ton": 1806,
      "Ġwarn": 1807,
      "Ġalive": 1808,
      "ived": 1809,
      "Ġspee": 1810,
      "Ġinformation": 1811,
      "Ġside": 1812,
      "Ġduring": 1813,
      "Ġpub": 1814,
      "kets": 1815,
      "Ġrece": 1816,
      "Ġuncle": 1817,
      "Ġguit": 1818,
      "Ġopened": 1819,
      "Ġsuppose": 1820,
      "Ġwomen": 1821,
      "rell": 1822,
      "Ġwaste": 1823,
      "Ġship": 1824,
      "mbrell": 1825,
      "Ġloved": 1826,
      "Ġnewsp": 1827,
      "Ġshowed": 1828,
      "Ġphot": 1829,
      "Ġumbrell": 1830,
      "amp": 1831,
      "rees": 1832,
      "Ġsil": 1833,
      "Ġbother": 1834,
      "Ġcross": 1835,
      "Ġsolve": 1836,
      "Ġsleeping": 1837,
      "Ġlistening": 1838,
      "Ġtravel": 1839,
      "Ġrespons": 1840,
      "che": 1841,
      "Ġign": 1842,
      "Ġmountain": 1843,
      "Ġdesk": 1844,
      "Ġcorrect": 1845,
      "Ġspeech": 1846,
      "Ġdate": 1847,
      "Ġbeha": 1848,
      "Ġtie": 1849,
      "Ġshopping": 1850,
      "Ġdoub": 1851,
      "Ġguitar": 1852,
      "friend": 1853,
      "ices": 1854,
      "Ġshot": 1855,
      "Ġsmart": 1856,
      "medi": 1857,
      "Ġimmedi": 1858,
      "Ġrisk": 1859,
      "Ġvacation": 1860,
      "Ġmedicine": 1861,
      "Ġty": 1862,
      "Ġsus": 1863,
      "Ġsend": 1864,
      "Ġmis": 1865,
      "Ġbath": 1866,
      "ently": 1867,
      "olved": 1868,
      "ution": 1869,
      "Ġcollege": 1870,
      "way": 1871,
      "head": 1872,
      "Ġpen": 1873,
      "Ġwilling": 1874,
      "Ġvo": 1875,
      "Ġkeys": 1876,
      "Ġwarm": 1877,
      "Ġradio": 1878,
      "Ġumbrella": 1879,
      "oun": 1880,
      "Ġheav": 1881,
      "Ġinj": 1882,
      "ager": 1883,
      "Ġfair": 1884,
      "Ġapart": 1885,
      "Ġsounds": 1886,
      "Ġticket": 1887,
      "Ġtransl": 1888,
      "Ġfre": 1889,
      "ustom": 1890,
      "Ġappro": 1891,
      "Ġregret": 1892,
      "Ġtelephone": 1893,
      "Ġhorse": 1894,
      "Ġpatient": 1895,
      "Ġsy": 1896,
      "Ġwhose": 1897,
      "Ġjoke": 1898,
      "Ġpost": 1899,
      "Ġcontin": 1900,
      "Ġlawyer": 1901,
      "Ġz": 1902,
      "Ġice": 1903,
      "Ġlend": 1904,
      "Ġlying": 1905,
      "Ġgif": 1906,
      "Ġra": 1907,
      "Ġabroad": 1908,
      "Ġthinks": 1909,
      "Ġprop": 1910,
      "Ġmeans": 1911,
      "Ġspoke": 1912,
      "Ġve": 1913,
      "Ġbreat": 1914,
      "Ġrespect": 1915,
      "Ġpromised": 1916,
      "Ġglasses": 1917,
      "so": 1918,
      "vious": 1919,
      "Ġwake": 1920,
      "Ġtop": 1921,
      "Ġthrow": 1922,
      "Ġowe": 1923,
      "ature": 1924,
      "Ġapple": 1925,
      "Ġcats": 1926,
      "Ġcoup": 1927,
      "Ġbelong": 1928,
      "Ġplans": 1929,
      "Ġboyfriend": 1930,
      "Ġremain": 1931,
      "oned": 1932,
      "Ġfour": 1933,
      "ened": 1934,
      "Ġegg": 1935,
      "Ġstorm": 1936,
      "Ġacross": 1937,
      "Ġstaying": 1938,
      "Ġdriving": 1939,
      "Ġpictures": 1940,
      "Ġmessage": 1941,
      "Ġpiece": 1942,
      "Ġimmediately": 1943,
      "gar": 1944,
      "ric": 1945,
      "Ġdeep": 1946,
      "Ġemb": 1947,
      "Ġgiven": 1948,
      "Ġsurv": 1949,
      "Ġdressed": 1950,
      "Ġexcuse": 1951,
      "Ġforeign": 1952,
      "ial": 1953,
      "Ġger": 1954,
      "ird": 1955,
      "Ġcarry": 1956,
      "Ġasking": 1957,
      "Ġguys": 1958,
      "Ġwaited": 1959,
      "Ġconcert": 1960,
      "Ġamerican": 1961,
      "Ġprepared": 1962,
      "Ġafford": 1963,
      "Ġid": 1964,
      "Ġmach": 1965,
      "Ġnone": 1966,
      "Ġpur": 1967,
      "Ġpast": 1968,
      "Ġpower": 1969,
      "erc": 1970,
      "iday": 1971,
      "Ġann": 1972,
      "outh": 1973,
      "Ġjump": 1974,
      "Ġcarefully": 1975,
      "Ġharder": 1976,
      "Ġearl": 1977,
      "Ġboys": 1978,
      "Ġinvolved": 1979,
      "Ġsle": 1980,
      "Ġhang": 1981,
      "Ġride": 1982,
      "Ġtraff": 1983,
      "Ġspecial": 1984,
      "Ġprice": 1985,
      "Ġsimp": 1986,
      "Ġcolor": 1987,
      "Ġtraffic": 1988,
      "come": 1989,
      "Ġfact": 1990,
      "Ġmem": 1991,
      "Ġunl": 1992,
      "Ġshower": 1993,
      "Ġcontro": 1994,
      "Ġgerman": 1995,
      "Ġbur": 1996,
      "erg": 1997,
      "Ġweird": 1998,
      "ade": 1999,
      "Ġshirt": 2000,
      "Ġring": 2001,
      "Ġuni": 2002,
      "ief": 2003,
      "Ġpartic": 2004,
      "Ġcute": 2005,
      "Ġfigure": 2006,
      "Ġcouple": 2007,
      "co": 2008,
      "ring": 2009,
      "Ġbar": 2010,
      "Ġlake": 2011,
      "Ġinside": 2012,
      "ilt": 2013,
      "Ġintro": 2014,
      "Ġarrest": 2015,
      "Ġeasily": 2016,
      "Ġamerica": 2017,
      "land": 2018,
      "Ġir": 2019,
      "Ġpull": 2020,
      "Ġrent": 2021,
      "Ġshop": 2022,
      "Ġworse": 2023,
      "Ġagreed": 2024,
      "Ġval": 2025,
      "Ġimpo": 2026,
      "Ġsatisfied": 2027,
      "vision": 2028,
      "Ġfill": 2029,
      "Ġfired": 2030,
      "Ġmeat": 2031,
      "Ġvol": 2032,
      "Ġtwice": 2033,
      "Ġfault": 2034,
      "Ġraining": 2035,
      "cent": 2036,
      "gan": 2037,
      "Ġdan": 2038,
      "Ġwel": 2039,
      "Ġclos": 2040,
      "Ġpassed": 2041,
      "Ġdifference": 2042,
      "Ġempty": 2043,
      "ghed": 2044,
      "Ġhop": 2045,
      "Ġdeserve": 2046,
      "Ġtelevision": 2047,
      "dred": 2048,
      "uri": 2049,
      "ins": 2050,
      "Ġhol": 2051,
      "Ġcap": 2052,
      "Ġblue": 2053,
      "Ġperm": 2054,
      "Ġmovies": 2055,
      "Ġ19": 2056,
      "reen": 2057,
      "Ġmag": 2058,
      "Ġmail": 2059,
      "Ġheld": 2060,
      "oof": 2061,
      "Ġcanad": 2062,
      "orts": 2063,
      "Ġstuff": 2064,
      "Ġprote": 2065,
      "Ġhardly": 2066,
      "Ġhundred": 2067,
      "Ġwinter": 2068,
      "Ġrelax": 2069,
      "Ġmachine": 2070,
      "Ġearlier": 2071,
      "Ġintrodu": 2072,
      "Ġimpossible": 2073,
      "ges": 2074,
      "Ġahead": 2075,
      "Ġmid": 2076,
      "idge": 2077,
      "Ġlikely": 2078,
      "Ġmarry": 2079,
      "Ġboat": 2080,
      "Ġwonderful": 2081,
      "Ġenjoyed": 2082,
      "Ġski": 2083,
      "Ġremind": 2084,
      "Ġdepend": 2085,
      "Ġpriv": 2086,
      "Ġed": 2087,
      "Ġden": 2088,
      "Ġcur": 2089,
      "Ġfit": 2090,
      "Ġline": 2091,
      "arr": 2092,
      "ants": 2093,
      "Ġposs": 2094,
      "Ġplayed": 2095,
      "Ġeye": 2096,
      "Ġconcer": 2097,
      "Ġrefused": 2098,
      "Ġelect": 2099,
      "uit": 2100,
      "ze": 2101,
      "Ġur": 2102,
      "Ġcrow": 2103,
      "Ġfly": 2104,
      "ane": 2105,
      "Ġocc": 2106,
      "idence": 2107,
      "Ġcop": 2108,
      "Ġherself": 2109,
      "Ġenem": 2110,
      "Ġmom": 2111,
      "Ġvi": 2112,
      "Ġdecide": 2113,
      "Ġattend": 2114,
      "Ġyounger": 2115,
      "ibility": 2116,
      "Ġkissed": 2117,
      "Ġterrible": 2118,
      "Ġanimals": 2119,
      "oid": 2120,
      "ator": 2121,
      "Ġrequ": 2122,
      "Ġstra": 2123,
      "stairs": 2124,
      "Ġanywhere": 2125,
      "Ġdem": 2126,
      "Ġideas": 2127,
      "Ġwalking": 2128,
      "Ġsooner": 2129,
      "Ġairport": 2130,
      "Ġlaughed": 2131,
      "Ġheavy": 2132,
      "Ġslept": 2133,
      "Ġwo": 2134,
      "Ġdut": 2135,
      "Ġma": 2136,
      "ises": 2137,
      "Ġliar": 2138,
      "ists": 2139,
      "Ġpress": 2140,
      "itted": 2141,
      "Ġdraw": 2142,
      "Ġorgan": 2143,
      "Ġleaves": 2144,
      "Ġcooking": 2145,
      "Ġbeginning": 2146,
      "Ġnewspaper": 2147,
      "Ġinjured": 2148,
      "iving": 2149,
      "ities": 2150,
      "Ġalso": 2151,
      "Ġlead": 2152,
      "iling": 2153,
      "Ġapples": 2154,
      "Ġshare": 2155,
      "Ġneighbor": 2156,
      "Ġexperience": 2157,
      "Ġgener": 2158,
      "Ġembarr": 2159,
      "Ġembarrass": 2160,
      "ape": 2161,
      "pl": 2162,
      "Ġwed": 2163,
      "Ġwood": 2164,
      "aked": 2165,
      "Ġcond": 2166,
      "Ġdrank": 2167,
      "Ġgrad": 2168,
      "Ġpainted": 2169,
      "Ġsurprise": 2170,
      "Ġforgive": 2171,
      "Ġfishing": 2172,
      "Ġfailed": 2173,
      "fortable": 2174,
      "Ġpublic": 2175,
      "cer": 2176,
      "dle": 2177,
      "uro": 2178,
      "Ġeff": 2179,
      "Ġlied": 2180,
      "Ġlos": 2181,
      "Ġimpressed": 2182,
      "Ġsinging": 2183,
      "Ġabsent": 2184,
      "Ġrecognize": 2185,
      "Ġcontrol": 2186,
      "ead": 2187,
      "Ġsight": 2188,
      "Ġsitting": 2189,
      "ayed": 2190,
      "Ġlear": 2191,
      "ults": 2192,
      "Ġplenty": 2193,
      "Ġargu": 2194,
      "Ġfeed": 2195,
      "Ġbuilt": 2196,
      "Ġweeks": 2197,
      "Ġaccused": 2198,
      "Ġsentence": 2199,
      "Ġconvin": 2200,
      "Ġsuddenly": 2201,
      "hood": 2202,
      "ugg": 2203,
      "ering": 2204,
      "vern": 2205,
      "Ġhist": 2206,
      "Ġmoved": 2207,
      "Ġsupport": 2208,
      "Ġgift": 2209,
      "Ġeggs": 2210,
      "rup": 2211,
      "Ġought": 2212,
      "Ġsand": 2213,
      "Ġpack": 2214,
      "Ġev": 2215,
      "Ġeight": 2216,
      "Ġeuro": 2217,
      "Ġgovern": 2218,
      "aded": 2219,
      "Ġjud": 2220,
      "Ġsugar": 2221,
      "Ġbody": 2222,
      "Ġshock": 2223,
      "Ġfollowed": 2224,
      "Ġlaughing": 2225,
      "Ġsuitc": 2226,
      "Ġlearning": 2227,
      "loy": 2228,
      "Ġdire": 2229,
      "Ġbase": 2230,
      "Ġmeant": 2231,
      "iced": 2232,
      "Ġknife": 2233,
      "Ġsuper": 2234,
      "Ġseemed": 2235,
      "Ġbottle": 2236,
      "Ġseriously": 2237,
      "Ġobvious": 2238,
      "omp": 2239,
      "sit": 2240,
      "Ġmuse": 2241,
      "Ġlad": 2242,
      "ushed": 2243,
      "ached": 2244,
      "Ġblood": 2245,
      "Ġdriver": 2246,
      "Ġsky": 2247,
      "Ġfeelings": 2248,
      "Ġcharge": 2249,
      "Ġwelcome": 2250,
      "Ġmuseum": 2251,
      "father": 2252,
      "Ġyork": 2253,
      "Ġtot": 2254,
      "Ġland": 2255,
      "Ġthough": 2256,
      "own": 2257,
      "Ġem": 2258,
      "Ġhadn": 2259,
      "iled": 2260,
      "iew": 2261,
      "Ġprodu": 2262,
      "Ġpresident": 2263,
      "Ġpropos": 2264,
      "Ġprotect": 2265,
      "Ġviol": 2266,
      "Ġduty": 2267,
      "Ġconvinced": 2268,
      "book": 2269,
      "cu": 2270,
      "col": 2271,
      "Ġtrees": 2272,
      "Ġmur": 2273,
      "Ġnorm": 2274,
      "Ġpenc": 2275,
      "eth": 2276,
      "Ġstol": 2277,
      "unity": 2278,
      "irty": 2279,
      "Ġplays": 2280,
      "Ġpleas": 2281,
      "Ġgotten": 2282,
      "Ġbutton": 2283,
      "Ġstudied": 2284,
      "Ġpolit": 2285,
      "Ġsweet": 2286,
      "Ġopport": 2287,
      "Ġdoubt": 2288,
      "Ġhistory": 2289,
      "Ġpencil": 2290,
      "Ġstolen": 2291,
      "ls": 2292,
      "ru": 2293,
      "Ġball": 2294,
      "Ġlone": 2295,
      "Ġstick": 2296,
      "Ġpleased": 2297,
      "Ġbuying": 2298,
      "Ġcrime": 2299,
      "ior": 2300,
      "hamed": 2301,
      "Ġbas": 2302,
      "Ġwash": 2303,
      "Ġstep": 2304,
      "Ġkit": 2305,
      "Ġgod": 2306,
      "ters": 2307,
      "Ġashamed": 2308,
      "istic": 2309,
      "Ġseven": 2310,
      "Ġappear": 2311,
      "Ġplanning": 2312,
      "Ġbird": 2313,
      "Ġgrandfather": 2314,
      "Ġdrop": 2315,
      "Ġchinese": 2316,
      "Ġtaxi": 2317,
      "Ġwarned": 2318,
      "Ġveget": 2319,
      "Ġcondition": 2320,
      "con": 2321,
      "Ġtal": 2322,
      "Ġtaught": 2323,
      "reme": 2324,
      "Ġye": 2325,
      "Ġdest": 2326,
      "Ġfif": 2327,
      "Ġfort": 2328,
      "Ġordered": 2329,
      "Ġaware": 2330,
      "ission": 2331,
      "Ġpersonal": 2332,
      "ails": 2333,
      "Ġmonths": 2334,
      "Ġgovernment": 2335,
      "Ġfing": 2336,
      "Ġloud": 2337,
      "Ġinno": 2338,
      "ili": 2339,
      "Ġdeb": 2340,
      "Ġprog": 2341,
      "olute": 2342,
      "Ġrealize": 2343,
      "Ġabsolute": 2344,
      "Ġadmit": 2345,
      "Ġextreme": 2346,
      "Ġarrested": 2347,
      "kes": 2348,
      "Ġfur": 2349,
      "Ġlond": 2350,
      "ots": 2351,
      "ster": 2352,
      "Ġsaved": 2353,
      "Ġspring": 2354,
      "Ġsmile": 2355,
      "Ġblind": 2356,
      "Ġpair": 2357,
      "Ġsleepy": 2358,
      "Ġfruit": 2359,
      "Ġtaller": 2360,
      "chen": 2361,
      "Ġcanadian": 2362,
      "Ġcrowd": 2363,
      "Ġwedding": 2364,
      "Ġlonely": 2365,
      "Ġkitchen": 2366,
      "Ġlondon": 2367,
      "cing": 2368,
      "cri": 2369,
      "hn": 2370,
      "ms": 2371,
      "oint": 2372,
      "Ġbread": 2373,
      "Ġcow": 2374,
      "Ġthous": 2375,
      "Ġneither": 2376,
      "Ġjeal": 2377,
      "Ġdef": 2378,
      "Ġamaz": 2379,
      "Ġjohn": 2380,
      "Ġfeels": 2381,
      "Ġpract": 2382,
      "Ġpaint": 2383,
      "sidered": 2384,
      "Ġboring": 2385,
      "Ġstole": 2386,
      "Ġvoice": 2387,
      "Ġthousand": 2388,
      "Ġjealous": 2389,
      "Ġcustom": 2390,
      "Ġcuri": 2391,
      "ific": 2392,
      "Ġbridge": 2393,
      "Ġflight": 2394,
      "Ġpersu": 2395,
      "Ġlanguages": 2396,
      "Ġcalm": 2397,
      "Ġsimple": 2398,
      "Ġunivers": 2399,
      "rap": 2400,
      "Ġdad": 2401,
      "Ġburn": 2402,
      "vest": 2403,
      "Ġcool": 2404,
      "Ġfac": 2405,
      "Ġfaster": 2406,
      "Ġnative": 2407,
      "Ġbeat": 2408,
      "Ġmeal": 2409,
      "Ġstood": 2410,
      "ounded": 2411,
      "Ġawake": 2412,
      "arely": 2413,
      "Ġacting": 2414,
      "Ġparis": 2415,
      "Ġreceived": 2416,
      "Ġenemy": 2417,
      "ef": 2418,
      "ume": 2419,
      "Ġbat": 2420,
      "Ġcars": 2421,
      "Ġopt": 2422,
      "Ġimpro": 2423,
      "Ġflu": 2424,
      "Ġmissing": 2425,
      "Ġdivor": 2426,
      "Ġinstead": 2427,
      "Ġdemand": 2428,
      "Ġeurope": 2429,
      "Ġproposal": 2430,
      "Ġgreen": 2431,
      "Ġweb": 2432,
      "une": 2433,
      "Ġtears": 2434,
      "Ġchur": 2435,
      "Ġconsidered": 2436,
      "Ġproject": 2437,
      "ments": 2438,
      "Ġfrance": 2439,
      "Ġslowly": 2440,
      "Ġpopular": 2441,
      "Ġfresh": 2442,
      "Ġparticular": 2443,
      "ines": 2444,
      "Ġgra": 2445,
      "Ġgrew": 2446,
      "unt": 2447,
      "ppy": 2448,
      "Ġprof": 2449,
      "Ġfear": 2450,
      "Ġcalling": 2451,
      "Ġscream": 2452,
      "Ġattract": 2453,
      "Ġcommon": 2454,
      "Ġextremely": 2455,
      "Ġmill": 2456,
      "Ġmap": 2457,
      "Ġmouth": 2458,
      "Ġcent": 2459,
      "Ġgiving": 2460,
      "Ġhide": 2461,
      "Ġoct": 2462,
      "Ġwashing": 2463,
      "Ġteeth": 2464,
      "ilty": 2465,
      "Ġhelping": 2466,
      "Ġclub": 2467,
      "Ġvill": 2468,
      "Ġfeet": 2469,
      "Ġguilty": 2470,
      "Ġpolite": 2471,
      "Ġrob": 2472,
      "Ġexpecting": 2473,
      "Ġvisited": 2474,
      "Ġescape": 2475,
      "Ġapartment": 2476,
      "Ġbreath": 2477,
      "Ġstraight": 2478,
      "Ġbaseball": 2479,
      "Ġchurch": 2480,
      "ging": 2481,
      "ober": 2482,
      "uc": 2483,
      "Ġ5": 2484,
      "Ġdirty": 2485,
      "Ġgas": 2486,
      "Ġgar": 2487,
      "Ġforced": 2488,
      "usted": 2489,
      "Ġworst": 2490,
      "Ġunc": 2491,
      "Ġmanager": 2492,
      "Ġsea": 2493,
      "Ġpeace": 2494,
      "Ġpoc": 2495,
      "Ġsched": 2496,
      "ables": 2497,
      "ency": 2498,
      "Ġexplan": 2499,
      "Ġsubject": 2500,
      "Ġavoid": 2501,
      "Ġtalent": 2502,
      "Ġoctober": 2503,
      "ror": 2504,
      "Ġcried": 2505,
      "Ġpot": 2506,
      "arch": 2507,
      "arter": 2508,
      "Ġnotice": 2509,
      "uts": 2510,
      "acks": 2511,
      "mbers": 2512,
      "Ġaccount": 2513,
      "Ġattack": 2514,
      "bey": 2515,
      "Ġneighbors": 2516,
      "Ġcourse": 2517,
      "Ġmemory": 2518,
      "ram": 2519,
      "Ġsort": 2520,
      "oted": 2521,
      "ache": 2522,
      "Ġtight": 2523,
      "Ġexcept": 2524,
      "Ġexerc": 2525,
      "Ġwatched": 2526,
      "Ġkeeps": 2527,
      "Ġdrinks": 2528,
      "teen": 2529,
      "Ġbrothers": 2530,
      "Ġstanding": 2531,
      "Ġtemper": 2532,
      "Ġtype": 2533,
      "Ġopportunity": 2534,
      "ches": 2535,
      "min": 2536,
      "acket": 2537,
      "Ġrum": 2538,
      "rent": 2539,
      "Ġcard": 2540,
      "Ġappoint": 2541,
      "Ġhates": 2542,
      "Ġ10": 2543,
      "Ġchocol": 2544,
      "Ġcomplaining": 2545,
      "Ġgunsh": 2546,
      "Ġartic": 2547,
      "Ġlocked": 2548,
      "ule": 2549,
      "uge": 2550,
      "Ġsqu": 2551,
      "Ġmood": 2552,
      "Ġbri": 2553,
      "Ġbored": 2554,
      "Ġste": 2555,
      "Ġtalks": 2556,
      "Ġprevent": 2557,
      "Ġlazy": 2558,
      "Ġresult": 2559,
      "Ġmeaning": 2560,
      "Ġsinger": 2561,
      "Ġexcited": 2562,
      "Ġcertainly": 2563,
      "Ġsolution": 2564,
      "Ġresponsible": 2565,
      "Ġcontinue": 2566,
      "Ġuniversity": 2567,
      "mar": 2568,
      "umb": 2569,
      "Ġbike": 2570,
      "Ġfed": 2571,
      "ories": 2572,
      "ety": 2573,
      "Ġsocc": 2574,
      "Ġcause": 2575,
      "astic": 2576,
      "Ġeats": 2577,
      "Ġstuck": 2578,
      "Ġprices": 2579,
      "Ġaccomp": 2580,
      "Ġrains": 2581,
      "Ġfollowing": 2582,
      "Ġcrit": 2583,
      "Ġspoken": 2584,
      "Ġcell": 2585,
      "Ġwallet": 2586,
      "Ġreturned": 2587,
      "Ġidi": 2588,
      "Ġsuitcase": 2589,
      "Ġnormal": 2590,
      "Ġsoccer": 2591,
      "hol": 2592,
      "line": 2593,
      "mon": 2594,
      "ns": 2595,
      "sy": 2596,
      "Ġer": 2597,
      "Ġmot": 2598,
      "lled": 2599,
      "Ġnor": 2600,
      "under": 2601,
      "Ġsuff": 2602,
      "ained": 2603,
      "ural": 2604,
      "Ġexha": 2605,
      "Ġune": 2606,
      "Ġlistened": 2607,
      "Ġnearly": 2608,
      "Ġexplained": 2609,
      "Ġhiding": 2610,
      "ho": 2611,
      "res": 2612,
      "Ġlow": 2613,
      "Ġhey": 2614,
      "Ġky": 2615,
      "Ġcance": 2616,
      "Ġgold": 2617,
      "Ġnose": 2618,
      "Ġcaused": 2619,
      "Ġamong": 2620,
      "izz": 2621,
      "Ġcomfortable": 2622,
      "Ġsingle": 2623,
      "Ġearthqu": 2624,
      "Ġchina": 2625,
      "Ġpurp": 2626,
      "Ġannoy": 2627,
      "Ġprivate": 2628,
      "iliar": 2629,
      "Ġabsolutely": 2630,
      "Ġfurther": 2631,
      "Ġvillage": 2632,
      "Ġexplanation": 2633,
      "een": 2634,
      "na": 2635,
      "Ġtill": 2636,
      "Ġmention": 2637,
      "oth": 2638,
      "Ġstamp": 2639,
      "Ġfriendly": 2640,
      "ards": 2641,
      "Ġlots": 2642,
      "uel": 2643,
      "Ġimpress": 2644,
      "Ġshoot": 2645,
      "Ġgrowing": 2646,
      "Ġrule": 2647,
      "Ġpicked": 2648,
      "Ġescap": 2649,
      "Ġurg": 2650,
      "rit": 2651,
      "Ġwise": 2652,
      "Ġfright": 2653,
      "Ġreach": 2654,
      "Ġlic": 2655,
      "Ġneg": 2656,
      "Ġknock": 2657,
      "Ġrice": 2658,
      "ighted": 2659,
      "ilar": 2660,
      "Ġdev": 2661,
      "Ġself": 2662,
      "apers": 2663,
      "Ġfamiliar": 2664,
      "Ġbigger": 2665,
      "temp": 2666,
      "Ġbedroom": 2667,
      "Ġrope": 2668,
      "Ġrecently": 2669,
      "Ġlights": 2670,
      "Ġentire": 2671,
      "Ġdepart": 2672,
      "Ġsongs": 2673,
      "Ġrude": 2674,
      "Ġsalt": 2675,
      "Ġtickets": 2676,
      "ergy": 2677,
      "Ġshocked": 2678,
      "Ġcurious": 2679,
      "Ġschedule": 2680,
      "underst": 2681,
      "hip": 2682,
      "Ġau": 2683,
      "haps": 2684,
      "Ġdrow": 2685,
      "Ġbark": 2686,
      "Ġnat": 2687,
      "Ġpizz": 2688,
      "Ġlift": 2689,
      "Ġstarting": 2690,
      "Ġperhaps": 2691,
      "Ġbirds": 2692,
      "Ġdepressed": 2693,
      "Ġgrandm": 2694,
      "Ġtotally": 2695,
      "Ġappointment": 2696,
      "eared": 2697,
      "Ġyen": 2698,
      "Ġble": 2699,
      "Ġfil": 2700,
      "Ġpush": 2701,
      "Ġinvest": 2702,
      "Ġreached": 2703,
      "Ġstone": 2704,
      "Ġsteal": 2705,
      "Ġunha": 2706,
      "Ġunited": 2707,
      "Ġenergy": 2708,
      "Ġamb": 2709,
      "Ġclock": 2710,
      "Ġclever": 2711,
      "Ġshar": 2712,
      "Ġskin": 2713,
      "Ġentered": 2714,
      "Ġobject": 2715,
      "Ġconfused": 2716,
      "000": 2717,
      "Ġcollect": 2718,
      "Ġconvince": 2719,
      "Ġtaste": 2720,
      "Ġsusp": 2721,
      "Ġholiday": 2722,
      "Ġpermission": 2723,
      "Ġwoke": 2724,
      "rupt": 2725,
      "Ġinnocent": 2726,
      "Ġmillion": 2727,
      "Ġpurpose": 2728,
      "ude": 2729,
      "Ġaut": 2730,
      "Ġdam": 2731,
      "Ġdue": 2732,
      "Ġbright": 2733,
      "Ġcream": 2734,
      "Ġheat": 2735,
      "Ġnine": 2736,
      "Ġhabit": 2737,
      "Ġform": 2738,
      "Ġking": 2739,
      "Ġnoticed": 2740,
      "Ġshy": 2741,
      "Ġchick": 2742,
      "Ġplayer": 2743,
      "Ġunderstood": 2744,
      "Ġmatch": 2745,
      "Ġcontact": 2746,
      "Ġletters": 2747,
      "Ġrealized": 2748,
      "Ġwindows": 2749,
      "Ġdreams": 2750,
      "Ġenter": 2751,
      "Ġhealthy": 2752,
      "Ġdelighted": 2753,
      "Ġsuspect": 2754,
      "Ġgradu": 2755,
      "Ġchocolate": 2756,
      "Ġarticle": 2757,
      "cious": 2758,
      "el": 2759,
      "nect": 2760,
      "Ġthreat": 2761,
      "oto": 2762,
      "Ġrang": 2763,
      "Ġcamp": 2764,
      "amed": 2765,
      "Ġprove": 2766,
      "cks": 2767,
      "ified": 2768,
      "Ġtwenty": 2769,
      "Ġmistaken": 2770,
      "Ġsatur": 2771,
      "ibly": 2772,
      "Ġ20": 2773,
      "Ġimagine": 2774,
      "Ġclimb": 2775,
      "Ġmisunderst": 2776,
      "Ġraise": 2777,
      "Ġmagaz": 2778,
      "Ġlady": 2779,
      "Ġproduct": 2780,
      "Ġvegetables": 2781,
      "Ġgrab": 2782,
      "Ġidiot": 2783,
      "Ġkyoto": 2784,
      "Ġlicense": 2785,
      "aive": 2786,
      "iers": 2787,
      "Ġsoup": 2788,
      "Ġnaive": 2789,
      "Ġpic": 2790,
      "Ġweak": 2791,
      "ato": 2792,
      "Ġstates": 2793,
      "ury": 2794,
      "Ġdelic": 2795,
      "Ġmoon": 2796,
      "Ġintend": 2797,
      "Ġpoem": 2798,
      "Ġguest": 2799,
      "Ġscen": 2800,
      "Ġanswered": 2801,
      "Ġchess": 2802,
      "Ġpretend": 2803,
      "Ġcountries": 2804,
      "Ġevent": 2805,
      "Ġdropped": 2806,
      "Ġtranslate": 2807,
      "Ġoccur": 2808,
      "Ġauth": 2809,
      "Ġsaturday": 2810,
      "rat": 2811,
      "Ġmir": 2812,
      "Ġtheory": 2813,
      "vered": 2814,
      "ising": 2815,
      "Ġnap": 2816,
      "Ġhuge": 2817,
      "esome": 2818,
      "ulation": 2819,
      "Ġgoodby": 2820,
      "Ġmanage": 2821,
      "Ġproper": 2822,
      "icked": 2823,
      "omm": 2824,
      "Ġhearing": 2825,
      "Ġresults": 2826,
      "Ġengine": 2827,
      "Ġemploy": 2828,
      "Ġfighting": 2829,
      "Ġsilent": 2830,
      "Ġmaj": 2831,
      "Ġmurder": 2832,
      "Ġexercise": 2833,
      "Ġurgent": 2834,
      "Ġpizza": 2835,
      "cy": 2836,
      "Ġaud": 2837,
      "Ġban": 2838,
      "Ġobey": 2839,
      "Ġisland": 2840,
      "Ġbear": 2841,
      "ldom": 2842,
      "Ġequ": 2843,
      "anted": 2844,
      "Ġnote": 2845,
      "ional": 2846,
      "Ġaband": 2847,
      "Ġcovered": 2848,
      "Ġloc": 2849,
      "Ġunless": 2850,
      "Ġcab": 2851,
      "Ġseldom": 2852,
      "ational": 2853,
      "Ġspot": 2854,
      "Ġview": 2855,
      "Ġcalls": 2856,
      "Ġflat": 2857,
      "Ġdesp": 2858,
      "Ġpassport": 2859,
      "Ġcookies": 2860,
      "Ġforgotten": 2861,
      "Ġincred": 2862,
      "ship": 2863,
      "Ġsweater": 2864,
      "Ġdeter": 2865,
      "Ġhuman": 2866,
      "Ġtastes": 2867,
      "ney": 2868,
      "Ġzoo": 2869,
      "Ġjudge": 2870,
      "conom": 2871,
      "Ġattractive": 2872,
      "Ġescaped": 2873,
      "gest": 2874,
      "Ġben": 2875,
      "ides": 2876,
      "Ġeconom": 2877,
      "Ġattemp": 2878,
      "ify": 2879,
      "Ġvote": 2880,
      "Ġbetr": 2881,
      "Ġbelieved": 2882,
      "Ġawesome": 2883,
      "Ġchanges": 2884,
      "irsty": 2885,
      "Ġadvant": 2886,
      "Ġtruck": 2887,
      "Ġrecomm": 2888,
      "Ġshall": 2889,
      "Ġkidding": 2890,
      "Ġended": 2891,
      "Ġtraveling": 2892,
      "Ġclearly": 2893,
      "Ġphoto": 2894,
      "Ġmiddle": 2895,
      "Ġskiing": 2896,
      "Ġembarrassed": 2897,
      "Ġexhausted": 2898,
      "Ġgrandmother": 2899,
      "Ġunhappy": 2900,
      "Ġsharp": 2901,
      "bby": 2902,
      "gth": 2903,
      "nic": 2904,
      "old": 2905,
      "vior": 2906,
      "Ġtour": 2907,
      "Ġtoward": 2908,
      "Ġlit": 2909,
      "Ġlay": 2910,
      "Ġhero": 2911,
      "Ġpool": 2912,
      "Ġhy": 2913,
      "Ġthief": 2914,
      "Ġwet": 2915,
      "Ġcancer": 2916,
      "Ġgolf": 2917,
      "Ġtext": 2918,
      "Ġusual": 2919,
      "Ġmanaged": 2920,
      "Ġwhenever": 2921,
      "Ġdrug": 2922,
      "Ġacqu": 2923,
      "Ġsmarter": 2924,
      "Ġgroup": 2925,
      "Ġengland": 2926,
      "Ġconcerned": 2927,
      "Ġlosing": 2928,
      "Ġgoodbye": 2929,
      "ks": 2930,
      "od": 2931,
      "tic": 2932,
      "Ġcash": 2933,
      "Ġfro": 2934,
      "lling": 2935,
      "Ġbell": 2936,
      "Ġremo": 2937,
      "unately": 2938,
      "Ġjacket": 2939,
      "Ġabove": 2940,
      "Ġconst": 2941,
      "Ġharm": 2942,
      "Ġscient": 2943,
      "Ġpretended": 2944,
      "Ġmatters": 2945,
      "Ġgames": 2946,
      "ording": 2947,
      "Ġdistur": 2948,
      "Ġlegs": 2949,
      "Ġavail": 2950,
      "Ġbehavior": 2951,
      "Ġpossibility": 2952,
      "Ġamazing": 2953,
      "Ġauthor": 2954,
      "gers": 2955,
      "iest": 2956,
      "Ġach": 2957,
      "orn": 2958,
      "Ġpu": 2959,
      "Ġital": 2960,
      "Ġemer": 2961,
      "Ġrepe": 2962,
      "stem": 2963,
      "aces": 2964,
      "aint": 2965,
      "fered": 2966,
      "Ġvide": 2967,
      "ieved": 2968,
      "Ġdishes": 2969,
      "Ġoper": 2970,
      "Ġcheap": 2971,
      "Ġsisters": 2972,
      "Ġtrusted": 2973,
      "Ġpoliceman": 2974,
      "Ġpunished": 2975,
      "Ġeduc": 2976,
      "Ġelectric": 2977,
      "Ġdirect": 2978,
      "Ġtough": 2979,
      "hered": 2980,
      "Ġcir": 2981,
      "Ġcred": 2982,
      "Ġnuts": 2983,
      "iting": 2984,
      "itch": 2985,
      "Ġweap": 2986,
      "rib": 2987,
      "tern": 2988,
      "Ġeverywhere": 2989,
      "Ġunf": 2990,
      "Ġconnect": 2991,
      "Ġbrave": 2992,
      "Ġdise": 2993,
      "Ġexpress": 2994,
      "Ġteachers": 2995,
      "Ġdescri": 2996,
      "Ġdiet": 2997,
      "Ġincre": 2998,
      "Ġprize": 2999,
      "ences": 3000,
      "Ġdistance": 3001,
      "Ġassist": 3002,
      "Ġteaching": 3003,
      "Ġimagination": 3004,
      "Ġsoldiers": 3005,
      "Ġearthquake": 3006,
      "Ġdeterm": 3007,
      "Ġadvantage": 3008,
      "oc": 3009,
      "Ġcous": 3010,
      "ases": 3011,
      "Ġwashed": 3012,
      "Ġjour": 3013,
      "acy": 3014,
      "Ġanyway": 3015,
      "Ġsomed": 3016,
      "Ġupstairs": 3017,
      "Ġexce": 3018,
      "Ġexamp": 3019,
      "Ġloss": 3020,
      "Ġcapt": 3021,
      "Ġcarried": 3022,
      "Ġcards": 3023,
      "Ġbutter": 3024,
      "ures": 3025,
      "Ġoldest": 3026,
      "Ġthemselves": 3027,
      "ograp": 3028,
      "Ġpaying": 3029,
      "Ġserv": 3030,
      "Ġspends": 3031,
      "Ġdiary": 3032,
      "Ġcruel": 3033,
      "Ġintern": 3034,
      "Ġaccepted": 3035,
      "overed": 3036,
      "Ġfilled": 3037,
      "Ġdancing": 3038,
      "Ġsandw": 3039,
      "Ġobviously": 3040,
      "Ġprofess": 3041,
      "Ġnatural": 3042,
      "Ġsomeday": 3043,
      "apped": 3044,
      "den": 3045,
      "eg": 3046,
      "ker": 3047,
      "lies": 3048,
      "zen": 3049,
      "ining": 3050,
      "Ġdent": 3051,
      "Ġcre": 3052,
      "Ġcig": 3053,
      "Ġnur": 3054,
      "itation": 3055,
      "Ġmoving": 3056,
      "Ġvict": 3057,
      "Ġspeaker": 3058,
      "Ġcomplic": 3059,
      "Ġprin": 3060,
      "Ġdisg": 3061,
      "Ġdisag": 3062,
      "Ġaccording": 3063,
      "Ġstranger": 3064,
      "Ġheadache": 3065,
      "Ġconfident": 3066,
      "Ġthird": 3067,
      "Ġforever": 3068,
      "Ġperfectly": 3069,
      "Ġpunct": 3070,
      "Ġsystem": 3071,
      "Ġunlike": 3072,
      "Ġintroduce": 3073,
      "Ġdenied": 3074,
      "Ġfinger": 3075,
      "Ġcredit": 3076,
      "do": 3077,
      "mit": 3078,
      "yed": 3079,
      "Ġband": 3080,
      "Ġgho": 3081,
      "Ġpred": 3082,
      "ashed": 3083,
      "Ġstock": 3084,
      "iment": 3085,
      "Ġtells": 3086,
      "Ġsports": 3087,
      "Ġbrush": 3088,
      "Ġhobby": 3089,
      "Ġourselves": 3090,
      "ires": 3091,
      "Ġanswers": 3092,
      "Ġnames": 3093,
      "Ġspending": 3094,
      "Ġsimilar": 3095,
      "Ġignore": 3096,
      "Ġrumor": 3097,
      "Ġgunshot": 3098,
      "Ġchicken": 3099,
      "Ġavailable": 3100,
      "Ġemerg": 3101,
      "Ġexcell": 3102,
      "Ġghost": 3103,
      "cut": 3104,
      "ees": 3105,
      "gl": 3106,
      "ued": 3107,
      "Ġ4": 3108,
      "Ġtur": 3109,
      "Ġsize": 3110,
      "Ġhesit": 3111,
      "Ġhous": 3112,
      "Ġhired": 3113,
      "Ġthirsty": 3114,
      "irm": 3115,
      "Ġhappiness": 3116,
      "Ġunfort": 3117,
      "Ġprov": 3118,
      "Ġcheer": 3119,
      "Ġintell": 3120,
      "Ġeasier": 3121,
      "Ġfriday": 3122,
      "Ġrecord": 3123,
      "Ġdiscussion": 3124,
      "Ġinstru": 3125,
      "Ġstaring": 3126,
      "Ġpostp": 3127,
      "Ġorganized": 3128,
      "Ġburned": 3129,
      "Ġexcellent": 3130,
      "ler": 3131,
      "mat": 3132,
      "Ġdying": 3133,
      "ings": 3134,
      "llen": 3135,
      "Ġhire": 3136,
      "Ġoil": 3137,
      "Ġdocu": 3138,
      "uses": 3139,
      "Ġlies": 3140,
      "Ġwithin": 3141,
      "Ġsuic": 3142,
      "Ġcops": 3143,
      "Ġshoulder": 3144,
      "ield": 3145,
      "Ġcla": 3146,
      "Ġpos": 3147,
      "Ġears": 3148,
      "Ġbott": 3149,
      "Ġairpl": 3150,
      "Ġfailure": 3151,
      "Ġpopulation": 3152,
      "Ġfairly": 3153,
      "Ġhoping": 3154,
      "Ġcapital": 3155,
      "Ġcopy": 3156,
      "Ġfacts": 3157,
      "Ġtemperature": 3158,
      "Ġpicnic": 3159,
      "Ġvideo": 3160,
      "Ġdentist": 3161,
      "Ġcomplicated": 3162,
      "Ġpunctual": 3163,
      "Ġunlikely": 3164,
      "Ġemergency": 3165,
      "Ġintellig": 3166,
      "form": 3167,
      "Ġ3": 3168,
      "Ġ8": 3169,
      "Ġaim": 3170,
      "Ġcast": 3171,
      "Ġfle": 3172,
      "Ġgent": 3173,
      "using": 3174,
      "ung": 3175,
      "unte": 3176,
      "Ġjail": 3177,
      "Ġrace": 3178,
      "Ġroof": 3179,
      "ainted": 3180,
      "Ġusing": 3181,
      "urance": 3182,
      "Ġintention": 3183,
      "Ġgives": 3184,
      "Ġcareless": 3185,
      "Ġdownstairs": 3186,
      "Ġhurts": 3187,
      "Ġruns": 3188,
      "ians": 3189,
      "Ġhighly": 3190,
      "Ġamericans": 3191,
      "Ġcosts": 3192,
      "Ġarms": 3193,
      "Ġhorri": 3194,
      "Ġartist": 3195,
      "Ġexamination": 3196,
      "Ġexplos": 3197,
      "Ġcrimin": 3198,
      "Ġvolunte": 3199,
      "Ġintroduced": 3200,
      "Ġpractice": 3201,
      "Ġcritic": 3202,
      "Ġsuspic": 3203,
      "light": 3204,
      "ners": 3205,
      "over": 3206,
      "ses": 3207,
      "Ġtou": 3208,
      "Ġwis": 3209,
      "Ġsens": 3210,
      "Ġdry": 3211,
      "Ġdating": 3212,
      "Ġbite": 3213,
      "ves": 3214,
      "Ġwears": 3215,
      "key": 3216,
      "Ġmeals": 3217,
      "Ġrese": 3218,
      "Ġstom": 3219,
      "Ġcoin": 3220,
      "Ġsaf": 3221,
      "Ġmarket": 3222,
      "Ġconvers": 3223,
      "Ġqual": 3224,
      "Ġfever": 3225,
      "Ġmayor": 3226,
      "Ġcompet": 3227,
      "Ġbelieves": 3228,
      "Ġreply": 3229,
      "Ġinsurance": 3230,
      "Ġdetails": 3231,
      "Ġremained": 3232,
      "Ġjumped": 3233,
      "cohol": 3234,
      "Ġsupermar": 3235,
      "Ġemail": 3236,
      "Ġdestro": 3237,
      "Ġgarage": 3238,
      "Ġfrightened": 3239,
      "Ġdelicious": 3240,
      "Ġnurse": 3241,
      "Ġgentle": 3242,
      "arest": 3243,
      "iable": 3244,
      "ked": 3245,
      "Ġ6": 3246,
      "Ġdish": 3247,
      "Ġmaster": 3248,
      "ones": 3249,
      "Ġbrow": 3250,
      "Ġfurn": 3251,
      "Ġthrew": 3252,
      "lebr": 3253,
      "Ġef": 3254,
      "Ġreti": 3255,
      "Ġstri": 3256,
      "Ġnearest": 3257,
      "ives": 3258,
      "Ġoffended": 3259,
      "Ġchildhood": 3260,
      "Ġdoors": 3261,
      "Ġuseful": 3262,
      "Ġrained": 3263,
      "aret": 3264,
      "Ġacted": 3265,
      "Ġshape": 3266,
      "Ġconcent": 3267,
      "Ġrefuse": 3268,
      "Ġcelebr": 3269,
      "Ġfixed": 3270,
      "Ġcourage": 3271,
      "Ġtreated": 3272,
      "Ġresponsibility": 3273,
      "Ġwoods": 3274,
      "Ġprogram": 3275,
      "Ġrecommend": 3276,
      "Ġdisease": 3277,
      "Ġsupermarket": 3278,
      "Ġretired": 3279,
      "gly": 3280,
      "hy": 3281,
      "sc": 3282,
      "Ġver": 3283,
      "Ġhi": 3284,
      "Ġstren": 3285,
      "icer": 3286,
      "Ġarea": 3287,
      "Ġalar": 3288,
      "Ġnoon": 3289,
      "ulty": 3290,
      "Ġunable": 3291,
      "ateful": 3292,
      "Ġworkers": 3293,
      "Ġsearch": 3294,
      "Ġwherever": 3295,
      "Ġmode": 3296,
      "Ġspace": 3297,
      "Ġhurried": 3298,
      "Ġresign": 3299,
      "Ġgrateful": 3300,
      "Ġfoods": 3301,
      "Ġpromises": 3302,
      "Ġwinning": 3303,
      "Ġilleg": 3304,
      "Ġborrowed": 3305,
      "Ġprisoners": 3306,
      "Ġsuggested": 3307,
      "Ġneighborhood": 3308,
      "Ġbasket": 3309,
      "Ġguests": 3310,
      "Ġmajor": 3311,
      "Ġbetrayed": 3312,
      "Ġexample": 3313,
      "Ġsuicide": 3314,
      "Ġposition": 3315,
      "Ġsafety": 3316,
      "Ġconversation": 3317,
      "Ġeffect": 3318,
      "Ġconcentr": 3319,
      "par": 3320,
      "ues": 3321,
      "xious": 3322,
      "Ġ30": 3323,
      "rets": 3324,
      "Ġsang": 3325,
      "Ġtowe": 3326,
      "Ġbarely": 3327,
      "Ġcouch": 3328,
      "llo": 3329,
      "orter": 3330,
      "Ġnar": 3331,
      "Ġpet": 3332,
      "Ġpage": 3333,
      "ery": 3334,
      "Ġhill": 3335,
      "Ġmembers": 3336,
      "Ġgoal": 3337,
      "tery": 3338,
      "ains": 3339,
      "Ġsof": 3340,
      "Ġalcohol": 3341,
      "Ġmarri": 3342,
      "Ġexist": 3343,
      "ulous": 3344,
      "Ġdece": 3345,
      "Ġjokes": 3346,
      "osen": 3347,
      "Ġscar": 3348,
      "Ġsurf": 3349,
      "Ġkinds": 3350,
      "Ġinvitation": 3351,
      "Ġenjoying": 3352,
      "Ġpassen": 3353,
      "Ġdifficulty": 3354,
      "Ġslight": 3355,
      "Ġsmaller": 3356,
      "Ġexchan": 3357,
      "Ġcleaned": 3358,
      "perate": 3359,
      "Ġwriter": 3360,
      "Ġugly": 3361,
      "Ġsalary": 3362,
      "ashion": 3363,
      "Ġsolved": 3364,
      "Ġclimbed": 3365,
      "Ġcrossed": 3366,
      "Ġcloser": 3367,
      "Ġdepends": 3368,
      "Ġrequest": 3369,
      "Ġleader": 3370,
      "Ġarguing": 3371,
      "Ġpocket": 3372,
      "Ġmagazine": 3373,
      "Ġabandoned": 3374,
      "Ġcigaret": 3375,
      "Ġhouses": 3376,
      "Ġexplosion": 3377,
      "aired": 3378,
      "Ġ$": 3379,
      "Ġtend": 3380,
      "Ġtooth": 3381,
      "eding": 3382,
      "Ġnaked": 3383,
      "Ġhig": 3384,
      "itive": 3385,
      "iture": 3386,
      "Ġwasting": 3387,
      "Ġstate": 3388,
      "antly": 3389,
      "Ġtrick": 3390,
      "Ġenc": 3391,
      "Ġchosen": 3392,
      "Ġcloud": 3393,
      "Ġlovely": 3394,
      "Ġaccustom": 3395,
      "icted": 3396,
      "Ġadvance": 3397,
      "Ġgrass": 3398,
      "Ġcheese": 3399,
      "Ġhung": 3400,
      "Ġrepair": 3401,
      "Ġfarm": 3402,
      "Ġexciting": 3403,
      "Ġcomplained": 3404,
      "bitious": 3405,
      "Ġsucceeded": 3406,
      "Ġsmells": 3407,
      "Ġfoolish": 3408,
      "Ġraised": 3409,
      "Ġpleasure": 3410,
      "Ġtalented": 3411,
      "Ġstamps": 3412,
      "Ġdrowned": 3413,
      "Ġeventually": 3414,
      "Ġoccurred": 3415,
      "Ġfurniture": 3416,
      "Ġsofa": 3417,
      "ipped": 3418,
      "lished": 3419,
      "tes": 3420,
      "âĢ": 3421,
      "Ġwore": 3422,
      "Ġfence": 3423,
      "ances": 3424,
      "ism": 3425,
      "Ġgreet": 3426,
      "Ġpsy": 3427,
      "Ġhug": 3428,
      "Ġiss": 3429,
      "Ġinvent": 3430,
      "lect": 3431,
      "Ġrely": 3432,
      "Ġjacks": 3433,
      "Ġability": 3434,
      "Ġsoft": 3435,
      "Ġsale": 3436,
      "Ġsaving": 3437,
      "Ġsepar": 3438,
      "Ġspread": 3439,
      "board": 3440,
      "Ġsmiled": 3441,
      "Ġpron": 3442,
      "Ġapply": 3443,
      "Ġhanded": 3444,
      "oming": 3445,
      "Ġimpat": 3446,
      "Ġflower": 3447,
      "Ġfriendship": 3448,
      "Ġhated": 3449,
      "Ġground": 3450,
      "Ġbadly": 3451,
      "Ġrock": 3452,
      "Ġrepaired": 3453,
      "Ġdrives": 3454,
      "Ġclassroom": 3455,
      "Ġremark": 3456,
      "Ġfootball": 3457,
      "Ġbelongs": 3458,
      "Ġsurvive": 3459,
      "Ġpersuade": 3460,
      "Ġdivorced": 3461,
      "Ġmisunderstand": 3462,
      "atoes": 3463,
      "Ġcousin": 3464,
      "Ġmodel": 3465,
      "af": 3466,
      "bb": 3467,
      "Ġdiz": 3468,
      "Ġcong": 3469,
      "Ġpill": 3470,
      "Ġpushed": 3471,
      "Ġthin": 3472,
      "Ġstairs": 3473,
      "iche": 3474,
      "Ġrab": 3475,
      "Ġteen": 3476,
      "Ġlog": 3477,
      "Ġjoking": 3478,
      "Ġlately": 3479,
      "Ġfoc": 3480,
      "Ġcontract": 3481,
      "Ġrepl": 3482,
      "Ġwondering": 3483,
      "Ġworrying": 3484,
      "Ġchecked": 3485,
      "Ġorders": 3486,
      "Ġillness": 3487,
      "Ġbathroom": 3488,
      "Ġpulled": 3489,
      "Ġbanan": 3490,
      "Ġeducation": 3491,
      "Ġairplane": 3492,
      "Ġmarriage": 3493,
      "Ġaccustomed": 3494,
      "Ġimpatient": 3495,
      "Ġdizzy": 3496,
      "go": 3497,
      "ta": 3498,
      "zz": 3499,
      "Ġcreat": 3500,
      "Ġfile": 3501,
      "Ġfashion": 3502,
      "Ġnerve": 3503,
      "Ġgam": 3504,
      "Ġpity": 3505,
      "Ġodd": 3506,
      "Ġmel": 3507,
      "ically": 3508,
      "Ġcand": 3509,
      "imid": 3510,
      "Ġaffect": 3511,
      "Ġpoison": 3512,
      "Ġproof": 3513,
      "Ġblock": 3514,
      "Ġfinding": 3515,
      "Ġmath": 3516,
      "Ġstudies": 3517,
      "cient": 3518,
      "Ġchallen": 3519,
      "Ġinvite": 3520,
      "Ġdoctors": 3521,
      "Ġserved": 3522,
      "Ġparked": 3523,
      "Ġobs": 3524,
      "Ġfallen": 3525,
      "Ġpieces": 3526,
      "Ġseats": 3527,
      "Ġextra": 3528,
      "Ġindust": 3529,
      "Ġgermany": 3530,
      "Ġiron": 3531,
      "Ġeffort": 3532,
      "Ġviolin": 3533,
      "Ġprogress": 3534,
      "Ġpersuaded": 3535,
      "Ġnegot": 3536,
      "Ġdamage": 3537,
      "Ġdisagree": 3538,
      "Ġunfortunately": 3539,
      "Ġillegal": 3540,
      "lish": 3541,
      "oon": 3542,
      "Ġaunt": 3543,
      "Ġtong": 3544,
      "Ġdare": 3545,
      "Ġmerc": 3546,
      "Ġcoo": 3547,
      "Ġhello": 3548,
      "ening": 3549,
      "Ġpan": 3550,
      "asons": 3551,
      "itude": 3552,
      "Ġwealth": 3553,
      "Ġmeas": 3554,
      "Ġanxious": 3555,
      "Ġstars": 3556,
      "Ġround": 3557,
      "Ġallerg": 3558,
      "Ġaltern": 3559,
      "Ġplants": 3560,
      "Ġwhoever": 3561,
      "Ġadop": 3562,
      "Ġbull": 3563,
      "Ġorig": 3564,
      "Ġparties": 3565,
      "Ġplanned": 3566,
      "Ġpale": 3567,
      "Ġperform": 3568,
      "Ġbeauty": 3569,
      "Ġdiv": 3570,
      "Ġincl": 3571,
      "Ġarmy": 3572,
      "Ġfalling": 3573,
      "Ġsundays": 3574,
      "Ġselling": 3575,
      "Ġignored": 3576,
      "Ġsymp": 3577,
      "Ġburst": 3578,
      "Ġrelaxed": 3579,
      "Ġmidnight": 3580,
      "Ġevidence": 3581,
      "Ġprevented": 3582,
      "Ġinvestig": 3583,
      "Ġsuspicious": 3584,
      "Ġtouched": 3585,
      "âĢĻ": 3586,
      "Ġtongue": 3587,
      "ji": 3588,
      "to": 3589,
      "hemat": 3590,
      "Ġast": 3591,
      "Ġwit": 3592,
      "Ġsouth": 3593,
      "Ġlat": 3594,
      "Ġmember": 3595,
      "Ġrev": 3596,
      "Ġsty": 3597,
      "Ġkil": 3598,
      "Ġshelf": 3599,
      "Ġrarely": 3600,
      "Ġseason": 3601,
      "Ġsport": 3602,
      "Ġcompared": 3603,
      "Ġdisl": 3604,
      "Ġjobs": 3605,
      "Ġscare": 3606,
      "Ġscience": 3607,
      "Ġmathemat": 3608,
      "Ġstrict": 3609,
      "Ġpercent": 3610,
      "Ġfrank": 3611,
      "ledge": 3612,
      "Ġconcl": 3613,
      "ology": 3614,
      "Ġthirteen": 3615,
      "Ġforest": 3616,
      "Ġelev": 3617,
      "Ġinterrupt": 3618,
      "Ġwrites": 3619,
      "Ġcorner": 3620,
      "Ġsuggestion": 3621,
      "Ġprepare": 3622,
      "Ġphotograp": 3623,
      "Ġignor": 3624,
      "Ġcontinued": 3625,
      "Ġyellow": 3626,
      "Ġfortune": 3627,
      "rently": 3628,
      "Ġbrief": 3629,
      "Ġskinny": 3630,
      "Ġgraduated": 3631,
      "Ġscene": 3632,
      "Ġaudience": 3633,
      "Ġsandwich": 3634,
      "Ġalternative": 3635,
      "gue": 3636,
      "phan": 3637,
      "town": 3638,
      "Ġtow": 3639,
      "inite": 3640,
      "Ġmain": 3641,
      "Ġbow": 3642,
      "Ġfond": 3643,
      "erved": 3644,
      "Ġhors": 3645,
      "aring": 3646,
      "ats": 3647,
      "Ġneck": 3648,
      "Ġknowing": 3649,
      "Ġrough": 3650,
      "Ġruss": 3651,
      "aka": 3652,
      "hand": 3653,
      "Ġloan": 3654,
      "Ġunus": 3655,
      "Ġnowhere": 3656,
      "ounds": 3657,
      "Ġfaith": 3658,
      "Ġscold": 3659,
      "Ġskill": 3660,
      "Ġrelig": 3661,
      "Ġreliable": 3662,
      "Ġdreaming": 3663,
      "Ġincome": 3664,
      "Ġpatience": 3665,
      "Ġassum": 3666,
      "Ġapproach": 3667,
      "Ġdeeply": 3668,
      "Ġpressure": 3669,
      "Ġefforts": 3670,
      "Ġfifty": 3671,
      "Ġdivorce": 3672,
      "Ġdemanded": 3673,
      "Ġentirely": 3674,
      "Ġstealing": 3675,
      "Ġintelligent": 3676,
      "Ġcoinc": 3677,
      "Ġstrength": 3678,
      "Ġjackson": 3679,
      "Ġnegoti": 3680,
      "Ġorigin": 3681,
      "ius": 3682,
      "saka": 3683,
      "word": 3684,
      "Ġda": 3685,
      "Ġtheater": 3686,
      "Ġfield": 3687,
      "anced": 3688,
      "Ġgate": 3689,
      "Ġosaka": 3690,
      "idays": 3691,
      "Ġanger": 3692,
      "Ġrele": 3693,
      "Ġmyster": 3694,
      "Ġwhis": 3695,
      "Ġje": 3696,
      "Ġplaces": 3697,
      "Ġgoods": 3698,
      "Ġenv": 3699,
      "essed": 3700,
      "Ġbomb": 3701,
      "Ġmoder": 3702,
      "Ġvase": 3703,
      "Ġours": 3704,
      "Ġawful": 3705,
      "Ġapplic": 3706,
      "Ġblow": 3707,
      "Ġscrew": 3708,
      "Ġdecl": 3709,
      "Ġphys": 3710,
      "Ġcontest": 3711,
      "Ġcleaning": 3712,
      "Ġbegins": 3713,
      "Ġelection": 3714,
      "Ġinfl": 3715,
      "Ġtraveled": 3716,
      "Ġruined": 3717,
      "Ġcomputers": 3718,
      "Ġcere": 3719,
      "Ġrespond": 3720,
      "Ġdetail": 3721,
      "Ġhonesty": 3722,
      "Ġanimal": 3723,
      "Ġsilence": 3724,
      "ounce": 3725,
      "Ġflying": 3726,
      "Ġbarking": 3727,
      "Ġcriminal": 3728,
      "Ġstomach": 3729,
      "Ġbrown": 3730,
      "Ġpsych": 3731,
      "Ġrabbit": 3732,
      "Ġmathematics": 3733,
      "Ġhorses": 3734,
      "men": 3735,
      "ron": 3736,
      "Ġess": 3737,
      "Ġtre": 3738,
      "oured": 3739,
      "Ġways": 3740,
      "Ġsour": 3741,
      "Ġbi": 3742,
      "Ġbass": 3743,
      "Ġcro": 3744,
      "Ġcoun": 3745,
      "Ġnature": 3746,
      "erk": 3747,
      "Ġoce": 3748,
      "Ġbeard": 3749,
      "Ġweigh": 3750,
      "Ġmeth": 3751,
      "Ġreasons": 3752,
      "und": 3753,
      "unate": 3754,
      "Ġju": 3755,
      "illy": 3756,
      "irts": 3757,
      "ores": 3758,
      "Ġhappier": 3759,
      "Ġambitious": 3760,
      "Ġgotta": 3761,
      "Ġargue": 3762,
      "Ġspell": 3763,
      "Ġhost": 3764,
      "Ġsmiling": 3765,
      "Ġbecoming": 3766,
      "anged": 3767,
      "Ġfinal": 3768,
      "Ġunderstands": 3769,
      "Ġunderstanding": 3770,
      "Ġadvise": 3771,
      "pected": 3772,
      "Ġteaches": 3773,
      "Ġshoe": 3774,
      "Ġcontent": 3775,
      "ucky": 3776,
      "Ġboxes": 3777,
      "Ġeleven": 3778,
      "velop": 3779,
      "Ġmiles": 3780,
      "Ġholding": 3781,
      "Ġdiscussed": 3782,
      "Ġadmire": 3783,
      "Ġdrove": 3784,
      "Ġlesson": 3785,
      "Ġexperi": 3786,
      "Ġnewspapers": 3787,
      "Ġpowerful": 3788,
      "Ġreminds": 3789,
      "Ġargument": 3790,
      "Ġemot": 3791,
      "Ġpolitics": 3792,
      "Ġappears": 3793,
      "Ġfifteen": 3794,
      "Ġdebt": 3795,
      "Ġimprove": 3796,
      "Ġsuffering": 3797,
      "Ġcancel": 3798,
      "Ġitaly": 3799,
      "Ġrepeat": 3800,
      "Ġcaptain": 3801,
      "Ġcastle": 3802,
      "Ġhorrible": 3803,
      "Ġgentleman": 3804,
      "Ġtowel": 3805,
      "Ġpassengers": 3806,
      "Ġmisunderstanding": 3807,
      "Ġelevator": 3808,
      "Ġtower": 3809,
      "look": 3810,
      "pri": 3811,
      "uce": 3812,
      "will": 3813,
      "writ": 3814,
      "xpected": 3815,
      "Ġest": 3816,
      "Ġwounded": 3817,
      "rel": 3818,
      "Ġtoile": 3819,
      "Ġdump": 3820,
      "Ġdumb": 3821,
      "Ġcult": 3822,
      "Ġfake": 3823,
      "Ġlower": 3824,
      "Ġpond": 3825,
      "eral": 3826,
      "Ġow": 3827,
      "Ġdozen": 3828,
      "its": 3829,
      "ata": 3830,
      "att": 3831,
      "Ġinse": 3832,
      "Ġstun": 3833,
      "Ġstories": 3834,
      "Ġyourselves": 3835,
      "ential": 3836,
      "imate": 3837,
      "Ġrub": 3838,
      "usting": 3839,
      "iring": 3840,
      "Ġalb": 3841,
      "cture": 3842,
      "ouraged": 3843,
      "Ġconven": 3844,
      "Ġboard": 3845,
      "acked": 3846,
      "iff": 3847,
      "Ġcarp": 3848,
      "Ġspl": 3849,
      "apt": 3850,
      "ittee": 3851,
      "Ġorange": 3852,
      "Ġprot": 3853,
      "Ġguard": 3854,
      "Ġlaid": 3855,
      "Ġreserv": 3856,
      "Ġcheated": 3857,
      "Ġroll": 3858,
      "Ġroses": 3859,
      "Ġgreatest": 3860,
      "ference": 3861,
      "Ġaccidents": 3862,
      "Ġrelation": 3863,
      "Ġrelieved": 3864,
      "Ġbitter": 3865,
      "Ġhandsome": 3866,
      "Ġcommitted": 3867,
      "Ġcommittee": 3868,
      "Ġstronger": 3869,
      "Ġdistract": 3870,
      "Ġsurvived": 3871,
      "Ġbarg": 3872,
      "Ġdrawer": 3873,
      "Ġgenerally": 3874,
      "Ġpleasant": 3875,
      "Ġuncom": 3876,
      "Ġunexpected": 3877,
      "Ġknocked": 3878,
      "Ġpuzz": 3879,
      "ribut": 3880,
      "Ġdescribe": 3881,
      "Ġservice": 3882,
      "Ġvictim": 3883,
      "Ġalarm": 3884,
      "Ġclouds": 3885,
      "Ġcoincidence": 3886,
      "cul": 3887,
      "hib": 3888,
      "Ġ7": 3889,
      "Ġfan": 3890,
      "Ġfal": 3891,
      "Ġfirm": 3892,
      "Ġlou": 3893,
      "Ġheight": 3894,
      "Ġnons": 3895,
      "Ġpapers": 3896,
      "Ġpoured": 3897,
      "Ġhall": 3898,
      "asc": 3899,
      "Ġforce": 3900,
      "Ġjam": 3901,
      "Ġaside": 3902,
      "Ġshorter": 3903,
      "Ġtech": 3904,
      "Ġsocks": 3905,
      "Ġdevelop": 3906,
      "iev": 3907,
      "Ġamount": 3908,
      "Ġintended": 3909,
      "Ġspare": 3910,
      "Ġcares": 3911,
      "Ġappeared": 3912,
      "Ġearns": 3913,
      "angers": 3914,
      "Ġengaged": 3915,
      "Ġkindness": 3916,
      "Ġfold": 3917,
      "Ġdesperate": 3918,
      "Ġshame": 3919,
      "uded": 3920,
      "Ġfully": 3921,
      "Ġterms": 3922,
      "Ġapologized": 3923,
      "Ġbags": 3924,
      "Ġgenius": 3925,
      "Ġnovels": 3926,
      "Ġphotos": 3927,
      "Ġbehave": 3928,
      "Ġdoubts": 3929,
      "Ġunlucky": 3930,
      "Ġparticip": 3931,
      "Ġholidays": 3932,
      "Ġelected": 3933,
      "ugged": 3934,
      "Ġcrowded": 3935,
      "Ġrobbed": 3936,
      "Ġimpression": 3937,
      "Ġproperly": 3938,
      "Ġincredible": 3939,
      "Ġbench": 3940,
      "Ġeconomy": 3941,
      "Ġdetermined": 3942,
      "Ġclaim": 3943,
      "Ġbottom": 3944,
      "Ġdestroyed": 3945,
      "Ġgreeted": 3946,
      "Ġfrankly": 3947,
      "Ġmodern": 3948,
      "Ġrelationship": 3949,
      "Ġfalse": 3950,
      "13": 3951,
      "ai": 3952,
      "bling": 3953,
      "how": 3954,
      "mates": 3955,
      "nal": 3956,
      "Ġ9": 3957,
      "Ġrom": 3958,
      "Ġwha": 3959,
      "Ġsink": 3960,
      "Ġded": 3961,
      "Ġdig": 3962,
      "Ġmt": 3963,
      "Ġment": 3964,
      "Ġbaked": 3965,
      "Ġfate": 3966,
      "Ġlack": 3967,
      "Ġlugg": 3968,
      "Ġnon": 3969,
      "Ġpants": 3970,
      "Ġthick": 3971,
      "Ġitself": 3972,
      "Ġoffered": 3973,
      "vert": 3974,
      "Ġones": 3975,
      "Ġstared": 3976,
      "icient": 3977,
      "Ġcandy": 3978,
      "Ġrate": 3979,
      "Ġupon": 3980,
      "Ġplain": 3981,
      "Ġdeg": 3982,
      "Ġdeaf": 3983,
      "Ġhelps": 3984,
      "Ġafric": 3985,
      "Ġspan": 3986,
      "Ġspeed": 3987,
      "Ġlasted": 3988,
      "Ġhole": 3989,
      "Ġguide": 3990,
      "Ġsurr": 3991,
      "Ġresour": 3992,
      "Ġwalks": 3993,
      "Ġopening": 3994,
      "Ġstruck": 3995,
      "Ġtrained": 3996,
      "Ġactor": 3997,
      "Ġtruly": 3998,
      "Ġpassword": 3999,
      "Ġvisiting": 4000,
      "Ġlargest": 4001,
      "Ġdelayed": 4002,
      "Ġexperiment": 4003,
      "Ġpaintings": 4004,
      "Ġrecognized": 4005,
      "Ġvalu": 4006,
      "Ġcloset": 4007,
      "Ġdeny": 4008,
      "Ġoptions": 4009,
      "Ġpockets": 4010,
      "Ġcanceled": 4011,
      "Ġmirac": 4012,
      "Ġjournal": 4013,
      "Ġhesitate": 4014,
      "Ġconcentrate": 4015,
      "Ġnarrow": 4016,
      "Ġwitness": 4017,
      "Ġunusual": 4018,
      "Ġstunned": 4019,
      "Ġalbum": 4020,
      "Ġluggage": 4021,
      "ivor": 4022,
      "ob": 4023,
      "poc": 4024,
      "site": 4025,
      "what": 4026,
      "ware": 4027,
      "ym": 4028,
      "yes": 4029,
      "Ġsilly": 4030,
      "iny": 4031,
      "Ġdess": 4032,
      "Ġbitten": 4033,
      "Ġcit": 4034,
      "Ġfasc": 4035,
      "Ġlines": 4036,
      "eds": 4037,
      "Ġnamed": 4038,
      "Ġhook": 4039,
      "Ġoh": 4040,
      "Ġlimit": 4041,
      "icated": 4042,
      "ician": 4043,
      "Ġknowledge": 4044,
      "Ġshook": 4045,
      "Ġsoph": 4046,
      "Ġplanted": 4047,
      "Ġhelpful": 4048,
      "Ġarr": 4049,
      "Ġspain": 4050,
      "Ġbrit": 4051,
      "Ġbelt": 4052,
      "Ġappl": 4053,
      "Ġfog": 4054,
      "Ġbegun": 4055,
      "umn": 4056,
      "Ġrose": 4057,
      "Ġwarning": 4058,
      "Ġclosely": 4059,
      "Ġkissing": 4060,
      "Ġlarger": 4061,
      "Ġcommun": 4062,
      "Ġsales": 4063,
      "Ġsalad": 4064,
      "Ġpreparing": 4065,
      "Ġinsane": 4066,
      "Ġsuccessful": 4067,
      "Ġsurvivor": 4068,
      "Ġhanging": 4069,
      "Ġvalue": 4070,
      "Ġdanced": 4071,
      "Ġhopes": 4072,
      "Ġcapable": 4073,
      "Ġfingers": 4074,
      "Ġdefinite": 4075,
      "Ġcustomers": 4076,
      "Ġcenter": 4077,
      "Ġattacked": 4078,
      "mony": 4079,
      "Ġnorth": 4080,
      "Ġannoying": 4081,
      "Ġdeparture": 4082,
      "Ġfilm": 4083,
      "Ġthreatened": 4084,
      "Ġnotebook": 4085,
      "Ġtextbook": 4086,
      "Ġweapon": 4087,
      "Ġscolded": 4088,
      "Ġocean": 4089,
      "priate": 4090,
      "Ġtoilet": 4091,
      "Ġlouder": 4092,
      "Ġnonsense": 4093,
      "Ġfascin": 4094,
      "ma": 4095,
      "Ġaver": 4096,
      "Ġdata": 4097,
      "Ġcot": 4098,
      "enced": 4099,
      "Ġhammer": 4100,
      "ask": 4101,
      "Ġrac": 4102,
      "Ġtire": 4103,
      "Ġcomb": 4104,
      "ctions": 4105,
      "isted": 4106,
      "Ġmob": 4107,
      "Ġwondered": 4108,
      "Ġadvert": 4109,
      "ization": 4110,
      "Ġputting": 4111,
      "Ġswear": 4112,
      "Ġmater": 4113,
      "Ġsupper": 4114,
      "Ġsecrets": 4115,
      "Ġrecent": 4116,
      "Ġsurprising": 4117,
      "Ġfarmer": 4118,
      "Ġcooked": 4119,
      "Ġchoices": 4120,
      "wards": 4121,
      "Ġokay": 4122,
      "Ġprior": 4123,
      "Ġcomplaints": 4124,
      "ivid": 4125,
      "Ġident": 4126,
      "Ġcurt": 4127,
      "Ġconcern": 4128,
      "Ġoccas": 4129,
      "Ġwebsite": 4130,
      "Ġscreaming": 4131,
      "Ġerr": 4132,
      "Ġmotor": 4133,
      "Ġmirror": 4134,
      "Ġliter": 4135,
      "Ġdrugs": 4136,
      "Ġdisturb": 4137,
      "Ġelectricity": 4138,
      "Ġcirc": 4139,
      "Ġinternet": 4140,
      "Ġdocument": 4141,
      "Ġhigher": 4142,
      "Ġadopted": 4143,
      "Ġassumed": 4144,
      "Ġuncomfortable": 4145,
      "Ġdessert": 4146,
      "Ġcitiz": 4147,
      "fers": 4148,
      "gen": 4149,
      "sed": 4150,
      "Ġtatt": 4151,
      "Ġwave": 4152,
      "Ġtor": 4153,
      "ints": 4154,
      "Ġmic": 4155,
      "Ġcities": 4156,
      "Ġlab": 4157,
      "Ġgain": 4158,
      "let": 4159,
      "Ġcover": 4160,
      "urity": 4161,
      "Ġplant": 4162,
      "Ġund": 4163,
      "Ġunp": 4164,
      "ilities": 4165,
      "Ġchose": 4166,
      "Ġspite": 4167,
      "Ġvoted": 4168,
      "Ġrooms": 4169,
      "Ġhandy": 4170,
      "Ġexpert": 4171,
      "Ġplanet": 4172,
      "Ġstarts": 4173,
      "Ġcheaper": 4174,
      "Ġattended": 4175,
      "Ġsecurity": 4176,
      "Ġsincere": 4177,
      "Ġwarmer": 4178,
      "Ġentr": 4179,
      "Ġregard": 4180,
      "Ġdisappeared": 4181,
      "Ġapology": 4182,
      "Ġadmitted": 4183,
      "Ġsignific": 4184,
      "Ġinformed": 4185,
      "Ġimagined": 4186,
      "Ġsatisf": 4187,
      "Ġmountains": 4188,
      "Ġtyp": 4189,
      "Ġpossibly": 4190,
      "place": 4191,
      "Ġviolence": 4192,
      "Ġappearance": 4193,
      "Ġaccompan": 4194,
      "Ġ2013": 4195,
      "Ġlocal": 4196,
      "Ġresearch": 4197,
      "Ġissue": 4198,
      "Ġchallenge": 4199,
      "Ġindustry": 4200,
      "Ġperformance": 4201,
      "Ġconclus": 4202,
      "Ġceremony": 4203,
      "Ġdumped": 4204,
      "Ġbargain": 4205,
      "Ġafrica": 4206,
      "Ġtattoo": 4207,
      "cha": 4208,
      "com": 4209,
      "gage": 4210,
      "ime": 4211,
      "mail": 4212,
      "pa": 4213,
      "Ġsore": 4214,
      "Ġsons": 4215,
      "Ġbound": 4216,
      "Ġfu": 4217,
      "Ġfant": 4218,
      "Ġlent": 4219,
      "isy": 4220,
      "Ġgat": 4221,
      "Ġgree": 4222,
      "Ġthro": 4223,
      "asing": 4224,
      "Ġeager": 4225,
      "Ġancient": 4226,
      "riger": 4227,
      "Ġneat": 4228,
      "aled": 4229,
      "eered": 4230,
      "Ġshout": 4231,
      "Ġsum": 4232,
      "Ġsocial": 4233,
      "Ġunde": 4234,
      "Ġseated": 4235,
      "Ġconference": 4236,
      "Ġages": 4237,
      "Ġspy": 4238,
      "Ġvar": 4239,
      "asses": 4240,
      "Ġpoet": 4241,
      "Ġcompos": 4242,
      "Ġhandled": 4243,
      "Ġresist": 4244,
      "Ġsleeps": 4245,
      "Ġfuneral": 4246,
      "Ġgranted": 4247,
      "Ġbiggest": 4248,
      "tered": 4249,
      "Ġrainy": 4250,
      "Ġmistook": 4251,
      "Ġcounting": 4252,
      "Ġchamp": 4253,
      "Ġowns": 4254,
      "Ġlightning": 4255,
      "Ġ100": 4256,
      "Ġsounded": 4257,
      "Ġcrack": 4258,
      "Ġhaircut": 4259,
      "Ġdreamed": 4260,
      "Ġheaded": 4261,
      "Ġrefriger": 4262,
      "Ġconfidence": 4263,
      "Ġsnowing": 4264,
      "Ġmedical": 4265,
      "Ġdisappoint": 4266,
      "Ġlegal": 4267,
      "Ġinsult": 4268,
      "Ġtaxes": 4269,
      "Ġclimate": 4270,
      "Ġpublished": 4271,
      "Ġbothering": 4272,
      "Ġmiser": 4273,
      "Ġtranslated": 4274,
      "Ġirre": 4275,
      "Ġvolunt": 4276,
      "Ġgenerous": 4277,
      "isticated": 4278,
      "Ġfluently": 4279,
      "Ġsquare": 4280,
      "Ġblew": 4281,
      "Ġbleeding": 4282,
      "ratul": 4283,
      "Ġincredibly": 4284,
      "Ġremoved": 4285,
      "Ġdisturbed": 4286,
      "Ġassistance": 4287,
      "Ġdisgusting": 4288,
      "Ġsensitive": 4289,
      "Ġcongratul": 4290,
      "Ġcooper": 4291,
      "Ġinflu": 4292,
      "Ġtechn": 4293,
      "Ġsophisticated": 4294,
      "Ġentrance": 4295,
      "Ġaccompanied": 4296,
      "Ġgathered": 4297,
      "ium": 4298,
      "mate": 4299,
      "squ": 4300,
      "Ġtar": 4301,
      "Ġtimid": 4302,
      "Ġwild": 4303,
      "Ġsou": 4304,
      "inting": 4305,
      "Ġmall": 4306,
      "Ġbare": 4307,
      "Ġfought": 4308,
      "Ġreject": 4309,
      "Ġstret": 4310,
      "iculous": 4311,
      "antic": 4312,
      "Ġsheep": 4313,
      "Ġwhist": 4314,
      "pper": 4315,
      "Ġrail": 4316,
      "Ġtrad": 4317,
      "Ġalike": 4318,
      "Ġlecture": 4319,
      "Ġhers": 4320,
      "Ġuns": 4321,
      "Ġmosqu": 4322,
      "mbered": 4323,
      "Ġdrag": 4324,
      "Ġbuc": 4325,
      "Ġtwin": 4326,
      "Ġchances": 4327,
      "Ġfinan": 4328,
      "Ġglove": 4329,
      "Ġflood": 4330,
      "Ġcheek": 4331,
      "Ġuseless": 4332,
      "Ġattitude": 4333,
      "Ġrecovered": 4334,
      "Ġskirt": 4335,
      "Ġimm": 4336,
      "Ġborder": 4337,
      "Ġnearby": 4338,
      "Ġtallest": 4339,
      "Ġelephan": 4340,
      "Ġdaughters": 4341,
      "Ġabsence": 4342,
      "Ġdarker": 4343,
      "Ġmondays": 4344,
      "Ġsweat": 4345,
      "Ġdeli": 4346,
      "Ġprisoner": 4347,
      "Ġsells": 4348,
      "Ġdouble": 4349,
      "Ġsubway": 4350,
      "Ġhumor": 4351,
      "Ġrisks": 4352,
      "Ġpurse": 4353,
      "Ġringing": 4354,
      "Ġpotatoes": 4355,
      "Ġambul": 4356,
      "Ġautumn": 4357,
      "Ġproducts": 4358,
      "Ġremove": 4359,
      "Ġscientist": 4360,
      "Ġauthority": 4361,
      "Ġpredict": 4362,
      "Ġinstructions": 4363,
      "Ġstrike": 4364,
      "Ġcigarettes": 4365,
      "Ġinvented": 4366,
      "Ġcandles": 4367,
      "Ġallergic": 4368,
      "Ġjeans": 4369,
      "Ġmethod": 4370,
      "Ġrefrigerator": 4371,
      "bage": 4372,
      "cue": 4373,
      "jud": 4374,
      "ope": 4375,
      "rain": 4376,
      "vard": 4377,
      "yond": 4378,
      "inary": 4379,
      "Ġmass": 4380,
      "Ġcher": 4381,
      "Ġciv": 4382,
      "Ġfreed": 4383,
      "Ġnin": 4384,
      "Ġnation": 4385,
      "Ġgear": 4386,
      "erted": 4387,
      "Ġhoney": 4388,
      "arily": 4389,
      "Ġbeyond": 4390,
      "verse": 4391,
      "Ġwasted": 4392,
      "though": 4393,
      "Ġtrap": 4394,
      "Ġalthough": 4395,
      "Ġleak": 4396,
      "mploy": 4397,
      "Ġdefe": 4398,
      "Ġagg": 4399,
      "ament": 4400,
      "Ġarmed": 4401,
      "Ġvain": 4402,
      "Ġharvard": 4403,
      "Ġpra": 4404,
      "agement": 4405,
      "issors": 4406,
      "Ġkeeping": 4407,
      "Ġscrat": 4408,
      "Ġscissors": 4409,
      "Ġremembered": 4410,
      "Ġpolicy": 4411,
      "bel": 4412,
      "Ġshake": 4413,
      "Ġdiscovered": 4414,
      "Ġrelated": 4415,
      "Ġfastest": 4416,
      "ologist": 4417,
      "Ġreasonable": 4418,
      "Ġdeadline": 4419,
      "Ġspoon": 4420,
      "Ġcomplex": 4421,
      "Ġstreets": 4422,
      "azz": 4423,
      "Ġsett": 4424,
      "Ġcharges": 4425,
      "Ġsigned": 4426,
      "Ġbaggage": 4427,
      "Ġassume": 4428,
      "Ġbuildings": 4429,
      "Ġridiculous": 4430,
      "Ġbreathe": 4431,
      "Ġrented": 4432,
      "Ġhoped": 4433,
      "Ġembarrassing": 4434,
      "Ġpackage": 4435,
      "Ġcows": 4436,
      "Ġbattle": 4437,
      "Ġsteak": 4438,
      "Ġcamping": 4439,
      "Ġemployees": 4440,
      "Ġequal": 4441,
      "Ġattempt": 4442,
      "Ġunfair": 4443,
      "Ġturning": 4444,
      "Ġpostponed": 4445,
      "Ġfocus": 4446,
      "Ġbullet": 4447,
      "Ġrussian": 4448,
      "Ġmystery": 4449,
      "Ġprotest": 4450,
      "Ġreservation": 4451,
      "Ġspanish": 4452,
      "Ġvaluable": 4453,
      "Ġcommunic": 4454,
      "Ġdefinitely": 4455,
      "Ġaverage": 4456,
      "Ġfuji": 4457,
      "Ġgloves": 4458,
      "Ġambulance": 4459,
      "ey": 4460,
      "lig": 4461,
      "rm": 4462,
      "Ġtent": 4463,
      "heart": 4464,
      "Ġwre": 4465,
      "Ġtoy": 4466,
      "vere": 4467,
      "Ġfainted": 4468,
      "Ġnicer": 4469,
      "arian": 4470,
      "owed": 4471,
      "Ġbeside": 4472,
      "oos": 4473,
      "Ġforty": 4474,
      "Ġkicked": 4475,
      "stick": 4476,
      "entine": 4477,
      "imistic": 4478,
      "Ġjazz": 4479,
      "aches": 4480,
      "illed": 4481,
      "Ġrome": 4482,
      "Ġrush": 4483,
      "Ġtied": 4484,
      "Ġhowever": 4485,
      "Ġcoins": 4486,
      "Ġnoisy": 4487,
      "Ġsail": 4488,
      "Ġoutr": 4489,
      "Ġunb": 4490,
      "ama": 4491,
      "Ġmud": 4492,
      "Ġvan": 4493,
      "Ġspec": 4494,
      "Ġbud": 4495,
      "Ġbelow": 4496,
      "Ġpoll": 4497,
      "Ġtwe": 4498,
      "Ġtwins": 4499,
      "Ġpray": 4500,
      "Ġappa": 4501,
      "omat": 4502,
      "Ġcomment": 4503,
      "Ġrescu": 4504,
      "Ġsupplies": 4505,
      "Ġcleared": 4506,
      "Ġaction": 4507,
      "Ġactress": 4508,
      "Ġanswering": 4509,
      "Ġpersonally": 4510,
      "Ġfrustr": 4511,
      "Ġrecover": 4512,
      "onscious": 4513,
      "Ġimportance": 4514,
      "Ġparking": 4515,
      "Ġmusician": 4516,
      "Ġstopping": 4517,
      "Ġagreement": 4518,
      "Ġregular": 4519,
      "Ġcommit": 4520,
      "Ġinterp": 4521,
      "Ġpickpoc": 4522,
      "Ġretire": 4523,
      "Ġceiling": 4524,
      "Ġoppos": 4525,
      "Ġbills": 4526,
      "ounced": 4527,
      "Ġfactory": 4528,
      "Ġvalentine": 4529,
      "Ġvolume": 4530,
      "Ġdeserves": 4531,
      "Ġedge": 4532,
      "Ġstraw": 4533,
      "Ġtotal": 4534,
      "Ġfortunate": 4535,
      "Ġimproved": 4536,
      "Ġrobber": 4537,
      "Ġunemploy": 4538,
      "Ġambition": 4539,
      "Ġdespise": 4540,
      "Ġattempted": 4541,
      "Ġweapons": 4542,
      "Ġprofessional": 4543,
      "Ġghosts": 4544,
      "Ġaimed": 4545,
      "Ġwishes": 4546,
      "Ġinvestigation": 4547,
      "Ġmentally": 4548,
      "Ġmiracle": 4549,
      "Ġsurvivors": 4550,
      "Ġsignificant": 4551,
      "Ġfantastic": 4552,
      "Ġthroat": 4553,
      "Ġmiserable": 4554,
      "Ġtarget": 4555,
      "Ġaggress": 4556,
      "Ġwreck": 4557,
      ",\"": 4558,
      "ald": 4559,
      "bly": 4560,
      "uff": 4561,
      "xic": 4562,
      "year": 4563,
      "zer": 4564,
      "hetic": 4565,
      "hache": 4566,
      "Ġdust": 4567,
      "Ġmouse": 4568,
      "Ġfuss": 4569,
      "Ġloose": 4570,
      "Ġgather": 4571,
      "Ġpil": 4572,
      "Ġpig": 4573,
      "Ġpeel": 4574,
      "Ġthor": 4575,
      "Ġine": 4576,
      "Ġink": 4577,
      "Ġease": 4578,
      "Ġstat": 4579,
      "Ġfork": 4580,
      "chief": 4581,
      "Ġjerk": 4582,
      "aced": 4583,
      "acter": 4584,
      "utious": 4585,
      "Ġcoach": 4586,
      "ends": 4587,
      "Ġcautious": 4588,
      "Ġsees": 4589,
      "Ġchop": 4590,
      "agger": 4591,
      "Ġposit": 4592,
      "Ġdowntown": 4593,
      "Ġchanging": 4594,
      "Ġflash": 4595,
      "Ġlawn": 4596,
      "Ġturns": 4597,
      "Ġtense": 4598,
      "gging": 4599,
      "Ġvisa": 4600,
      "Ġsungl": 4601,
      "weight": 4602,
      "Ġ16": 4603,
      "Ġ18": 4604,
      "Ġcrash": 4605,
      "Ġgrown": 4606,
      "Ġgrows": 4607,
      "Ġinterse": 4608,
      "Ġinterrup": 4609,
      "Ġcomplaint": 4610,
      "Ġsuits": 4611,
      "Ġcourt": 4612,
      "Ġterribly": 4613,
      "Ġcalcul": 4614,
      "Ġsilver": 4615,
      "Ġcrossing": 4616,
      "Ġtranslation": 4617,
      "Ġsimply": 4618,
      "Ġmemor": 4619,
      "Ġunlock": 4620,
      "Ġburning": 4621,
      "Ġ197": 4622,
      "Ġhundreds": 4623,
      "Ġpacked": 4624,
      "Ġsuitcases": 4625,
      "Ġdirection": 4626,
      "Ġyelling": 4627,
      "Ġloudly": 4628,
      "Ġparticularly": 4629,
      "Ġselfish": 4630,
      "Ġcollecting": 4631,
      "Ġtowards": 4632,
      "Ġhyp": 4633,
      "Ġachieve": 4634,
      "Ġpostpone": 4635,
      "Ġvolunteer": 4636,
      "Ġeffective": 4637,
      "Ġexchange": 4638,
      "lected": 4639,
      "Ġgambling": 4640,
      "handed": 4641,
      "Ġjuice": 4642,
      "Ġconvenient": 4643,
      "Ġdistracted": 4644,
      "Ġoccasion": 4645,
      "Ġmotorcy": 4646,
      "Ġmicro": 4647,
      "Ġvolunteered": 4648,
      "Ġmosquit": 4649,
      "Ġcivil": 4650,
      "Ġtwelve": 4651,
      "Ġpositive": 4652,
      "Ġsunglasses": 4653,
      "aire": 4654,
      "cast": 4655,
      "cles": 4656,
      "ipt": 4657,
      "ka": 4658,
      "uct": 4659,
      "vant": 4660,
      "val": 4661,
      "wise": 4662,
      "you": 4663,
      "rer": 4664,
      "Ġbal": 4665,
      "Ġcrew": 4666,
      "Ġnational": 4667,
      "Ġgro": 4668,
      "Ġox": 4669,
      "ows": 4670,
      "Ġwest": 4671,
      "Ġeld": 4672,
      "Ġstaff": 4673,
      "Ġcandle": 4674,
      "Ġknees": 4675,
      "Ġsheet": 4676,
      "Ġshirts": 4677,
      "Ġraw": 4678,
      "Ġtip": 4679,
      "pered": 4680,
      "cts": 4681,
      "Ġlean": 4682,
      "Ġmars": 4683,
      "Ġexagger": 4684,
      "Ġsew": 4685,
      "Ġvot": 4686,
      "Ġorang": 4687,
      "Ġcomprom": 4688,
      "Ġblamed": 4689,
      "Ġputs": 4690,
      "Ġflag": 4691,
      "Ġaccent": 4692,
      "Ġaccur": 4693,
      "Ġlaught": 4694,
      "Ġdecor": 4695,
      "Ġgram": 4696,
      "Ġstrangers": 4697,
      "cially": 4698,
      "Ġbeginner": 4699,
      "Ġtraining": 4700,
      "Ġshaken": 4701,
      "Ġsnakes": 4702,
      "Ġcookie": 4703,
      "Ġ15": 4704,
      "Ġclasses": 4705,
      "Ġoblig": 4706,
      "Ġinterv": 4707,
      "Ġstrongly": 4708,
      "Ġgrandpa": 4709,
      "Ġwalls": 4710,
      "Ġdetect": 4711,
      "guard": 4712,
      "Ġtempt": 4713,
      "Ġpunish": 4714,
      "ival": 4715,
      "ivated": 4716,
      "Ġreceipt": 4717,
      "Ġtyph": 4718,
      "Ġappropriate": 4719,
      "Ġremains": 4720,
      "Ġreminded": 4721,
      "Ġfits": 4722,
      "Ġrequire": 4723,
      "Ġrequired": 4724,
      "Ġmaid": 4725,
      "Ġgrades": 4726,
      "Ġdebate": 4727,
      "Ġcentury": 4728,
      "Ġgunshots": 4729,
      "Ġmentioned": 4730,
      "Ġdevoted": 4731,
      "Ġdepartment": 4732,
      "Ġacquainted": 4733,
      "Ġscientists": 4734,
      "Ġachieved": 4735,
      "Ġoperation": 4736,
      "Ġincrease": 4737,
      "Ġassistant": 4738,
      "Ġflew": 4739,
      "Ġstyle": 4740,
      "Ġreleased": 4741,
      "Ġcarpet": 4742,
      "Ġdedicated": 4743,
      "Ġsurrounded": 4744,
      "Ġmobile": 4745,
      "Ġunderest": 4746,
      "Ġrejected": 4747,
      "Ġfreedom": 4748,
      "Ġrescued": 4749,
      "Ġintersection": 4750,
      "Ġoranges": 4751,
      "Ġlaughter": 4752,
      "bs": 4753,
      "lo": 4754,
      "ray": 4755,
      "uary": 4756,
      "whe": 4757,
      "Ġtask": 4758,
      "Ġwire": 4759,
      "Ġske": 4760,
      "hab": 4761,
      "Ġdip": 4762,
      "Ġcure": 4763,
      "ength": 4764,
      "Ġpi": 4765,
      "Ġpha": 4766,
      "Ġport": 4767,
      "Ġpard": 4768,
      "Ġoven": 4769,
      "arant": 4770,
      "aries": 4771,
      "Ġbes": 4772,
      "Ġbeating": 4773,
      "itor": 4774,
      "ators": 4775,
      "Ġinsp": 4776,
      "Ġmeters": 4777,
      "Ġsting": 4778,
      "Ġformed": 4779,
      "str": 4780,
      "Ġwhiche": 4781,
      "Ġatm": 4782,
      "Ġwheel": 4783,
      "Ġcode": 4784,
      "urs": 4785,
      "Ġplastic": 4786,
      "que": 4787,
      "Ġsevent": 4788,
      "Ġconse": 4789,
      "amond": 4790,
      "Ġproceed": 4791,
      "Ġprohib": 4792,
      "Ġreads": 4793,
      "Ġofficer": 4794,
      "Ġbran": 4795,
      "Ġbrand": 4796,
      "Ġstubb": 4797,
      "Ġbug": 4798,
      "Ġburied": 4799,
      "ague": 4800,
      "Ġguarant": 4801,
      "Ġoverweight": 4802,
      "Ġhandker": 4803,
      "Ġblan": 4804,
      "Ġfinds": 4805,
      "Ġsurger": 4806,
      "Ġstrugg": 4807,
      "Ġbedtime": 4808,
      "cip": 4809,
      "Ġattic": 4810,
      "Ġshared": 4811,
      "igned": 4812,
      "Ġsne": 4813,
      "Ġdifficulties": 4814,
      "Ġdiscount": 4815,
      "Ġpresence": 4816,
      "Ġexcuses": 4817,
      "Ġclassmates": 4818,
      "Ġdiamond": 4819,
      "Ġvisitors": 4820,
      "Ġbringing": 4821,
      "Ġconsult": 4822,
      "Ġincident": 4823,
      "Ġincomp": 4824,
      "ibilities": 4825,
      "Ġsafely": 4826,
      "Ġdisappear": 4827,
      "Ġadmired": 4828,
      "Ġhalfway": 4829,
      "Ġrising": 4830,
      "Ġexamined": 4831,
      "Ġblackboard": 4832,
      "Ġterrified": 4833,
      "Ġstarving": 4834,
      "nel": 4835,
      "Ġreceive": 4836,
      "Ġuniverse": 4837,
      "Ġcanada": 4838,
      "Ġenemies": 4839,
      "Ġgeneral": 4840,
      "Ġcoward": 4841,
      "Ġthousands": 4842,
      "Ġfluent": 4843,
      "Ġgarbage": 4844,
      "Ġunconscious": 4845,
      "Ġcritical": 4846,
      "Ġerror": 4847,
      "Ġlifted": 4848,
      "Ġmillionaire": 4849,
      "Ġmisunderstood": 4850,
      "Ġtourists": 4851,
      "Ġconstru": 4852,
      "Ġcircle": 4853,
      "Ġconnected": 4854,
      "Ġconnection": 4855,
      "Ġjourney": 4856,
      "Ġprovide": 4857,
      "Ġquality": 4858,
      "Ġexchanged": 4859,
      "Ġteenager": 4860,
      "Ġbanana": 4861,
      "Ġrevol": 4862,
      "Ġdislike": 4863,
      "Ġphotograph": 4864,
      "Ġapplication": 4865,
      "Ġsplit": 4866,
      "ributed": 4867,
      "Ġfascinating": 4868,
      "Ġbucket": 4869,
      "Ġaggressive": 4870,
      "Ġmosquito": 4871,
      "Ġwhichever": 4872,
      "Ġstubborn": 4873,
      "Ġhandkerchief": 4874,
      "Ġsurgery": 4875,
      "cr": 4876,
      "ffered": 4877,
      "jam": 4878,
      "ux": 4879,
      "was": 4880,
      "yal": 4881,
      "Ġtail": 4882,
      "Ġaston": 4883,
      "Ġwound": 4884,
      "Ġtoys": 4885,
      "Ġdy": 4886,
      "Ġmix": 4887,
      "Ġcough": 4888,
      "Ġlin": 4889,
      "ansp": 4890,
      "isis": 4891,
      "lly": 4892,
      "Ġnag": 4893,
      "Ġham": 4894,
      "asy": 4895,
      "Ġbee": 4896,
      "Ġitem": 4897,
      "Ġonline": 4898,
      "ril": 4899,
      "stances": 4900,
      "thy": 4901,
      "imp": 4902,
      "Ġshr": 4903,
      "Ġrot": 4904,
      "Ġrap": 4905,
      "Ġrare": 4906,
      "Ġsuffered": 4907,
      "Ġtransp": 4908,
      "Ġworn": 4909,
      "Ġloaded": 4910,
      "Ġhelpless": 4911,
      "Ġworker": 4912,
      "Ġboots": 4913,
      "Ġquar": 4914,
      "igner": 4915,
      "Ġclue": 4916,
      "Ġspin": 4917,
      "Ġhomes": 4918,
      "Ġpregn": 4919,
      "agers": 4920,
      "Ġpride": 4921,
      "Ġappet": 4922,
      "Ġearn": 4923,
      "Ġscary": 4924,
      "Ġglanced": 4925,
      "Ġstops": 4926,
      "Ġcomfort": 4927,
      "Ġsurren": 4928,
      "Ġengagement": 4929,
      "Ġgrave": 4930,
      "Ġchem": 4931,
      "Ġcheating": 4932,
      "Ġsupply": 4933,
      "Ġfox": 4934,
      "Ġactiv": 4935,
      "Ġsings": 4936,
      "Ġbreaking": 4937,
      "Ġrested": 4938,
      "Ġserve": 4939,
      "Ġsunsc": 4940,
      "Ġsmooth": 4941,
      "Ġrelative": 4942,
      "Ġguessed": 4943,
      "Ġcrisis": 4944,
      "uding": 4945,
      "Ġaddition": 4946,
      "Ġtroub": 4947,
      "Ġconscious": 4948,
      "Ġregist": 4949,
      "Ġabsor": 4950,
      "Ġtreating": 4951,
      "Ġchairs": 4952,
      "Ġindo": 4953,
      "Ġstarved": 4954,
      "Ġrespected": 4955,
      "Ġburgl": 4956,
      "Ġdancer": 4957,
      "Ġwoken": 4958,
      "Ġefficient": 4959,
      "Ġloser": 4960,
      "Ġsupportive": 4961,
      "Ġevil": 4962,
      "Ġconditions": 4963,
      "Ġdebts": 4964,
      "Ġcellphone": 4965,
      "Ġimpressive": 4966,
      "Ġnegative": 4967,
      "Ġgraduate": 4968,
      "Ġfrog": 4969,
      "Ġopera": 4970,
      "Ġdocuments": 4971,
      "Ġbasketball": 4972,
      "Ġpronounce": 4973,
      "Ġbananas": 4974,
      "Ġlatest": 4975,
      "Ġreligious": 4976,
      "Ġoriginal": 4977,
      "Ġexperienced": 4978,
      "Ġfolded": 4979,
      "Ġwhale": 4980,
      "Ġdegrees": 4981,
      "Ġbritish": 4982,
      "Ġsatisfact": 4983,
      "Ġtradition": 4984,
      "Ġcherry": 4985,
      "Ġinterpre": 4986,
      "Ġthorough": 4987,
      "Ġdipl": 4988,
      "Ġsunscreen": 4989,
      "cence": 4990,
      "gr": 4991,
      "kn": 4992,
      "law": 4993,
      "mare": 4994,
      "oke": 4995,
      "sle": 4996,
      "umber": 4997,
      "zed": 4998,
      "Ġtit": 4999,
      "Ġtoes": 5000,
      "Ġtoler": 5001,
      "onent": 5002,
      "onment": 5003,
      "onna": 5004,
      "Ġbunch": 5005,
      "Ġcy": 5006,
      "orary": 5007,
      "Ġgym": 5008,
      "Ġgonna": 5009,
      "Ġpin": 5010,
      "Ġpens": 5011,
      "Ġpier": 5012,
      "ero": 5013,
      "Ġhugged": 5014,
      "arched": 5015,
      "Ġbeef": 5016,
      "Ġmexic": 5017,
      "ushing": 5018,
      "Ġange": 5019,
      "Ġantic": 5020,
      "Ġdonated": 5021,
      "Ġstress": 5022,
      "icing": 5023,
      "iches": 5024,
      "store": 5025,
      "Ġgoals": 5026,
      "rog": 5027,
      "Ġjune": 5028,
      "Ġriche": 5029,
      "ironment": 5030,
      "Ġtrunk": 5031,
      "Ġoutdo": 5032,
      "geon": 5033,
      "geous": 5034,
      "ilies": 5035,
      "Ġenvel": 5036,
      "Ġmanners": 5037,
      "Ġsearched": 5038,
      "Ġconce": 5039,
      "Ġagrees": 5040,
      "Ġbold": 5041,
      "Ġcarr": 5042,
      "Ġvivid": 5043,
      "Ġoffic": 5044,
      "Ġjoined": 5045,
      "Ġjogging": 5046,
      "Ġadult": 5047,
      "Ġwatches": 5048,
      "Ġcompare": 5049,
      "Ġnightmare": 5050,
      "Ġbloom": 5051,
      "Ġswit": 5052,
      "Ġswall": 5053,
      "Ġswitch": 5054,
      "Ġdiffer": 5055,
      "Ġshows": 5056,
      "Ġchew": 5057,
      "Ġfamilies": 5058,
      "ciation": 5059,
      "Ġbegged": 5060,
      "Ġtrains": 5061,
      "Ġminister": 5062,
      "Ġcontr": 5063,
      "Ġyoungest": 5064,
      "Ġmission": 5065,
      "Ġtrump": 5066,
      "Ġfridge": 5067,
      "Ġrecall": 5068,
      "Ġpromoted": 5069,
      "iped": 5070,
      "Ġhunting": 5071,
      "Ġbreaks": 5072,
      "Ġapril": 5073,
      "Ġ12": 5074,
      "Ġends": 5075,
      "Ġnumbers": 5076,
      "Ġcrashed": 5077,
      "Ġaddressed": 5078,
      "Ġentertain": 5079,
      "Ġrefer": 5080,
      "Ġconsists": 5081,
      "Ġsentences": 5082,
      "iber": 5083,
      "Ġconfessed": 5084,
      "Ġlaws": 5085,
      "Ġsecretary": 5086,
      "Ġcraw": 5087,
      "Ġbecomes": 5088,
      "Ġruin": 5089,
      "Ġdollar": 5090,
      "duct": 5091,
      "Ġsettle": 5092,
      "Ġexpenses": 5093,
      "Ġfalls": 5094,
      "Ġcharming": 5095,
      "Ġrisky": 5096,
      "Ġexams": 5097,
      "Ġblackmail": 5098,
      "Ġopinions": 5099,
      "Ġhidden": 5100,
      "Ġriding": 5101,
      "Ġsoldier": 5102,
      "Ġapproved": 5103,
      "Ġtopic": 5104,
      "coat": 5105,
      "Ġclosest": 5106,
      "Ġprivacy": 5107,
      "Ġdemon": 5108,
      "sites": 5109,
      "Ġpolitical": 5110,
      "Ġpencils": 5111,
      "Ġconditioner": 5112,
      "Ġpersonality": 5113,
      "Ġinnocence": 5114,
      "Ġdefend": 5115,
      "Ġfaces": 5116,
      "Ġoption": 5117,
      "Ġoptimistic": 5118,
      "Ġwebsites": 5119,
      "Ġscreamed": 5120,
      "Ġ50": 5121,
      "Ġrumors": 5122,
      "Ġclimbing": 5123,
      "Ġmagazines": 5124,
      "Ġgrabbed": 5125,
      "Ġspotted": 5126,
      "Ġprofessor": 5127,
      "Ġcreep": 5128,
      "Ġprincip": 5129,
      "Ġprovided": 5130,
      "Ġdishwas": 5131,
      "Ġcelebrating": 5132,
      "Ġverify": 5133,
      "Ġremarks": 5134,
      "Ġlogical": 5135,
      "Ġreplace": 5136,
      "Ġcreative": 5137,
      "Ġbriefly": 5138,
      "Ġenvironment": 5139,
      "Ġpsychic": 5140,
      "writer": 5141,
      "Ġculture": 5142,
      "Ġowes": 5143,
      "ievable": 5144,
      "Ġparticipate": 5145,
      "Ġresource": 5146,
      "Ġjournalist": 5147,
      "Ġcott": 5148,
      "Ġcircum": 5149,
      "Ġwaved": 5150,
      "Ġsettled": 5151,
      "Ġbudget": 5152,
      "Ġapparently": 5153,
      "Ġmotorcycle": 5154,
      "Ġinterview": 5155,
      "Ġtemptation": 5156,
      "Ġbesides": 5157,
      "Ġprohibited": 5158,
      "Ġanticip": 5159,
      "Ġrichest": 5160,
      "Ġenvelope": 5161,
      "Ġdishwasher": 5162,
      "card": 5163,
      "dom": 5164,
      "fo": 5165,
      "ixt": 5166,
      "lace": 5167,
      "now": 5168,
      "oard": 5169,
      "obe": 5170,
      "ped": 5171,
      "uish": 5172,
      "uous": 5173,
      "Ġtiny": 5174,
      "Ġaid": 5175,
      "Ġath": 5176,
      "Ġyouth": 5177,
      "Ġdyed": 5178,
      "Ġbone": 5179,
      "Ġpitch": 5180,
      "Ġhaw": 5181,
      "Ġthumb": 5182,
      "itable": 5183,
      "Ġinfect": 5184,
      "Ġren": 5185,
      "Ġkore": 5186,
      "rigu": 5187,
      "Ġknee": 5188,
      "adays": 5189,
      "acting": 5190,
      "Ġasp": 5191,
      "Ġrow": 5192,
      "Ġtires": 5193,
      "Ġaboard": 5194,
      "Ġtrade": 5195,
      "Ġsoci": 5196,
      "Ġuses": 5197,
      "ulse": 5198,
      "oph": 5199,
      "fere": 5200,
      "ession": 5201,
      "epend": 5202,
      "Ġnowadays": 5203,
      "Ġquarter": 5204,
      "Ġintrigu": 5205,
      "orted": 5206,
      "Ġspelling": 5207,
      "Ġbraz": 5208,
      "Ġbackwards": 5209,
      "Ġadj": 5210,
      "Ġpoker": 5211,
      "Ġcompl": 5212,
      "Ġawfully": 5213,
      "Ġdisp": 5214,
      "oms": 5215,
      "Ġparts": 5216,
      "Ġblown": 5217,
      "Ġswam": 5218,
      "Ġsword": 5219,
      "Ġotherwise": 5220,
      "Ġpajam": 5221,
      "Ġflies": 5222,
      "Ġaccess": 5223,
      "Ġlamp": 5224,
      "Ġhopeless": 5225,
      "Ġrescue": 5226,
      "Ġfund": 5227,
      "Ġchest": 5228,
      "Ġbothered": 5229,
      "Ġminor": 5230,
      "Ġminim": 5231,
      "Ġpainful": 5232,
      "Ġdesert": 5233,
      "Ġdeserted": 5234,
      "Ġthanked": 5235,
      "Ġslice": 5236,
      "ensive": 5237,
      "Ġskate": 5238,
      "Ġimit": 5239,
      "Ġdiscouraged": 5240,
      "Ġremote": 5241,
      "Ġregister": 5242,
      "Ġbabys": 5243,
      "Ġcollap": 5244,
      "Ġclothing": 5245,
      "Ġinterfere": 5246,
      "Ġdisappointing": 5247,
      "Ġdecisions": 5248,
      "Ġseconds": 5249,
      "Ġridden": 5250,
      "Ġtests": 5251,
      "Ġtreats": 5252,
      "Ġgifts": 5253,
      "Ġthrown": 5254,
      "Ġirrit": 5255,
      "Ġpressed": 5256,
      "Ġjudging": 5257,
      "Ġpolitician": 5258,
      "Ġcustomer": 5259,
      "Ġsuffer": 5260,
      "resent": 5261,
      "Ġproductive": 5262,
      "Ġscenery": 5263,
      "Ġconstantly": 5264,
      "Ġitalian": 5265,
      "Ġprincess": 5266,
      "Ġqualified": 5267,
      "Ġcigarette": 5268,
      "Ġseparated": 5269,
      "Ġpills": 5270,
      "Ġmercy": 5271,
      "Ġnecklace": 5272,
      "Ġapproaching": 5273,
      "Ġcrops": 5274,
      "Ġemotional": 5275,
      "Ġpuzzle": 5276,
      "Ġmaterial": 5277,
      "Ġcomposition": 5278,
      "Ġsoul": 5279,
      "Ġfinancial": 5280,
      "Ġpickpockets": 5281,
      "Ġcompromise": 5282,
      "Ġaccurate": 5283,
      "Ġtyphoon": 5284,
      "Ġpardon": 5285,
      "Ġconsequ": 5286,
      "Ġsneak": 5287,
      "Ġincompet": 5288,
      "Ġpregnant": 5289,
      "Ġappetite": 5290,
      "Ġindoors": 5291,
      "Ġcarrots": 5292,
      "Ġcottage": 5293,
      "Ġcircumstances": 5294,
      "Ġathle": 5295,
      "Ġpajamas": 5296,
      "fet": 5297,
      "ially": 5298,
      "phab": 5299,
      "rant": 5300,
      "scri": 5301,
      "tub": 5302,
      "wood": 5303,
      "yst": 5304,
      "Ġack": 5305,
      "Ġwand": 5306,
      "Ġwide": 5307,
      "Ġwiped": 5308,
      "Ġsides": 5309,
      "Ġtoot": 5310,
      "Ġdorm": 5311,
      "Ġdrew": 5312,
      "Ġbul": 5313,
      "Ġlapt": 5314,
      "Ġlength": 5315,
      "Ġnail": 5316,
      "Ġgor": 5317,
      "Ġgreed": 5318,
      "eness": 5319,
      "Ġpac": 5320,
      "Ġpath": 5321,
      "Ġpounds": 5322,
      "Ġthurs": 5323,
      "otion": 5324,
      "Ġeast": 5325,
      "verty": 5326,
      "icag": 5327,
      "ching": 5328,
      "chite": 5329,
      "Ġracket": 5330,
      "Ġcoast": 5331,
      "Ġtrait": 5332,
      "Ġalice": 5333,
      "Ġalib": 5334,
      "Ġalphab": 5335,
      "Ġsauce": 5336,
      "ivered": 5337,
      "Ġunif": 5338,
      "Ġcave": 5339,
      "Ġcared": 5340,
      "Ġshoulders": 5341,
      "Ġsevere": 5342,
      "Ġchicag": 5343,
      "Ġamends": 5344,
      "ift": 5345,
      "Ġarrow": 5346,
      "Ġarchite": 5347,
      "Ġclung": 5348,
      "Ġjoy": 5349,
      "Ġprecious": 5350,
      "Ġbookstore": 5351,
      "Ġbru": 5352,
      "Ġord": 5353,
      "Ġpointed": 5354,
      "Ġpoverty": 5355,
      "ieves": 5356,
      "Ġharvest": 5357,
      "Ġchildish": 5358,
      "Ġplayers": 5359,
      "Ġoverhe": 5360,
      "Ġapplies": 5361,
      "Ġschools": 5362,
      "ressing": 5363,
      "izing": 5364,
      "Ġhardest": 5365,
      "Ġfined": 5366,
      "Ġhurting": 5367,
      "about": 5368,
      "Ġsurgeon": 5369,
      "Ġdecent": 5370,
      "Ġcontain": 5371,
      "Ġcontains": 5372,
      "ggy": 5373,
      "Ġshave": 5374,
      "Ġreput": 5375,
      "Ġrepresent": 5376,
      "Ġarriving": 5377,
      "Ġforgave": 5378,
      "Ġsunset": 5379,
      "Ġsmokes": 5380,
      "Ġslipped": 5381,
      "Ġtrusts": 5382,
      "Ġclassical": 5383,
      "Ġeyesight": 5384,
      "Ġfreez": 5385,
      "Ġaddicted": 5386,
      "Ġconfirm": 5387,
      "Ġappreciated": 5388,
      "Ġteleph": 5389,
      "Ġfacebook": 5390,
      "Ġacceptable": 5391,
      "Ġcharacter": 5392,
      "Ġinsisted": 5393,
      "Ġdelivered": 5394,
      "Ġweekends": 5395,
      "Ġsuggesting": 5396,
      "Ġsubscri": 5397,
      "Ġopponent": 5398,
      "Ġconsidering": 5399,
      "Ġconsideration": 5400,
      "Ġaffair": 5401,
      "Ġhumili": 5402,
      "Ġfooled": 5403,
      "Ġindepend": 5404,
      "Ġbathtub": 5405,
      "Ġvoc": 5406,
      "Ġwarmth": 5407,
      "Ġapprove": 5408,
      "Ġzero": 5409,
      "Ġthrowing": 5410,
      "Ġforeigners": 5411,
      "cope": 5412,
      "Ġwelcom": 5413,
      "Ġpermitted": 5414,
      "Ġmagic": 5415,
      "Ġurged": 5416,
      "Ġeighteen": 5417,
      "Ġviolent": 5418,
      "Ġsteps": 5419,
      "Ġfortunately": 5420,
      "Ġdemands": 5421,
      "Ġbribe": 5422,
      "Ġstepped": 5423,
      "Ġaccomplish": 5424,
      "Ġmotion": 5425,
      "Ġmotivated": 5426,
      "Ġannoyed": 5427,
      "Ġdevast": 5428,
      "Ġdrowning": 5429,
      "Ġcabin": 5430,
      "Ġfrozen": 5431,
      "Ġflex": 5432,
      "Ġsurface": 5433,
      "Ġslightly": 5434,
      "Ġblocked": 5435,
      "Ġwealthy": 5436,
      "Ġdivided": 5437,
      "Ġsympath": 5438,
      "Ġignorant": 5439,
      "Ġwhispered": 5440,
      "Ġessential": 5441,
      "looking": 5442,
      "Ġclaims": 5443,
      "Ġapplied": 5444,
      "Ġgreek": 5445,
      "Ġelephants": 5446,
      "hearted": 5447,
      "Ġunemployed": 5448,
      "zerland": 5449,
      "Ġpilot": 5450,
      "Ġflashlight": 5451,
      "Ġdetective": 5452,
      "Ġskept": 5453,
      "Ġregistered": 5454,
      "known": 5455,
      "Ġoutdoors": 5456,
      "Ġswitzerland": 5457,
      "Ġdemonstr": 5458,
      "Ġresourceful": 5459,
      "Ġbrazil": 5460,
      "Ġacknow": 5461,
      "Ġlaptop": 5462,
      "Ġthursday": 5463,
      "Ġalphabet": 5464,
      "Ġuniform": 5465,
      "Ġchicago": 5466,
      "Ġwelcomed": 5467,
      "10": 5468,
      "ah": 5469,
      "can": 5470,
      "cure": 5471,
      "dest": 5472,
      "els": 5473,
      "kward": 5474,
      "overy": 5475,
      "obey": 5476,
      "phere": 5477,
      "ral": 5478,
      "uine": 5479,
      "Ġtune": 5480,
      "oudy": 5481,
      "Ġsen": 5482,
      "Ġsac": 5483,
      "Ġsir": 5484,
      "Ġyard": 5485,
      "Ġtore": 5486,
      "Ġmut": 5487,
      "Ġmile": 5488,
      "Ġcd": 5489,
      "Ġchat": 5490,
      "Ġfries": 5491,
      "Ġge": 5492,
      "Ġgently": 5493,
      "Ġgained": 5494,
      "Ġhitting": 5495,
      "Ġhilar": 5496,
      "Ġthieves": 5497,
      "Ġoly": 5498,
      "itter": 5499,
      "itary": 5500,
      "Ġtomatoes": 5501,
      "idy": 5502,
      "iders": 5503,
      "Ġeth": 5504,
      "Ġmere": 5505,
      "Ġreact": 5506,
      "Ġstro": 5507,
      "Ġstays": 5508,
      "Ġstage": 5509,
      "Ġkar": 5510,
      "ometers": 5511,
      "Ġanytime": 5512,
      "Ġtrous": 5513,
      "inded": 5514,
      "uled": 5515,
      "Ġplate": 5516,
      "Ġload": 5517,
      "Ġdeals": 5518,
      "Ġprover": 5519,
      "Ġqueen": 5520,
      "cked": 5521,
      "igr": 5522,
      "Ġasks": 5523,
      "Ġarab": 5524,
      "Ġcloudy": 5525,
      "Ġspilled": 5526,
      "Ġspiders": 5527,
      "Ġprefers": 5528,
      "Ġbrain": 5529,
      "Ġadults": 5530,
      "Ġdrum": 5531,
      "Ġprince": 5532,
      "Ġoverwork": 5533,
      "Ġroommate": 5534,
      "Ġawkward": 5535,
      "osity": 5536,
      "Ġdisaster": 5537,
      "Ġdisobey": 5538,
      "Ġearned": 5539,
      "Ġearring": 5540,
      "Ġfaults": 5541,
      "Ġreserve": 5542,
      "Ġrole": 5543,
      "Ġfewer": 5544,
      "Ġdesire": 5545,
      "Ġdeserved": 5546,
      "Ġshade": 5547,
      "Ġshaking": 5548,
      "Ġforgetting": 5549,
      "Ġsli": 5550,
      "Ġstands": 5551,
      "Ġstandards": 5552,
      "Ġnucle": 5553,
      "Ġfasten": 5554,
      "Ġincor": 5555,
      "Ġobst": 5556,
      "Ġconfuse": 5557,
      "Ġredu": 5558,
      "Ġcommand": 5559,
      "Ġprime": 5560,
      "Ġcloth": 5561,
      "Ġpicking": 5562,
      "Ġpresents": 5563,
      "Ġsuitable": 5564,
      "Ġcharity": 5565,
      "Ġsixty": 5566,
      "Ġmenu": 5567,
      "Ġdelay": 5568,
      "berries": 5569,
      "Ġpianist": 5570,
      "Ġgenuine": 5571,
      "Ġtempted": 5572,
      "Ġtasted": 5573,
      "Ġindia": 5574,
      "Ġlawyers": 5575,
      "Ġheavily": 5576,
      "Ġfrequ": 5577,
      "Ġpostcard": 5578,
      "Ġmemories": 5579,
      "Ġvalid": 5580,
      "Ġ195": 5581,
      "Ġcurrently": 5582,
      "Ġforgiven": 5583,
      "Ġloses": 5584,
      "Ġladies": 5585,
      "coln": 5586,
      "Ġmurdered": 5587,
      "Ġopportun": 5588,
      "Ġvegetarian": 5589,
      "Ġdestination": 5590,
      "Ġamazed": 5591,
      "Ġbattery": 5592,
      "Ġexception": 5593,
      "Ġaccompany": 5594,
      "holic": 5595,
      "Ġshooting": 5596,
      "Ġpoems": 5597,
      "Ġabandon": 5598,
      "Ġrepeated": 5599,
      "Ġdetermine": 5600,
      "Ġcaptured": 5601,
      "Ġinternational": 5602,
      "Ġsandwiches": 5603,
      "Ġcheerful": 5604,
      "Ġrecords": 5605,
      "Ġbottles": 5606,
      "Ġcriticism": 5607,
      "Ġcompetition": 5608,
      "Ġcelebrate": 5609,
      "Ġdeceived": 5610,
      "Ġscarf": 5611,
      "Ġencouraged": 5612,
      "Ġremarkable": 5613,
      "Ġpillow": 5614,
      "Ġteenagers": 5615,
      "Ġastron": 5616,
      "Ġlatin": 5617,
      "Ġstylish": 5618,
      "Ġalternatives": 5619,
      "Ġdaily": 5620,
      "Ġenvy": 5621,
      "Ġsource": 5622,
      "Ġinsecure": 5623,
      "Ġpriority": 5624,
      "Ġcurtain": 5625,
      "Ġerrors": 5626,
      "Ġliterature": 5627,
      "Ġrailroad": 5628,
      "Ġoutraged": 5629,
      "Ġpollution": 5630,
      "Ġopposite": 5631,
      "Ġunderestimate": 5632,
      "Ġpharm": 5633,
      "Ġbranch": 5634,
      "Ġlincoln": 5635,
      "Ġburglar": 5636,
      "Ġinterpreter": 5637,
      "Ġdiplomat": 5638,
      "Ġtolerate": 5639,
      "Ġhawai": 5640,
      "Ġcompliment": 5641,
      "Ġincompetent": 5642,
      "Ġalibi": 5643,
      "Ġordinary": 5644,
      "Ġflexible": 5645,
      "Ġhilarious": 5646,
      "Ġolymp": 5647,
      "Ġtrousers": 5648,
      "avery": 5649,
      "bi": 5650,
      "bon": 5651,
      "chan": 5652,
      "cise": 5653,
      "gy": 5654,
      "ials": 5655,
      "lon": 5656,
      "may": 5657,
      "nes": 5658,
      "tion": 5659,
      "ties": 5660,
      "het": 5661,
      "Ġdining": 5662,
      "Ġmr": 5663,
      "onse": 5664,
      "onde": 5665,
      "Ġbased": 5666,
      "Ġbanged": 5667,
      "Ġfaint": 5668,
      "Ġled": 5669,
      "Ġloos": 5670,
      "Ġheated": 5671,
      "orable": 5672,
      "Ġpoo": 5673,
      "Ġpal": 5674,
      "Ġpour": 5675,
      "Ġpays": 5676,
      "Ġpure": 5677,
      "Ġhaun": 5678,
      "Ġoyst": 5679,
      "Ġbees": 5680,
      "Ġinch": 5681,
      "Ġmechan": 5682,
      "Ġang": 5683,
      "Ġank": 5684,
      "Ġanti": 5685,
      "verted": 5686,
      "Ġstew": 5687,
      "Ġkick": 5688,
      "Ġnotes": 5689,
      "Ġgoat": 5690,
      "Ġknitting": 5691,
      "rol": 5692,
      "roph": 5693,
      "unciation": 5694,
      "Ġjunk": 5695,
      "Ġrat": 5696,
      "Ġwheat": 5697,
      "Ġtrack": 5698,
      "Ġtrapped": 5699,
      "Ġtracked": 5700,
      "ender": 5701,
      "Ġnodd": 5702,
      "Ġlevel": 5703,
      "Ġplumber": 5704,
      "Ġloving": 5705,
      "Ġloyal": 5706,
      "Ġunre": 5707,
      "Ġunbel": 5708,
      "Ġjustice": 5709,
      "Ġletting": 5710,
      "iles": 5711,
      "ilient": 5712,
      "Ġdele": 5713,
      "Ġdemo": 5714,
      "iece": 5715,
      "Ġenvious": 5716,
      "Ġmanual": 5717,
      "Ġprocess": 5718,
      "Ġarrog": 5719,
      "apes": 5720,
      "Ġlongest": 5721,
      "Ġpepper": 5722,
      "Ġbuses": 5723,
      "Ġbrushed": 5724,
      "Ġthoughts": 5725,
      "Ġbacked": 5726,
      "Ġadvent": 5727,
      "Ġcareer": 5728,
      "aching": 5729,
      "urned": 5730,
      "Ġoverre": 5731,
      "Ġdisor": 5732,
      "Ġpartner": 5733,
      "Ġbluff": 5734,
      "Ġblonde": 5735,
      "ption": 5736,
      "Ġbuys": 5737,
      "Ġflin": 5738,
      "Ġflir": 5739,
      "Ġresilient": 5740,
      "Ġgray": 5741,
      "Ġgrounded": 5742,
      "Ġphil": 5743,
      "Ġactive": 5744,
      "Ġactions": 5745,
      "proof": 5746,
      "gged": 5747,
      "Ġpretti": 5748,
      "Ġswims": 5749,
      "Ġowned": 5750,
      "Ġexpectations": 5751,
      "Ġsunny": 5752,
      "Ġforgetful": 5753,
      "Ġwins": 5754,
      "Ġreluct": 5755,
      "shirt": 5756,
      "Ġcommunity": 5757,
      "Ġchecking": 5758,
      "Ġ200": 5759,
      "Ġrug": 5760,
      "Ġmessed": 5761,
      "Ġcorp": 5762,
      "Ġheartb": 5763,
      "Ġlessons": 5764,
      "Ġresponse": 5765,
      "Ġsituations": 5766,
      "Ġtemporary": 5767,
      "Ġhumid": 5768,
      "Ġbankrupt": 5769,
      "Ġfatter": 5770,
      "Ġarrives": 5771,
      "Ġrisked": 5772,
      "Ġbreathing": 5773,
      "Ġannounced": 5774,
      "Ġcopies": 5775,
      "Ġdrawing": 5776,
      "Ġargued": 5777,
      "Ġbodyguard": 5778,
      "Ġdirector": 5779,
      "Ġlanded": 5780,
      "Ġnormally": 5781,
      "Ġbasic": 5782,
      "Ġcustoms": 5783,
      "Ġcuriosity": 5784,
      "Ġeuropean": 5785,
      "Ġavoiding": 5786,
      "Ġsquir": 5787,
      "Ġearthquakes": 5788,
      "Ġcollection": 5789,
      "Ġdamaged": 5790,
      "Ġhabits": 5791,
      "Ġthreatening": 5792,
      "Ġpretending": 5793,
      "Ġdespite": 5794,
      "Ġbenef": 5795,
      "Ġtourist": 5796,
      "Ġfrost": 5797,
      "Ġpuppy": 5798,
      "Ġincreased": 5799,
      "Ġincreasing": 5800,
      "Ġbutterf": 5801,
      "Ġvolunteers": 5802,
      "Ġpets": 5803,
      "Ġtoothp": 5804,
      "Ġpronunciation": 5805,
      "Ġnerves": 5806,
      "Ġpanicked": 5807,
      "Ġkilometers": 5808,
      "Ġreligion": 5809,
      "Ġblowing": 5810,
      "Ġdeclined": 5811,
      "Ġrabbits": 5812,
      "Ġhostages": 5813,
      "Ġromantic": 5814,
      "Ġarrange": 5815,
      "Ġarranged": 5816,
      "Ġtextbooks": 5817,
      "Ġcitizen": 5818,
      "Ġcitizens": 5819,
      "Ġconclusion": 5820,
      "Ġinfluence": 5821,
      "Ġdragged": 5822,
      "Ġdefeat": 5823,
      "Ġpraise": 5824,
      "Ġstatue": 5825,
      "Ġunlocked": 5826,
      "Ġseventeen": 5827,
      "Ġdye": 5828,
      "Ġrotten": 5829,
      "Ġrapid": 5830,
      "Ġgorgeous": 5831,
      "Ġgreedy": 5832,
      "Ġarchitect": 5833,
      "Ġreputation": 5834,
      "Ġtelephoned": 5835,
      "Ġsubscribe": 5836,
      "Ġdevastated": 5837,
      "Ġskeptical": 5838,
      "Ġslipp": 5839,
      "Ġnuclear": 5840,
      "Ġhawaii": 5841,
      "Ġhaunted": 5842,
      "Ġoysters": 5843,
      "avor": 5844,
      "bulous": 5845,
      "for": 5846,
      "fle": 5847,
      "ik": 5848,
      "minded": 5849,
      "ody": 5850,
      "ode": 5851,
      "off": 5852,
      "oided": 5853,
      "rise": 5854,
      "sion": 5855,
      "table": 5856,
      "uries": 5857,
      "ygen": 5858,
      "Ġut": 5859,
      "Ġvers": 5860,
      "Ġtha": 5861,
      "Ġtun": 5862,
      "hest": 5863,
      "Ġwished": 5864,
      "Ġwings": 5865,
      "Ġsake": 5866,
      "Ġsank": 5867,
      "inct": 5868,
      "Ġdried": 5869,
      "ony": 5870,
      "Ġcakes": 5871,
      "Ġfuri": 5872,
      "Ġheater": 5873,
      "Ġpant": 5874,
      "Ġpace": 5875,
      "Ġpulse": 5876,
      "Ġhamb": 5877,
      "Ġthri": 5878,
      "Ġbeers": 5879,
      "atis": 5880,
      "Ġinde": 5881,
      "ids": 5882,
      "levant": 5883,
      "Ġants": 5884,
      "Ġonto": 5885,
      "Ġreven": 5886,
      "Ġstink": 5887,
      "Ġstead": 5888,
      "Ġstones": 5889,
      "Ġlips": 5890,
      "ste": 5891,
      "storm": 5892,
      "thless": 5893,
      "thirty": 5894,
      "Ġjew": 5895,
      "Ġjury": 5896,
      "Ġrise": 5897,
      "Ġrushed": 5898,
      "Ġteens": 5899,
      "Ġtricked": 5900,
      "pelled": 5901,
      "pecially": 5902,
      "Ġsamp": 5903,
      "Ġexe": 5904,
      "ulting": 5905,
      "Ġunion": 5906,
      "Ġneeding": 5907,
      "ils": 5908,
      "Ġselected": 5909,
      "Ġchores": 5910,
      "Ġamusing": 5911,
      "ept": 5912,
      "iforn": 5913,
      "erson": 5914,
      "Ġcarbon": 5915,
      "Ġintimid": 5916,
      "Ġcliff": 5917,
      "Ġvague": 5918,
      "mbol": 5919,
      "Ġprevious": 5920,
      "Ġprecise": 5921,
      "Ġlottery": 5922,
      "Ġpoints": 5923,
      "ickering": 5924,
      "Ġspeakers": 5925,
      "Ġsmashed": 5926,
      "Ġoversle": 5927,
      "osphere": 5928,
      "Ġdiss": 5929,
      "Ġappeal": 5930,
      "Ġblast": 5931,
      "Ġfabulous": 5932,
      "Ġlaund": 5933,
      "Ġgrapes": 5934,
      "Ġcheat": 5935,
      "Ġmonkey": 5936,
      "prints": 5937,
      "Ġcontrib": 5938,
      "Ġthankful": 5939,
      "Ġpayment": 5940,
      "Ġswimmer": 5941,
      "Ġcountless": 5942,
      "Ġlistens": 5943,
      "Ġbroad": 5944,
      "ips": 5945,
      "Ġsunrise": 5946,
      "Ġslam": 5947,
      "Ġslip": 5948,
      "Ġslapped": 5949,
      "Ġkidna": 5950,
      "Ġcooks": 5951,
      "Ġkilling": 5952,
      "Ġimage": 5953,
      "Ġ11": 5954,
      "Ġ17": 5955,
      "Ġluckily": 5956,
      "Ġpolicemen": 5957,
      "Ġheads": 5958,
      "Ġadded": 5959,
      "Ġbrings": 5960,
      "Ġdepos": 5961,
      "Ġincon": 5962,
      "Ġregards": 5963,
      "Ġregrets": 5964,
      "Ġreduce": 5965,
      "Ġforecast": 5966,
      "Ġforeigner": 5967,
      "Ġfinishing": 5968,
      "Ġ25": 5969,
      "Ġterror": 5970,
      "Ġpriest": 5971,
      "Ġruthless": 5972,
      "Ġholds": 5973,
      "Ġmessages": 5974,
      "Ġlaughs": 5975,
      "Ġdealing": 5976,
      "Ġsigns": 5977,
      "Ġstores": 5978,
      "ushi": 5979,
      "Ġfixing": 5980,
      "Ġrestaurants": 5981,
      "Ġespecially": 5982,
      "Ġterrific": 5983,
      "Ġcolors": 5984,
      "Ġcaliforn": 5985,
      "Ġavoided": 5986,
      "Ġpunched": 5987,
      "Ġresponsibilities": 5988,
      "Ġbehaving": 5989,
      "Ġsending": 5990,
      "Ġmisjud": 5991,
      "Ġvoices": 5992,
      "Ġpatients": 5993,
      "Ġsymbol": 5994,
      "Ġcarrying": 5995,
      "Ġpowerless": 5996,
      "Ġslee": 5997,
      "Ġbarber": 5998,
      "Ġpulling": 5999,
      "Ġpermit": 6000,
      "Ġrequires": 6001,
      "Ġorganization": 6002,
      "Ġpairs": 6003,
      "Ġcanadians": 6004,
      "Ġbatter": 6005,
      "Ġpolitely": 6006,
      "Ġtypewriter": 6007,
      "Ġknocking": 6008,
      "Ġselfie": 6009,
      "Ġfiles": 6010,
      "Ġobjected": 6011,
      "Ġobjection": 6012,
      "Ġcollected": 6013,
      "Ġnapk": 6014,
      "Ġproperty": 6015,
      "Ġengineer": 6016,
      "Ġlocated": 6017,
      "Ġhumanity": 6018,
      "Ġacquired": 6019,
      "Ġdirections": 6020,
      "Ġresemb": 6021,
      "Ġhiking": 6022,
      "Ġscarce": 6023,
      "Ġhighest": 6024,
      "Ġtricks": 6025,
      "Ġencour": 6026,
      "going": 6027,
      "Ġcandid": 6028,
      "Ġaffects": 6029,
      "Ġobserv": 6030,
      "Ġmeasure": 6031,
      "Ġmeasures": 6032,
      "Ġskills": 6033,
      "Ġessay": 6034,
      "Ġinsects": 6035,
      "Ġvictims": 6036,
      "Ġvarious": 6037,
      "Ġirrelevant": 6038,
      "Ġcooperation": 6039,
      "Ġstretched": 6040,
      "amental": 6041,
      "Ġhypnot": 6042,
      "Ġoxygen": 6043,
      "Ġleaned": 6044,
      "Ġgrammar": 6045,
      "Ġatmosphere": 6046,
      "Ġabsorbed": 6047,
      "Ġsatisfactory": 6048,
      "Ġtrumpet": 6049,
      "Ġminimum": 6050,
      "Ġsneaky": 6051,
      "Ġoverheard": 6052,
      "Ġhumiliated": 6053,
      "Ġindependent": 6054,
      "Ġsacri": 6055,
      "Ġoverworked": 6056,
      "Ġloosen": 6057,
      "Ġbluffing": 6058,
      "Ġflirting": 6059,
      "Ġhambur": 6060,
      "Ġoverslept": 6061,
      "Ġkidnapped": 6062,
      "Ġcalifornia": 6063,
      "Ġmisjudged": 6064,
      "ale": 6065,
      "awn": 6066,
      "bow": 6067,
      "ember": 6068,
      "hus": 6069,
      "kka": 6070,
      "lin": 6071,
      "live": 6072,
      "oss": 6073,
      "ointed": 6074,
      "than": 6075,
      "ube": 6076,
      "wh": 6077,
      "why": 6078,
      "xoph": 6079,
      "Ã©": 6080,
      "Ġtank": 6081,
      "Ġtues": 6082,
      "Ġtidy": 6083,
      "Ġip": 6084,
      "Ġain": 6085,
      "Ġsaint": 6086,
      "Ġsushi": 6087,
      "Ġmal": 6088,
      "Ġmaint": 6089,
      "Ġcured": 6090,
      "Ġcds": 6091,
      "Ġfest": 6092,
      "Ġfol": 6093,
      "Ġfiled": 6094,
      "Ġlacks": 6095,
      "Ġlung": 6096,
      "anuary": 6097,
      "Ġheave": 6098,
      "Ġnet": 6099,
      "Ġgay": 6100,
      "Ġpow": 6101,
      "Ġpound": 6102,
      "asure": 6103,
      "arc": 6104,
      "met": 6105,
      "ites": 6106,
      "Ġweeds": 6107,
      "atory": 6108,
      "Ġinher": 6109,
      "ido": 6110,
      "Ġreve": 6111,
      "Ġreci": 6112,
      "Ġreward": 6113,
      "Ġstall": 6114,
      "Ġstir": 6115,
      "Ġstain": 6116,
      "Ġstab": 6117,
      "Ġstiff": 6118,
      "Ġlim": 6119,
      "Ġlion": 6120,
      "Ġforb": 6121,
      "icher": 6122,
      "Ġkobe": 6123,
      "anta": 6124,
      "aly": 6125,
      "Ġgoss": 6126,
      "seas": 6127,
      "Ġjanuary": 6128,
      "Ġasia": 6129,
      "Ġricher": 6130,
      "irmed": 6131,
      "ooked": 6132,
      "Ġteased": 6133,
      "Ġtrout": 6134,
      "Ġsoap": 6135,
      "Ġleap": 6136,
      "Ġleather": 6137,
      "Ġsaxoph": 6138,
      "Ġmarks": 6139,
      "Ġupside": 6140,
      "Ġexit": 6141,
      "Ġexting": 6142,
      "ulf": 6143,
      "Ġhappiest": 6144,
      "Ġunknown": 6145,
      "aste": 6146,
      "Ġtools": 6147,
      "Ġsept": 6148,
      "Ġconduct": 6149,
      "Ġtalkative": 6150,
      "Ġquitting": 6151,
      "Ġrifle": 6152,
      "olite": 6153,
      "olves": 6154,
      "Ġmodest": 6155,
      "Ġwrist": 6156,
      "Ġspont": 6157,
      "Ġhometown": 6158,
      "Ġoffend": 6159,
      "Ġrights": 6160,
      "box": 6161,
      "Ġpear": 6162,
      "Ġbush": 6163,
      "Ġadapt": 6164,
      "Ġhokka": 6165,
      "agious": 6166,
      "Ġguards": 6167,
      "Ġwaiter": 6168,
      "Ġoverc": 6169,
      "Ġoverseas": 6170,
      "fty": 6171,
      "Ġhandwrit": 6172,
      "omy": 6173,
      "Ġswept": 6174,
      "Ġimpolite": 6175,
      "Ġflame": 6176,
      "Ġcomic": 6177,
      "Ġdiffers": 6178,
      "Ġshowing": 6179,
      "Ġlaz": 6180,
      "Ġreserved": 6181,
      "cience": 6182,
      "Ġphr": 6183,
      "Ġrocks": 6184,
      "Ġattor": 6185,
      "Ġattached": 6186,
      "Ġcontagious": 6187,
      "Ġgreatly": 6188,
      "Ġcolds": 6189,
      "Ġrecons": 6190,
      "Ġsurprises": 6191,
      "Ġowner": 6192,
      "Ġhunger": 6193,
      "Ġwindy": 6194,
      "Ġsunb": 6195,
      "Ġenjoys": 6196,
      "Ġwarrant": 6197,
      "well": 6198,
      "Ġrelief": 6199,
      "Ġchoir": 6200,
      "Ġdiag": 6201,
      "working": 6202,
      "Ġcrush": 6203,
      "Ġstove": 6204,
      "Ġaddict": 6205,
      "Ġreflect": 6206,
      "Ġspoiled": 6207,
      "Ġbusinessman": 6208,
      "Ġchecks": 6209,
      "awa": 6210,
      "Ġsalmon": 6211,
      "Ġquietly": 6212,
      "Ġasso": 6213,
      "Ġassure": 6214,
      "Ġinsist": 6215,
      "Ġexamine": 6216,
      "Ġnecessarily": 6217,
      "Ġhonestly": 6218,
      "Ġopposed": 6219,
      "Ġtravels": 6220,
      "Ġbehaved": 6221,
      "Ġguitarist": 6222,
      "Ġpropose": 6223,
      "Ġburnt": 6224,
      "Ġ199": 6225,
      "Ġprotection": 6226,
      "aneous": 6227,
      "Ġwednes": 6228,
      "Ġwooden": 6229,
      "Ġdefense": 6230,
      "Ġpracticing": 6231,
      "Ġtalents": 6232,
      "Ġpotato": 6233,
      "Ġdelicate": 6234,
      "Ġflattered": 6235,
      "ships": 6236,
      "Ġeconomic": 6237,
      "Ġbetray": 6238,
      "Ġrecommended": 6239,
      "Ġcreate": 6240,
      "Ġvictory": 6241,
      "Ġdisgusted": 6242,
      "Ġintelligence": 6243,
      "Ġ300": 6244,
      "Ġhorrified": 6245,
      "Ġsensible": 6246,
      "Ġdestroy": 6247,
      "Ġdishon": 6248,
      "Ġsearching": 6249,
      "Ġmajority": 6250,
      "Ġtends": 6251,
      "Ġsoftware": 6252,
      "Ġcongress": 6253,
      "Ġfocused": 6254,
      "Ġreplaced": 6255,
      "Ġmelted": 6256,
      "Ġaffected": 6257,
      "Ġallergies": 6258,
      "Ġdisli": 6259,
      "Ġignorance": 6260,
      "Ġbowl": 6261,
      "Ġfields": 6262,
      "Ġexperiences": 6263,
      "Ġestate": 6264,
      "Ġdeveloped": 6265,
      "Ġresources": 6266,
      "Ġadvertise": 6267,
      "Ġcurtains": 6268,
      "Ġdisturbing": 6269,
      "Ġregardless": 6270,
      "Ġtypical": 6271,
      "Ġchampion": 6272,
      "Ġwhistling": 6273,
      "Ġninety": 6274,
      "Ġspecific": 6275,
      "Ġfrustrated": 6276,
      "Ġinterrupted": 6277,
      "Ġmemorize": 6278,
      "Ġobliged": 6279,
      "Ġguarantee": 6280,
      "Ġstruggled": 6281,
      "Ġitems": 6282,
      "Ġsurrender": 6283,
      "Ġmexico": 6284,
      "Ġangel": 6285,
      "Ġaspir": 6286,
      "Ġsociety": 6287,
      "Ġadjust": 6288,
      "Ġconsequences": 6289,
      "Ġtoothache": 6290,
      "Ġproverb": 6291,
      "Ġfrequently": 6292,
      "Ġarrogant": 6293,
      "Ġphilos": 6294,
      "Ġprettier": 6295,
      "Ġtoothpaste": 6296,
      "Ġversion": 6297,
      "Ġfurious": 6298,
      "Ġlaundry": 6299,
      "husi": 6300,
      "Ġtuesday": 6301,
      "Ġheaven": 6302,
      "Ġrecipe": 6303,
      "Ġgossip": 6304,
      "Ġsaxophone": 6305,
      "Ġseptember": 6306,
      "Ġspontaneous": 6307,
      "Ġhokkaido": 6308,
      "Ġhandwriting": 6309,
      "Ġreconsider": 6310,
      "Ġwednesday": 6311,
      "ev": 6312,
      "fight": 6313,
      "fish": 6314,
      "free": 6315,
      "iar": 6316,
      "ivers": 6317,
      "ko": 6318,
      "lph": 6319,
      "mun": 6320,
      "ole": 6321,
      "overs": 6322,
      "sha": 6323,
      "tles": 6324,
      "Ġtim": 6325,
      "Ġtub": 6326,
      "Ġtape": 6327,
      "Ġwow": 6328,
      "Ġsin": 6329,
      "inate": 6330,
      "inos": 6331,
      "Ġmild": 6332,
      "onym": 6333,
      "Ġbak": 6334,
      "Ġbible": 6335,
      "Ġbald": 6336,
      "Ġfee": 6337,
      "Ġfuel": 6338,
      "Ġfbi": 6339,
      "Ġlux": 6340,
      "inguish": 6341,
      "lli": 6342,
      "Ġgri": 6343,
      "Ġpit": 6344,
      "Ġpink": 6345,
      "Ġpages": 6346,
      "erly": 6347,
      "Ġhud": 6348,
      "asant": 6349,
      "Ġdolph": 6350,
      "Ġbears": 6351,
      "Ġbeans": 6352,
      "Ġbeware": 6353,
      "atic": 6354,
      "athetic": 6355,
      "Ġinha": 6356,
      "keys": 6357,
      "ooze": 6358,
      "Ġliqu": 6359,
      "Ġforces": 6360,
      "icians": 6361,
      "Ġknives": 6362,
      "Ġshell": 6363,
      "imated": 6364,
      "Ġshift": 6365,
      "Ġtex": 6366,
      "Ġtear": 6367,
      "Ġsomeplace": 6368,
      "Ġcoal": 6369,
      "Ġcock": 6370,
      "urally": 6371,
      "cted": 6372,
      "Ġsafer": 6373,
      "Ġoutcome": 6374,
      "Ġplot": 6375,
      "Ġunim": 6376,
      "Ġunne": 6377,
      "Ġcaution": 6378,
      "Ġcauses": 6379,
      "andal": 6380,
      "fel": 6381,
      "Ġsection": 6382,
      "Ġchief": 6383,
      "Ġwhereabout": 6384,
      "Ġamused": 6385,
      "Ġammun": 6386,
      "Ġconsp": 6387,
      "olve": 6388,
      "oline": 6389,
      "Ġwrap": 6390,
      "Ġclient": 6391,
      "Ġvir": 6392,
      "Ġpreaching": 6393,
      "Ġfema": 6394,
      "arded": 6395,
      "Ġbum": 6396,
      "assy": 6397,
      "aging": 6398,
      "agne": 6399,
      "derer": 6400,
      "Ġcallous": 6401,
      "Ġoverlook": 6402,
      "Ġawait": 6403,
      "Ġafterwards": 6404,
      "Ġdisgu": 6405,
      "omic": 6406,
      "Ġpartners": 6407,
      "Ġbloss": 6408,
      "Ġplanes": 6409,
      "Ġparent": 6410,
      "Ġflaw": 6411,
      "Ġcomments": 6412,
      "Ġaccusing": 6413,
      "Ġcheered": 6414,
      "Ġdrill": 6415,
      "Ġwaterme": 6416,
      "Ġphoned": 6417,
      "Ġshovel": 6418,
      "Ġroot": 6419,
      "Ġshad": 6420,
      "Ġchain": 6421,
      "Ġmetal": 6422,
      "Ġsmoked": 6423,
      "Ġsnack": 6424,
      "cessary": 6425,
      "Ġdifferences": 6426,
      "Ġreality": 6427,
      "Ġdiscover": 6428,
      "Ġfollows": 6429,
      "Ġexcused": 6430,
      "ception": 6431,
      "Ġcrushed": 6432,
      "Ġvisits": 6433,
      "Ġheading": 6434,
      "ological": 6435,
      "Ġentering": 6436,
      "Ġenthusi": 6437,
      "Ġrefres": 6438,
      "Ġrefrain": 6439,
      "Ġconserv": 6440,
      "Ġconscient": 6441,
      "Ġagreeing": 6442,
      "Ġconfirmed": 6443,
      "Ġsnowman": 6444,
      "Ġsnowstorm": 6445,
      "Ġbabies": 6446,
      "Ġmilitary": 6447,
      "Ġcrafty": 6448,
      "Ġshortly": 6449,
      "Ġshortage": 6450,
      "Ġhorror": 6451,
      "Ġsets": 6452,
      "Ġguns": 6453,
      "Ġadmission": 6454,
      "Ġcharged": 6455,
      "Ġtouching": 6456,
      "Ġdistinguish": 6457,
      "Ġworthy": 6458,
      "Ġworthless": 6459,
      "Ġhonor": 6460,
      "Ġimagining": 6461,
      "Ġvacant": 6462,
      "Ġflows": 6463,
      "Ġroads": 6464,
      "Ġtreatment": 6465,
      "Ġaffairs": 6466,
      "Ġchairman": 6467,
      "Ġhumans": 6468,
      "Ġbillion": 6469,
      "Ġindic": 6470,
      "Ġspeechless": 6471,
      "Ġimmediate": 6472,
      "ounts": 6473,
      "Ġinjury": 6474,
      "Ġinjuries": 6475,
      "Ġapproached": 6476,
      "Ġembassy": 6477,
      "Ġrings": 6478,
      "Ġ198": 6479,
      "Ġmagn": 6480,
      "Ġrelaxing": 6481,
      "Ġoccup": 6482,
      "Ġorganic": 6483,
      "Ġleads": 6484,
      "Ġladder": 6485,
      "Ġlanding": 6486,
      "Ġproduction": 6487,
      "Ġmurderer": 6488,
      "Ġpoliticians": 6489,
      "Ġcrimes": 6490,
      "Ġbasis": 6491,
      "Ġyelled": 6492,
      "Ġdestiny": 6493,
      "Ġfifth": 6494,
      "Ġflights": 6495,
      "Ġbeaten": 6496,
      "Ġimproving": 6497,
      "Ġattracted": 6498,
      "Ġtightly": 6499,
      "Ġsquee": 6500,
      "Ġlowered": 6501,
      "Ġbarks": 6502,
      "Ġbarked": 6503,
      "Ġnaturally": 6504,
      "Ġsuspended": 6505,
      "Ġcampus": 6506,
      "Ġhyd": 6507,
      "Ġdescribed": 6508,
      "Ġcousins": 6509,
      "Ġservant": 6510,
      "Ġ40": 6511,
      "Ġturkey": 6512,
      "Ġturtles": 6513,
      "Ġcarelessness": 6514,
      "Ġcriminals": 6515,
      "Ġwisdom": 6516,
      "Ġstomac": 6517,
      "Ġexistence": 6518,
      "Ġmerciful": 6519,
      "Ġcooperate": 6520,
      "Ġincluded": 6521,
      "Ġstrictly": 6522,
      "Ġbowed": 6523,
      "Ġrussia": 6524,
      "Ġnegotiations": 6525,
      "Ġdawn": 6526,
      "Ġtreasure": 6527,
      "Ġcounter": 6528,
      "Ġcontented": 6529,
      "Ġemotions": 6530,
      "Ġsinking": 6531,
      "Ġidentify": 6532,
      "Ġlabor": 6533,
      "Ġchampagne": 6534,
      "Ġtechnology": 6535,
      "Ġwhistle": 6536,
      "Ġdeliver": 6537,
      "Ġmassage": 6538,
      "Ġscratch": 6539,
      "Ġcommunicate": 6540,
      "Ġcommunication": 6541,
      "sticks": 6542,
      "Ġrobbery": 6543,
      "Ġinex": 6544,
      "Ġchopsticks": 6545,
      "Ġelderly": 6546,
      "Ġexaggerate": 6547,
      "Ġpunishment": 6548,
      "load": 6549,
      "Ġblanket": 6550,
      "Ġmosquitoes": 6551,
      "Ġastonished": 6552,
      "Ġhomesick": 6553,
      "ground": 6554,
      "Ġcontrad": 6555,
      "Ġdispos": 6556,
      "Ġbabysitter": 6557,
      "Ġwandered": 6558,
      "Ġtraitor": 6559,
      "Ġarabic": 6560,
      "Ġincorrect": 6561,
      "Ġastronomy": 6562,
      "Ġnodded": 6563,
      "Ġoverreacting": 6564,
      "Ġrugby": 6565,
      "atisfied": 6566,
      "Ġdeposit": 6567,
      "Ġbatteries": 6568,
      "Ġobservant": 6569,
      "Ġlimited": 6570,
      "Ġforbid": 6571,
      "Ġattorney": 6572,
      "Ġphilosop": 6573,
      "Ġunnecessary": 6574,
      "Ġwhereabouts": 6575,
      "Ġammunition": 6576,
      "Ġfemale": 6577,
      "Ġconservative": 6578,
      "Ġconscientious": 6579,
      "cil": 6580,
      "dge": 6581,
      "dled": 6582,
      "down": 6583,
      "fire": 6584,
      "lter": 6585,
      "lim": 6586,
      "lict": 6587,
      "mble": 6588,
      "mers": 6589,
      "miss": 6590,
      "mons": 6591,
      "oed": 6592,
      "phe": 6593,
      "park": 6594,
      "point": 6595,
      "person": 6596,
      "son": 6597,
      "says": 6598,
      "the": 6599,
      "tom": 6600,
      "vitable": 6601,
      "Ġx": 6602,
      "Ġtuck": 6603,
      "Ġwa": 6604,
      "Ġwi": 6605,
      "Ġwan": 6606,
      "Ġwid": 6607,
      "Ġwage": 6608,
      "Ġsip": 6609,
      "Ġsixt": 6610,
      "Ġsarc": 6611,
      "Ġsanta": 6612,
      "Ġtoss": 6613,
      "inist": 6614,
      "Ġder": 6615,
      "Ġdict": 6616,
      "Ġdread": 6617,
      "Ġduck": 6618,
      "Ġdangers": 6619,
      "Ġbent": 6620,
      "Ġbart": 6621,
      "Ġbars": 6622,
      "vey": 6623,
      "Ġcases": 6624,
      "Ġfart": 6625,
      "Ġfulf": 6626,
      "Ġlid": 6627,
      "orthy": 6628,
      "Ġnause": 6629,
      "Ġnations": 6630,
      "Ġnails": 6631,
      "Ġgall": 6632,
      "enna": 6633,
      "Ġpork": 6634,
      "Ġpump": 6635,
      "eria": 6636,
      "Ġhint": 6637,
      "mester": 6638,
      "iti": 6639,
      "iter": 6640,
      "Ġinapp": 6641,
      "iding": 6642,
      "Ġeif": 6643,
      "Ġanonym": 6644,
      "oops": 6645,
      "Ġwashes": 6646,
      "Ġrebe": 6647,
      "Ġreception": 6648,
      "Ġstream": 6649,
      "Ġlip": 6650,
      "Ġformer": 6651,
      "ometer": 6652,
      "rived": 6653,
      "stit": 6654,
      "Ġshelter": 6655,
      "unched": 6656,
      "imney": 6657,
      "Ġatomic": 6658,
      "acu": 6659,
      "Ġash": 6660,
      "Ġasian": 6661,
      "Ġrout": 6662,
      "Ġrational": 6663,
      "Ġsue": 6664,
      "Ġtroops": 6665,
      "Ġworries": 6666,
      "Ġalert": 6667,
      "Ġnoises": 6668,
      "Ġexhib": 6669,
      "qual": 6670,
      "ieving": 6671,
      "Ġmansion": 6672,
      "Ġsemester": 6673,
      "Ġchimney": 6674,
      "Ġboiling": 6675,
      "Ġprofic": 6676,
      "Ġproced": 6677,
      "cking": 6678,
      "Ġrip": 6679,
      "oles": 6680,
      "igning": 6681,
      "ighed": 6682,
      "Ġmosc": 6683,
      "Ġspir": 6684,
      "Ġspag": 6685,
      "Ġoffensive": 6686,
      "Ġspect": 6687,
      "Ġspeeding": 6688,
      "Ġbrag": 6689,
      "Ġadorable": 6690,
      "Ġorphan": 6691,
      "Ġmustache": 6692,
      "Ġunderw": 6693,
      "Ġcompan": 6694,
      "Ġguilt": 6695,
      "Ġwaitress": 6696,
      "Ġovercoat": 6697,
      "fted": 6698,
      "Ġpartly": 6699,
      "Ġbless": 6700,
      "izes": 6701,
      "Ġchannel": 6702,
      "Ġswed": 6703,
      "Ġsweep": 6704,
      "Ġscot": 6705,
      "Ġscore": 6706,
      "Ġscam": 6707,
      "Ġstartled": 6708,
      "Ġcatches": 6709,
      "Ġcatholic": 6710,
      "Ġdecre": 6711,
      "Ġdecline": 6712,
      "Ġgrade": 6713,
      "Ġbeings": 6714,
      "Ġstrang": 6715,
      "ogy": 6716,
      "ogram": 6717,
      "Ġacts": 6718,
      "Ġrolled": 6719,
      "Ġelb": 6720,
      "Ġperman": 6721,
      "gger": 6722,
      "Ġgladly": 6723,
      "Ġpromotion": 6724,
      "Ġsung": 6725,
      "Ġpassing": 6726,
      "Ġslave": 6727,
      "Ġlighter": 6728,
      "Ġlightly": 6729,
      "Ġimports": 6730,
      "Ġtrusting": 6731,
      "Ġrealistic": 6732,
      "Ġcutting": 6733,
      "Ġdiscreet": 6734,
      "Ġending": 6735,
      "Ġdresses": 6736,
      "Ġmuscles": 6737,
      "Ġunturned": 6738,
      "ubby": 6739,
      "Ġnumb": 6740,
      "Ġtrigger": 6741,
      "Ġdeprived": 6742,
      "Ġconscience": 6743,
      "Ġexplaining": 6744,
      "Ġconflict": 6745,
      "Ġ21": 6746,
      "Ġpicky": 6747,
      "Ġdolls": 6748,
      "Ġcorn": 6749,
      "Ġmedal": 6750,
      "Ġpresented": 6751,
      "Ġhoriz": 6752,
      "iety": 6753,
      "Ġdealt": 6754,
      "Ġcease": 6755,
      "Ġdeliber": 6756,
      "Ġextent": 6757,
      "Ġinstall": 6758,
      "Ġnovelist": 6759,
      "Ġsmelled": 6760,
      "Ġtransfer": 6761,
      "Ġparan": 6762,
      "Ġindivid": 6763,
      "Ġsilk": 6764,
      "Ġtravelers": 6765,
      "Ġcorrectly": 6766,
      "headed": 6767,
      "Ġpurcha": 6768,
      "Ġearliest": 6769,
      "Ġvolcan": 6770,
      "Ġ193": 6771,
      "Ġ194": 6772,
      "Ġmarrying": 6773,
      "Ġskipped": 6774,
      "Ġprivately": 6775,
      "Ġcurse": 6776,
      "Ġcurrent": 6777,
      "Ġvienna": 6778,
      "Ġwolf": 6779,
      "Ġgradually": 6780,
      "Ġpacking": 6781,
      "Ġevacu": 6782,
      "Ġeuros": 6783,
      "Ġbasement": 6784,
      "Ġsuperv": 6785,
      "Ġblinded": 6786,
      "Ġ500": 6787,
      "Ġaccountant": 6788,
      "Ġcellar": 6789,
      "Ġinvestment": 6790,
      "Ġformal": 6791,
      "Ġsuspected": 6792,
      "Ġintends": 6793,
      "Ġsaturdays": 6794,
      "Ġbene": 6795,
      "Ġgroups": 6796,
      "Ġunfor": 6797,
      "ography": 6798,
      "Ġpredicted": 6799,
      "Ġunfortunate": 6800,
      "Ġvolunteering": 6801,
      "Ġcriticized": 6802,
      "Ġwiser": 6803,
      "Ġverge": 6804,
      "Ġalarmed": 6805,
      "Ġeffects": 6806,
      "Ġalcoholic": 6807,
      "Ġfarmers": 6808,
      "Ġinvention": 6809,
      "Ġsavings": 6810,
      "Ġseparate": 6811,
      "Ġgamble": 6812,
      "Ġblocks": 6813,
      "Ġpanic": 6814,
      "Ġinclude": 6815,
      "Ġastute": 6816,
      "Ġreview": 6817,
      "Ġphotographer": 6818,
      "Ġfaithful": 6819,
      "Ġbassoon": 6820,
      "Ġcounts": 6821,
      "Ġcouncil": 6822,
      "Ġpuzzled": 6823,
      "Ġ70": 6824,
      "Ġheights": 6825,
      "Ġparticipated": 6826,
      "Ġdegree": 6827,
      "Ġbritain": 6828,
      "Ġappla": 6829,
      "Ġcotton": 6830,
      "Ġmaterials": 6831,
      "Ġerrand": 6832,
      "Ġtorn": 6833,
      "Ġtort": 6834,
      "Ġshouted": 6835,
      "Ġcongratulated": 6836,
      "Ġcongratulations": 6837,
      "Ġdelivery": 6838,
      "Ġdefeated": 6839,
      "Ġscratched": 6840,
      "Ġstrawberries": 6841,
      "Ġpigs": 6842,
      "Ġinevitable": 6843,
      "Ġinterrupting": 6844,
      "Ġelders": 6845,
      "Ġsheets": 6846,
      "Ġsewing": 6847,
      "Ġgrandparents": 6848,
      "when": 6849,
      "Ġpipe": 6850,
      "Ġconstruction": 6851,
      "Ġquarrel": 6852,
      "Ġspinach": 6853,
      "Ġrelatives": 6854,
      "Ġtroubled": 6855,
      "Ġtitle": 6856,
      "Ġswallow": 6857,
      "Ġcrawling": 6858,
      "Ġcreepy": 6859,
      "Ġrenew": 6860,
      "Ġkorean": 6861,
      "Ġintrigued": 6862,
      "Ġcollapsed": 6863,
      "Ġdemonstration": 6864,
      "Ġdisobeyed": 6865,
      "Ġreduced": 6866,
      "Ġopportunities": 6867,
      "Ġpharmacy": 6868,
      "hetti": 6869,
      "Ġmechanic": 6870,
      "Ġunbelievable": 6871,
      "Ġsquirrel": 6872,
      "Ġrapidly": 6873,
      "Ġexecut": 6874,
      "Ġcontribute": 6875,
      "Ġinconven": 6876,
      "Ġsleeve": 6877,
      "Ġresembles": 6878,
      "Ġscarcely": 6879,
      "Ġsacrific": 6880,
      "Ġfestival": 6881,
      "Ġinherited": 6882,
      "Ġdishonest": 6883,
      "Ġstomachache": 6884,
      "Ġphilosophy": 6885,
      "Ġwanna": 6886,
      "Ġfarther": 6887,
      "Ġinappro": 6888,
      "Ġeiffel": 6889,
      "Ġanonymous": 6890,
      "Ġproficient": 6891,
      "Ġmoscow": 6892,
      "Ġspaghetti": 6893,
      "Ġpermanent": 6894,
      "!\"": 6895,
      "ban": 6896,
      "brow": 6897,
      "bag": 6898,
      "case": 6899,
      "food": 6900,
      "four": 6901,
      "gment": 6902,
      "hor": 6903,
      "ij": 6904,
      "lance": 6905,
      "mination": 6906,
      "pack": 6907,
      "ration": 6908,
      "rous": 6909,
      "race": 6910,
      "sis": 6911,
      "tan": 6912,
      "wr": 6913,
      "walk": 6914,
      "yard": 6915,
      "Ġult": 6916,
      "Ġtap": 6917,
      "Ġtick": 6918,
      "hens": 6919,
      "Ġamp": 6920,
      "Ġaug": 6921,
      "Ġwink": 6922,
      "Ġtone": 6923,
      "Ġdull": 6924,
      "Ġdates": 6925,
      "Ġdinos": 6926,
      "Ġmult": 6927,
      "oning": 6928,
      "Ġber": 6929,
      "Ġbore": 6930,
      "Ġbones": 6931,
      "Ġcas": 6932,
      "Ġlink": 6933,
      "anes": 6934,
      "anji": 6935,
      "lley": 6936,
      "Ġgre": 6937,
      "Ġgang": 6938,
      "Ġguts": 6939,
      "Ġped": 6940,
      "aser": 6941,
      "Ġisol": 6942,
      "Ġdove": 6943,
      "itled": 6944,
      "leasant": 6945,
      "Ġmeter": 6946,
      "Ġant": 6947,
      "Ġrein": 6948,
      "Ġreck": 6949,
      "Ġrewr": 6950,
      "Ġsteel": 6951,
      "Ġlif": 6952,
      "Ġliars": 6953,
      "Ġforms": 6954,
      "Ġkanji": 6955,
      "child": 6956,
      "roken": 6957,
      "rogen": 6958,
      "unken": 6959,
      "entive": 6960,
      "Ġwithd": 6961,
      "hern": 6962,
      "acts": 6963,
      "Ġshining": 6964,
      "Ġrank": 6965,
      "Ġtiger": 6966,
      "Ġtigers": 6967,
      "orer": 6968,
      "Ġtraged": 6969,
      "enda": 6970,
      "endar": 6971,
      "Ġsock": 6972,
      "peare": 6973,
      "Ġlemon": 6974,
      "Ġlemons": 6975,
      "Ġsailing": 6976,
      "Ġplates": 6977,
      "Ġjustify": 6978,
      "Ġcausing": 6979,
      "Ġlets": 6980,
      "Ġhelmet": 6981,
      "quar": 6982,
      "quate": 6983,
      "istry": 6984,
      "Ġtool": 6985,
      "Ġenorm": 6986,
      "Ġmanip": 6987,
      "Ġchubby": 6988,
      "Ġagric": 6989,
      "Ġagenda": 6990,
      "amb": 6991,
      "aming": 6992,
      "Ġboil": 6993,
      "Ġproved": 6994,
      "Ġquant": 6995,
      "Ġcarries": 6996,
      "Ġspr": 6997,
      "Ġspicy": 6998,
      "Ġspider": 6999,
      "Ġmug": 7000,
      "Ġprem": 7001,
      "Ġprejud": 7002,
      "Ġfellow": 7003,
      "itement": 7004,
      "Ġbroom": 7005,
      "Ġbrick": 7006,
      "Ġdrastic": 7007,
      "Ġdrunken": 7008,
      "Ġhousework": 7009,
      "Ġoverwhe": 7010,
      "Ġdispl": 7011,
      "Ġdisres": 7012,
      "Ġdismiss": 7013,
      "Ġexpressed": 7014,
      "Ġblink": 7015,
      "Ġblond": 7016,
      "Ġblush": 7017,
      "Ġblaming": 7018,
      "Ġscrap": 7019,
      "Ġscandal": 7020,
      "Ġglance": 7021,
      "Ġhurric": 7022,
      "Ġflute": 7023,
      "Ġlaunched": 7024,
      "Ġquestioning": 7025,
      "Ġresume": 7026,
      "Ġadvanced": 7027,
      "ulture": 7028,
      "Ġremembering": 7029,
      "Ġminds": 7030,
      "Ġmonster": 7031,
      "Ġmonkeys": 7032,
      "Ġattach": 7033,
      "print": 7034,
      "Ġperio": 7035,
      "Ġcontribut": 7036,
      "Ġpainter": 7037,
      "Ġdesires": 7038,
      "Ġdesigned": 7039,
      "Ġcolder": 7040,
      "bell": 7041,
      "Ġcounted": 7042,
      "Ġshakes": 7043,
      "Ġchap": 7044,
      "Ġsits": 7045,
      "Ġvision": 7046,
      "Ġpassion": 7047,
      "Ġmostly": 7048,
      "Ġsnickering": 7049,
      "Ġslavery": 7050,
      "Ġskating": 7051,
      "Ġ13": 7052,
      "Ġsickness": 7053,
      "Ġexcitement": 7054,
      "asonable": 7055,
      "Ġdial": 7056,
      "Ġrefuge": 7057,
      "Ġbicycles": 7058,
      "Ġconfide": 7059,
      "Ġregion": 7060,
      "Ġcountryside": 7061,
      "Ġgrowth": 7062,
      "Ġsnows": 7063,
      "Ġsnowed": 7064,
      "Ġspoil": 7065,
      "Ġcostume": 7066,
      "Ġsecretly": 7067,
      "Ġcatching": 7068,
      "Ġcompleted": 7069,
      "Ġcomplains": 7070,
      "Ġpathetic": 7071,
      "Ġadminist": 7072,
      "Ġgrandchild": 7073,
      "Ġhospitality": 7074,
      "Ġlocker": 7075,
      "Ġassert": 7076,
      "Ġcups": 7077,
      "Ġextro": 7078,
      "berg": 7079,
      "Ġfloats": 7080,
      "Ġexplode": 7081,
      "Ġtaxis": 7082,
      "Ġcalmed": 7083,
      "Ġcalendar": 7084,
      "Ġsubur": 7085,
      "Ġconsiderate": 7086,
      "Ġjoining": 7087,
      "Ġfooling": 7088,
      "Ġstarve": 7089,
      "Ġreceiving": 7090,
      "Ġcorrected": 7091,
      "Ġbehaves": 7092,
      "Ġvolley": 7093,
      "Ġheavier": 7094,
      "Ġfairy": 7095,
      "Ġfreaked": 7096,
      "Ġapproval": 7097,
      "Ġregretted": 7098,
      "Ġgifted": 7099,
      "Ġdeepest": 7100,
      "Ġannounce": 7101,
      "Ġcontrolled": 7102,
      "Ġunique": 7103,
      "Ġclosing": 7104,
      "Ġmagician": 7105,
      "Ġeyebrow": 7106,
      "Ġorganize": 7107,
      "Ġmuseums": 7108,
      "Ġdoubtful": 7109,
      "Ġsticky": 7110,
      "Ġtales": 7111,
      "Ġwashington": 7112,
      "Ġrobot": 7113,
      "Ġgasoline": 7114,
      "Ġseafood": 7115,
      "Ġexceptions": 7116,
      "Ġchocolates": 7117,
      "Ġbrilli": 7118,
      "Ġsteam": 7119,
      "Ġgolden": 7120,
      "Ġdevice": 7121,
      "Ġfilthy": 7122,
      "Ġobjective": 7123,
      "Ġbrightest": 7124,
      "Ġsuspects": 7125,
      "Ġweakness": 7126,
      "Ġemployee": 7127,
      "Ġobeyed": 7128,
      "Ġlocation": 7129,
      "Ġdespises": 7130,
      "Ġjudgement": 7131,
      "Ġacquitted": 7132,
      "Ġconstant": 7133,
      "Ġprofession": 7134,
      "Ġfingern": 7135,
      "Ġhesitated": 7136,
      "Ġ80": 7137,
      "Ġcompete": 7138,
      "Ġcourageous": 7139,
      "Ġtowels": 7140,
      "Ġdecember": 7141,
      "Ġpassenger": 7142,
      "Ġrequested": 7143,
      "Ġtendency": 7144,
      "Ġseparately": 7145,
      "Ġcreated": 7146,
      "Ġfashionable": 7147,
      "Ġkilos": 7148,
      "Ġconcluded": 7149,
      "Ġnegotiate": 7150,
      "Ġphysical": 7151,
      "Ġphysics": 7152,
      "Ġresponded": 7153,
      "Ġbiology": 7154,
      "undant": 7155,
      "Ġjuly": 7156,
      "Ġestab": 7157,
      "Ġrubbed": 7158,
      "Ġconvenience": 7159,
      "Ġwhales": 7160,
      "Ġlimits": 7161,
      "Ġsalesman": 7162,
      "Ġfascinated": 7163,
      "Ġadvertising": 7164,
      "Ġidentity": 7165,
      "Ġunpleasant": 7166,
      "Ġconclusions": 7167,
      "Ġshouting": 7168,
      "Ġbarefo": 7169,
      "Ġcheeks": 7170,
      "Ġelephant": 7171,
      "Ġpraised": 7172,
      "Ġprotested": 7173,
      "Ġunbear": 7174,
      "Ġspecies": 7175,
      "Ġgathering": 7176,
      "Ġmicrophone": 7177,
      "Ġbalance": 7178,
      "Ġvotes": 7179,
      "Ġinspired": 7180,
      "Ġmixed": 7181,
      "Ġchemistry": 7182,
      "Ġrelatively": 7183,
      "Ġtroubles": 7184,
      "Ġpierced": 7185,
      "Ġstressful": 7186,
      "Ġofficial": 7187,
      "Ġchewed": 7188,
      "Ġblackmailed": 7189,
      "Ġirritating": 7190,
      "Ġfreezing": 7191,
      "Ġvocation": 7192,
      "Ġcabinet": 7193,
      "Ġsympathy": 7194,
      "heartedly": 7195,
      "Ġacknowled": 7196,
      "Ġstroke": 7197,
      "Ġolympics": 7198,
      "Ġunreasonable": 7199,
      "Ġdemocr": 7200,
      "Ġcorpor": 7201,
      "Ġheartbroken": 7202,
      "Ġpanting": 7203,
      "Ġthrilled": 7204,
      "Ġrevenge": 7205,
      "Ġstinks": 7206,
      "Ġslammed": 7207,
      "thank": 7208,
      "Ġmaintain": 7209,
      "Ġpowers": 7210,
      "Ġaspirin": 7211,
      "Ġluxury": 7212,
      "Ġhuddled": 7213,
      "Ġwatermelon": 7214,
      "Ġsixteen": 7215,
      "Ġbartender": 7216,
      "Ġnauseous": 7217,
      "qualified": 7218,
      "Ġspirits": 7219,
      "Ġparanoid": 7220,
      "Ġaugust": 7221,
      "Ġdinosaur": 7222,
      "Ġenormous": 7223,
      "Ġmanipul": 7224,
      "Ġagriculture": 7225,
      "Ġoverwhel": 7226,
      "Ġdisrespect": 7227,
      "Ġhurricane": 7228,
      "Ġshakespeare": 7229,
      "Ġvolleyball": 7230,
      "Ġannouncement": 7231,
      "Ġbrilliant": 7232,
      "20": 7233,
      "bl": 7234,
      "bar": 7235,
      "bone": 7236,
      "bur": 7237,
      "cher": 7238,
      "corn": 7239,
      "dream": 7240,
      "fl": 7241,
      "fall": 7242,
      "five": 7243,
      "gred": 7244,
      "hj": 7245,
      "iver": 7246,
      "li": 7247,
      "lor": 7248,
      "liness": 7249,
      "mal": 7250,
      "mary": 7251,
      "nical": 7252,
      "piece": 7253,
      "test": 7254,
      "tray": 7255,
      "war": 7256,
      "worthy": 7257,
      "zard": 7258,
      "Ġven": 7259,
      "Ġtan": 7260,
      "Ġtiss": 7261,
      "Ġii": 7262,
      "Ġaven": 7263,
      "Ġwinner": 7264,
      "Ġwages": 7265,
      "Ġwires": 7266,
      "Ġsorts": 7267,
      "ham": 7268,
      "inci": 7269,
      "Ġdated": 7270,
      "Ġmer": 7271,
      "Ġmow": 7272,
      "Ġmam": 7273,
      "Ġtheft": 7274,
      "Ġtherm": 7275,
      "onnect": 7276,
      "Ġcart": 7277,
      "Ġcub": 7278,
      "Ġfry": 7279,
      "Ġfuse": 7280,
      "Ġfountain": 7281,
      "Ġloo": 7282,
      "anic": 7283,
      "isor": 7284,
      "Ġheating": 7285,
      "Ġgaz": 7286,
      "Ġpee": 7287,
      "Ġpry": 7288,
      "Ġhay": 7289,
      "Ġhallow": 7290,
      "Ġhacks": 7291,
      "Ġhairsty": 7292,
      "Ġhiring": 7293,
      "asm": 7294,
      "Ġdogh": 7295,
      "Ġdope": 7296,
      "Ġdozed": 7297,
      "Ġwester": 7298,
      "esters": 7299,
      "Ġingred": 7300,
      "Ġonions": 7301,
      "Ġstressed": 7302,
      "Ġforks": 7303,
      "Ġkite": 7304,
      "Ġwhatso": 7305,
      "rial": 7306,
      "Ġnephe": 7307,
      "stand": 7308,
      "rop": 7309,
      "ading": 7310,
      "ented": 7311,
      "tering": 7312,
      "imately": 7313,
      "Ġjar": 7314,
      "Ġjet": 7315,
      "Ġrage": 7316,
      "Ġrats": 7317,
      "utton": 7318,
      "Ġalley": 7319,
      "iracy": 7320,
      "Ġabst": 7321,
      "Ġabol": 7322,
      "Ġteles": 7323,
      "ainer": 7324,
      "Ġsomewhat": 7325,
      "Ġcoc": 7326,
      "Ġcope": 7327,
      "Ġali": 7328,
      "ups": 7329,
      "Ġusa": 7330,
      "aki": 7331,
      "Ġseek": 7332,
      "Ġoutf": 7333,
      "Ġoutlive": 7334,
      "Ġmarath": 7335,
      "Ġexcess": 7336,
      "Ġlover": 7337,
      "Ġlovers": 7338,
      "Ġunin": 7339,
      "Ġunam": 7340,
      "Ġunmar": 7341,
      "Ġdeer": 7342,
      "Ġseas": 7343,
      "Ġseeds": 7344,
      "Ġpleaded": 7345,
      "Ġcontemp": 7346,
      "Ġboiled": 7347,
      "ership": 7348,
      "Ġclum": 7349,
      "Ġclerk": 7350,
      "ounding": 7351,
      "Ġhomeless": 7352,
      "Ġmule": 7353,
      "Ġvoy": 7354,
      "Ġfebr": 7355,
      "Ġbooked": 7356,
      "Ġbelieving": 7357,
      "Ġorient": 7358,
      "Ġacce": 7359,
      "Ġpole": 7360,
      "icky": 7361,
      "Ġcompar": 7362,
      "Ġovertime": 7363,
      "Ġovercome": 7364,
      "Ġawoke": 7365,
      "Ġappointed": 7366,
      "Ġhandic": 7367,
      "Ġblank": 7368,
      "Ġfax": 7369,
      "Ġfinicky": 7370,
      "Ġimply": 7371,
      "Ġflour": 7372,
      "Ġdoorbell": 7373,
      "Ġresort": 7374,
      "Ġresident": 7375,
      "Ġresched": 7376,
      "Ġremembers": 7377,
      "Ġkindly": 7378,
      "teous": 7379,
      "Ġdriven": 7380,
      "Ġbeds": 7381,
      "Ġraincoat": 7382,
      "oya": 7383,
      "Ġwatering": 7384,
      "merous": 7385,
      "Ġattributed": 7386,
      "Ġattentive": 7387,
      "Ġmisses": 7388,
      "Ġdesign": 7389,
      "Ġrecy": 7390,
      "Ġchased": 7391,
      "Ġinvaded": 7392,
      "Ġinviting": 7393,
      "Ġrestr": 7394,
      "ficial": 7395,
      "Ġwinds": 7396,
      "Ġserver": 7397,
      "Ġarrival": 7398,
      "Ġsunsh": 7399,
      "Ġsunlight": 7400,
      "Ġmeetings": 7401,
      "Ġsnake": 7402,
      "Ġsnap": 7403,
      "Ġdiscour": 7404,
      "Ġdiscovery": 7405,
      "Ġbites": 7406,
      "Ġparks": 7407,
      "Ġnumerous": 7408,
      "Ġdipping": 7409,
      "works": 7410,
      "Ġtripped": 7411,
      "Ġadding": 7412,
      "Ġdepressing": 7413,
      "axed": 7414,
      "Ġrefle": 7415,
      "Ġrefund": 7416,
      "Ġsentenced": 7417,
      "Ġconfess": 7418,
      "Ġconfron": 7419,
      "Ġallowance": 7420,
      "Ġforehead": 7421,
      "pering": 7422,
      "Ġdifferently": 7423,
      "Ġ23": 7424,
      "Ġinfuri": 7425,
      "Ġprimary": 7426,
      "Ġteams": 7427,
      "Ġdiscussing": 7428,
      "Ġsalty": 7429,
      "Ġhospitalized": 7430,
      "Ġassign": 7431,
      "umption": 7432,
      "Ġworthwh": 7433,
      "Ġmoves": 7434,
      "Ġexperts": 7435,
      "Ġinstant": 7436,
      "Ġcourteous": 7437,
      "Ġruled": 7438,
      "Ġcolumb": 7439,
      "Ġoffering": 7440,
      "Ġtemple": 7441,
      "Ġtemples": 7442,
      "Ġtestify": 7443,
      "Ġmedication": 7444,
      "Ġsolid": 7445,
      "Ġpopcorn": 7446,
      "Ġpenny": 7447,
      "Ġprophe": 7448,
      "Ġtopics": 7449,
      "Ġannivers": 7450,
      "Ġspecialty": 7451,
      "Ġbarbe": 7452,
      "Ġholes": 7453,
      "Ġboats": 7454,
      "Ġdependent": 7455,
      "Ġurban": 7456,
      "Ġmahj": 7457,
      "Ġleading": 7458,
      "Ġfeeds": 7459,
      "Ġevident": 7460,
      "Ġjudgment": 7461,
      "Ġsuperior": 7462,
      "Ġballs": 7463,
      "Ġblinds": 7464,
      "Ġdefine": 7465,
      "Ġuniversal": 7466,
      "raph": 7467,
      "Ġmillions": 7468,
      "Ġgarlic": 7469,
      "Ġpeaceful": 7470,
      "Ġscheduled": 7471,
      "Ġpotential": 7472,
      "Ġexercising": 7473,
      "minute": 7474,
      "Ġaccomplished": 7475,
      "Ġcello": 7476,
      "Ġwisely": 7477,
      "Ġfrightening": 7478,
      "Ġdevil": 7479,
      "Ġbleed": 7480,
      "Ġfilms": 7481,
      "Ġautom": 7482,
      "Ġautomat": 7483,
      "elry": 7484,
      "Ġmajors": 7485,
      "Ġaudio": 7486,
      "Ġacquaint": 7487,
      "oded": 7488,
      "Ġharmful": 7489,
      "Ġscientific": 7490,
      "Ġeducated": 7491,
      "Ġdirectly": 7492,
      "Ġdiseases": 7493,
      "Ġdescription": 7494,
      "Ġdieting": 7495,
      "Ġexamples": 7496,
      "Ġinstrument": 7497,
      "Ġclaus": 7498,
      "Ġairplanes": 7499,
      "Ġintentions": 7500,
      "Ġintentionally": 7501,
      "Ġsuspicion": 7502,
      "lights": 7503,
      "Ġgentlemen": 7504,
      "Ġstrive": 7505,
      "Ġprograms": 7506,
      "Ġstrenuous": 7507,
      "Ġdeceased": 7508,
      "Ġsurfing": 7509,
      "Ġissues": 7510,
      "bbing": 7511,
      "Ġlogic": 7512,
      "Ġodds": 7513,
      "Ġmelting": 7514,
      "Ġobserve": 7515,
      "Ġobsessed": 7516,
      "Ġindustrial": 7517,
      "Ġadopt": 7518,
      "Ġdivide": 7519,
      "Ġsympathetic": 7520,
      "Ġastrol": 7521,
      "Ġkilogram": 7522,
      "Ġsuggestions": 7523,
      "Ġignoring": 7524,
      "Ġdeclared": 7525,
      "Ġphysically": 7526,
      "Ġdetailed": 7527,
      "Ġbiased": 7528,
      "Ġweighs": 7529,
      "Ġprotesters": 7530,
      "Ġreservations": 7531,
      "Ġclaimed": 7532,
      "Ġdigest": 7533,
      "Ġwitnessed": 7534,
      "Ġlabel": 7535,
      "Ġgaining": 7536,
      "Ġsincerely": 7537,
      "Ġregarded": 7538,
      "Ġtypist": 7539,
      "Ġinfluential": 7540,
      "Ġtechnical": 7541,
      "Ġstretch": 7542,
      "Ġfinancially": 7543,
      "Ġflooded": 7544,
      "Ġimmigr": 7545,
      "Ġbullets": 7546,
      "Ġsailor": 7547,
      "Ġoutrank": 7548,
      "Ġunbutton": 7549,
      "Ġfrustrating": 7550,
      "Ġrecovering": 7551,
      "Ġfussy": 7552,
      "Ġcalculated": 7553,
      "Ġmemorized": 7554,
      "Ġdecorated": 7555,
      "loaded": 7556,
      "Ġblankets": 7557,
      "Ġrevolution": 7558,
      "Ġastonish": 7559,
      "Ġnagoya": 7560,
      "Ġactivity": 7561,
      "Ġactivities": 7562,
      "Ġconsciousness": 7563,
      "Ġtraditional": 7564,
      "Ġtitanic": 7565,
      "Ġswallowed": 7566,
      "Ġprinciples": 7567,
      "Ġinfected": 7568,
      "Ġathletic": 7569,
      "Ġpacific": 7570,
      "Ġmutual": 7571,
      "Ġreaction": 7572,
      "Ġkarate": 7573,
      "Ġpoorer": 7574,
      "Ġpalace": 7575,
      "Ġankle": 7576,
      "Ġdelete": 7577,
      "Ġadventure": 7578,
      "Ġflinching": 7579,
      "Ġreluctant": 7580,
      "Ġtunnel": 7581,
      "Ġsteady": 7582,
      "Ġjewelry": 7583,
      "Ġsample": 7584,
      "Ġdissatisfied": 7585,
      "Ġcandidate": 7586,
      "Ġfolks": 7587,
      "Ġstalling": 7588,
      "Ġstabbed": 7589,
      "Ġassoci": 7590,
      "Ġbakery": 7591,
      "Ġdisguised": 7592,
      "parked": 7593,
      "Ġsarcastic": 7594,
      "Ġrebels": 7595,
      "Ġashtray": 7596,
      "Ġprocedure": 7597,
      "Ġindividual": 7598,
      "Ġapplauded": 7599,
      "Ġinconvenience": 7600,
      "Ġinappropriate": 7601,
      "Ġisolated": 7602,
      "orers": 7603,
      "Ġtragedy": 7604,
      "Ġassertive": 7605,
      "Ġextroverted": 7606,
      "Ġsuburbs": 7607,
      "Ġeyebrows": 7608,
      "Ġfingernails": 7609,
      "Ġbarefoot": 7610,
      "Ġunbearable": 7611,
      "Ġdemocracy": 7612,
      "Ġdinosaurs": 7613,
      "Ġhalloween": 7614,
      "Ġhacksaw": 7615,
      "Ġhairstyle": 7616,
      "Ġdoghouse": 7617,
      "Ġingredient": 7618,
      "Ġwhatsoever": 7619,
      "Ġnephew": 7620,
      "Ġtelescope": 7621,
      "Ġunambitious": 7622,
      "Ġunmarried": 7623,
      "Ġvoyage": 7624,
      "Ġfebruary": 7625,
      "Ġsunshine": 7626,
      "Ġconfronted": 7627,
      "Ġworthwhile": 7628,
      "Ġcolumbus": 7629,
      "Ġanniversary": 7630,
      "Ġmahjong": 7631,
      "Ġkilograms": 7632,
      "Ġunbuttoned": 7633,
      "%.": 7634,
      "14": 7635,
      "bu": 7636,
      "bul": 7637,
      "back": 7638,
      "cd": 7639,
      "cest": 7640,
      "cond": 7641,
      "cling": 7642,
      "da": 7643,
      "dles": 7644,
      "eed": 7645,
      "fact": 7646,
      "jo": 7647,
      "lted": 7648,
      "my": 7649,
      "nate": 7650,
      "name": 7651,
      "ox": 7652,
      "ods": 7653,
      "ollen": 7654,
      "pes": 7655,
      "ser": 7656,
      "sized": 7657,
      "uk": 7658,
      "ument": 7659,
      "ximately": 7660,
      "zart": 7661,
      "Ġ'": 7662,
      "Ġted": 7663,
      "Ġtrom": 7664,
      "Ġtide": 7665,
      "Ġtab": 7666,
      "Ġtale": 7667,
      "Ġapt": 7668,
      "Ġwounds": 7669,
      "Ġwolves": 7670,
      "Ġsan": 7671,
      "Ġsed": 7672,
      "Ġyo": 7673,
      "Ġyog": 7674,
      "Ġtons": 7675,
      "inated": 7676,
      "Ġdies": 7677,
      "Ġdug": 7678,
      "Ġditch": 7679,
      "Ġmand": 7680,
      "Ġbache": 7681,
      "Ġbooze": 7682,
      "Ġcou": 7683,
      "Ġfier": 7684,
      "Ġly": 7685,
      "Ġlun": 7686,
      "anuts": 7687,
      "isc": 7688,
      "isure": 7689,
      "ller": 7690,
      "orate": 7691,
      "orters": 7692,
      "Ġnut": 7693,
      "Ġnast": 7694,
      "enic": 7695,
      "Ġpies": 7696,
      "Ġpud": 7697,
      "Ġhil": 7698,
      "Ġhike": 7699,
      "Ġhives": 7700,
      "Ġthinner": 7701,
      "Ġovere": 7702,
      "asp": 7703,
      "itam": 7704,
      "itution": 7705,
      "Ġeb": 7706,
      "Ġancest": 7707,
      "Ġstare": 7708,
      "Ġstoned": 7709,
      "Ġlifet": 7710,
      "Ġforcing": 7711,
      "icop": 7712,
      "icket": 7713,
      "Ġcane": 7714,
      "ria": 7715,
      "rily": 7716,
      "rimination": 7717,
      "stop": 7718,
      "stra": 7719,
      "Ġknit": 7720,
      "sex": 7721,
      "sever": 7722,
      "Ġjes": 7723,
      "allel": 7724,
      "Ġatl": 7725,
      "Ġshiver": 7726,
      "Ġrack": 7727,
      "Ġrud": 7728,
      "Ġrash": 7729,
      "ustroph": 7730,
      "Ġalleg": 7731,
      "Ġsued": 7732,
      "iration": 7733,
      "aine": 7734,
      "Ġsomehow": 7735,
      "Ġtrace": 7736,
      "Ġworm": 7737,
      "Ġsoil": 7738,
      "Ġsober": 7739,
      "urd": 7740,
      "ctic": 7741,
      "Ġleisure": 7742,
      "Ġoutra": 7743,
      "mpoo": 7744,
      "Ġupd": 7745,
      "uls": 7746,
      "Ġplus": 7747,
      "Ġunac": 7748,
      "Ġcable": 7749,
      "Ġcafet": 7750,
      "opsy": 7751,
      "Ġdear": 7752,
      "ategy": 7753,
      "Ġhelicop": 7754,
      "ques": 7755,
      "few": 7756,
      "Ġsex": 7757,
      "Ġsealed": 7758,
      "Ġchoos": 7759,
      "Ġchips": 7760,
      "Ġconqu": 7761,
      "Ġpros": 7762,
      "Ġprosp": 7763,
      "Ġripe": 7764,
      "Ġripped": 7765,
      "Ġmozart": 7766,
      "Ġintr": 7767,
      "Ġarcha": 7768,
      "Ġclar": 7769,
      "Ġclick": 7770,
      "Ġspouse": 7771,
      "ortal": 7772,
      "Ġvul": 7773,
      "Ġvig": 7774,
      "Ġvitam": 7775,
      "Ġmakeup": 7776,
      "Ġfeared": 7777,
      "boy": 7778,
      "Ġpeas": 7779,
      "Ġpeanuts": 7780,
      "Ġbride": 7781,
      "Ġbrace": 7782,
      "Ġbraces": 7783,
      "Ġthoughtful": 7784,
      "Ġbackyard": 7785,
      "Ġbump": 7786,
      "Ġbudd": 7787,
      "Ġorche": 7788,
      "Ġacid": 7789,
      "Ġcompre": 7790,
      "Ġsmiles": 7791,
      "Ġharsh": 7792,
      "Ġprayed": 7793,
      "Ġhousew": 7794,
      "raw": 7795,
      "Ġdisney": 7796,
      "Ġnights": 7797,
      "Ġschol": 7798,
      "Ġhandles": 7799,
      "Ġhandcu": 7800,
      "Ġhandbag": 7801,
      "Ġdowns": 7802,
      "Ġexpand": 7803,
      "Ġexpose": 7804,
      "Ġexpired": 7805,
      "Ġblouse": 7806,
      "Ġblog": 7807,
      "Ġblushed": 7808,
      "Ġblessed": 7809,
      "Ġswollen": 7810,
      "Ġhardworking": 7811,
      "angle": 7812,
      "Ġscr": 7813,
      "Ġscan": 7814,
      "Ġglob": 7815,
      "Ġfled": 7816,
      "Ġflavor": 7817,
      "abul": 7818,
      "Ġhopefully": 7819,
      "Ġcattle": 7820,
      "Ġhats": 7821,
      "Ġdeciding": 7822,
      "Ġfunds": 7823,
      "Ġfunction": 7824,
      "Ġmatches": 7825,
      "Ġgrump": 7826,
      "terest": 7827,
      "Ġstrategy": 7828,
      "Ġrainbow": 7829,
      "Ġinterests": 7830,
      "Ġfounded": 7831,
      "Ġmonument": 7832,
      "Ġevents": 7833,
      "Ġbeggar": 7834,
      "Ġenglishman": 7835,
      "Ġactual": 7836,
      "Ġrode": 7837,
      "Ġattained": 7838,
      "Ġpersever": 7839,
      "Ġrunner": 7840,
      "Ġcontributed": 7841,
      "Ġfract": 7842,
      "Ġgreater": 7843,
      "Ġrecovery": 7844,
      "Ġshaved": 7845,
      "Ġshampoo": 7846,
      "Ġbroch": 7847,
      "ipment": 7848,
      "Ġinval": 7849,
      "Ġrestroom": 7850,
      "Ġrepub": 7851,
      "Ġsunk": 7852,
      "spons": 7853,
      "Ġsnee": 7854,
      "Ġsnacks": 7855,
      "Ġwars": 7856,
      "Ġslower": 7857,
      "Ġaccidentally": 7858,
      "Ġlighten": 7859,
      "Ġdiscrimination": 7860,
      "Ġrelied": 7861,
      "Ġendings": 7862,
      "Ġbiting": 7863,
      "Ġclassmate": 7864,
      "Ġfireworks": 7865,
      "Ġmusical": 7866,
      "Ġdime": 7867,
      "Ġcricket": 7868,
      "Ġtrim": 7869,
      "Ġtries": 7870,
      "Ġhighway": 7871,
      "Ġdreamer": 7872,
      "Ġheadlights": 7873,
      "udes": 7874,
      "Ġentitled": 7875,
      "lican": 7876,
      "Ġregained": 7877,
      "Ġtowns": 7878,
      "Ġcommission": 7879,
      "Ġthroughout": 7880,
      "Ġabsurd": 7881,
      "Ġtrips": 7882,
      "Ġterm": 7883,
      "Ġterrit": 7884,
      "brainer": 7885,
      "Ġfails": 7886,
      "Ġmedit": 7887,
      "Ġpattern": 7888,
      "Ġsignature": 7889,
      "Ġartific": 7890,
      "Ġempha": 7891,
      "Ġsweating": 7892,
      "Ġpaperwork": 7893,
      "Ġassigned": 7894,
      "Ġdeluding": 7895,
      "Ġinstantly": 7896,
      "Ġinstinct": 7897,
      "Ġnecessity": 7898,
      "Ġcourtes": 7899,
      "Ġvacations": 7900,
      "Ġgardening": 7901,
      "Ġriddle": 7902,
      "Ġtempting": 7903,
      "Ġcameras": 7904,
      "Ġparag": 7905,
      "Ġparallel": 7906,
      "Ġsolar": 7907,
      "Ġfootprints": 7908,
      "Ġrecognition": 7909,
      "Ġumbrellas": 7910,
      "check": 7911,
      "Ġshots": 7912,
      "Ġwarmly": 7913,
      "ounter": 7914,
      "Ġfreak": 7915,
      "Ġapproximately": 7916,
      "Ġsyn": 7917,
      "Ġlending": 7918,
      "Ġraising": 7919,
      "Ġproposed": 7920,
      "Ġrespectful": 7921,
      "Ġsurvival": 7922,
      "Ġmachines": 7923,
      "Ġpurs": 7924,
      "Ġspecialist": 7925,
      "Ġbury": 7926,
      "Ġweirdest": 7927,
      "Ġfigures": 7928,
      "Ġironed": 7929,
      "Ġshops": 7930,
      "Ġpermitting": 7931,
      "Ġeditor": 7932,
      "Ġcurfew": 7933,
      "Ġpossess": 7934,
      "Ġconcerns": 7935,
      "Ġelectron": 7936,
      "oids": 7937,
      "Ġforgiveness": 7938,
      "Ġeighty": 7939,
      "books": 7940,
      "Ġpleasantly": 7941,
      "Ġsweetheart": 7942,
      "Ġsticks": 7943,
      "Ġappearances": 7944,
      "conf": 7945,
      "Ġyell": 7946,
      "Ġfruits": 7947,
      "cript": 7948,
      "Ġcowards": 7949,
      "ification": 7950,
      "Ġcalmly": 7951,
      "Ġburns": 7952,
      "Ġfaced": 7953,
      "Ġbeatles": 7954,
      "Ġcentral": 7955,
      "Ġpeacefully": 7956,
      "Ġexplanations": 7957,
      "Ġsubjects": 7958,
      "Ġappointments": 7959,
      "Ġarticles": 7960,
      "Ġidiots": 7961,
      "Ġsufficient": 7962,
      "Ġuneasy": 7963,
      "hold": 7964,
      "Ġannoys": 7965,
      "Ġgrandma": 7966,
      "Ġautopsy": 7967,
      "Ġchickens": 7968,
      "Ġpretends": 7969,
      "Ġmajored": 7970,
      "Ġequals": 7971,
      "Ġequipment": 7972,
      "Ġdespised": 7973,
      "Ġeconomics": 7974,
      "Ġheroin": 7975,
      "Ġelectrician": 7976,
      "Ġexpression": 7977,
      "ocated": 7978,
      "Ġdisgrace": 7979,
      "Ġdisagreed": 7980,
      "Ġ45": 7981,
      "Ġinstruments": 7982,
      "Ġclaustroph": 7983,
      "Ġmasterpiece": 7984,
      "Ġbrowser": 7985,
      "Ġresigned": 7986,
      "Ġresignation": 7987,
      "Ġnara": 7988,
      "Ġdeceive": 7989,
      "Ġslightest": 7990,
      "Ġstatement": 7991,
      "Ġtricky": 7992,
      "Ġencounter": 7993,
      "Ġreplied": 7994,
      "Ġmeasured": 7995,
      "Ġincluding": 7996,
      "Ġbriefcase": 7997,
      "Ġmainly": 7998,
      "Ġassuming": 7999
    },
    "merges": [
      [
        "Ġ",
        "t"
      ],
      [
        "Ġ",
        "i"
      ],
      [
        "h",
        "e"
      ],
      [
        "o",
        "u"
      ],
      [
        "Ġ",
        "a"
      ],
      [
        "Ġ",
        "w"
      ],
      [
        "r",
        "e"
      ],
      [
        "Ġ",
        "s"
      ],
      [
        "Ġ",
        "y"
      ],
      [
        "Ġt",
        "o"
      ],
      [
        "Ġy",
        "ou"
      ],
      [
        "h",
        "a"
      ],
      [
        "i",
        "n"
      ],
      [
        "Ġ",
        "d"
      ],
      [
        "Ġ",
        "m"
      ],
      [
        "Ġt",
        "he"
      ],
      [
        "o",
        "n"
      ],
      [
        "Ġ",
        "b"
      ],
      [
        "v",
        "e"
      ],
      [
        "Ġ",
        "c"
      ],
      [
        "Ġ",
        "f"
      ],
      [
        "Ġ",
        "l"
      ],
      [
        "in",
        "g"
      ],
      [
        "a",
        "n"
      ],
      [
        "e",
        "d"
      ],
      [
        "i",
        "s"
      ],
      [
        "l",
        "l"
      ],
      [
        "Ġ",
        "he"
      ],
      [
        "o",
        "r"
      ],
      [
        "ha",
        "t"
      ],
      [
        "Ġ",
        "n"
      ],
      [
        "Ġ",
        "g"
      ],
      [
        "e",
        "n"
      ],
      [
        "Ġ",
        "p"
      ],
      [
        "'",
        "t"
      ],
      [
        "e",
        "r"
      ],
      [
        "Ġ",
        "ha"
      ],
      [
        "Ġ",
        "h"
      ],
      [
        "Ġt",
        "h"
      ],
      [
        "Ġ",
        "o"
      ],
      [
        "a",
        "s"
      ],
      [
        "Ġi",
        "s"
      ],
      [
        "Ġd",
        "o"
      ],
      [
        "a",
        "r"
      ],
      [
        "o",
        "w"
      ],
      [
        "Ġb",
        "e"
      ],
      [
        "m",
        "e"
      ],
      [
        "i",
        "t"
      ],
      [
        "Ġw",
        "e"
      ],
      [
        "o",
        "t"
      ],
      [
        "Ġto",
        "m"
      ],
      [
        "a",
        "t"
      ],
      [
        "e",
        "s"
      ],
      [
        "Ġi",
        "t"
      ],
      [
        "Ġt",
        "hat"
      ],
      [
        "Ġi",
        "n"
      ],
      [
        "a",
        "y"
      ],
      [
        "Ġo",
        "f"
      ],
      [
        "i",
        "d"
      ],
      [
        "l",
        "d"
      ],
      [
        "l",
        "e"
      ],
      [
        "Ġ",
        "e"
      ],
      [
        "k",
        "e"
      ],
      [
        "Ġm",
        "e"
      ],
      [
        "'",
        "s"
      ],
      [
        "u",
        "s"
      ],
      [
        "Ġa",
        "n"
      ],
      [
        "ve",
        "r"
      ],
      [
        "o",
        "o"
      ],
      [
        "Ġd",
        "on"
      ],
      [
        "Ġth",
        "is"
      ],
      [
        "e",
        "t"
      ],
      [
        "Ġha",
        "ve"
      ],
      [
        "Ġw",
        "as"
      ],
      [
        "Ġ",
        "on"
      ],
      [
        "Ġ",
        "re"
      ],
      [
        "g",
        "h"
      ],
      [
        "Ġs",
        "t"
      ],
      [
        "Ġl",
        "i"
      ],
      [
        "Ġf",
        "or"
      ],
      [
        "i",
        "c"
      ],
      [
        "Ġ",
        "k"
      ],
      [
        "an",
        "t"
      ],
      [
        "o",
        "me"
      ],
      [
        "Ġw",
        "hat"
      ],
      [
        "Ġm",
        "y"
      ],
      [
        "Ġa",
        "re"
      ],
      [
        "Ġc",
        "an"
      ],
      [
        "Ġyou",
        "r"
      ],
      [
        "ou",
        "ld"
      ],
      [
        "Ġw",
        "ant"
      ],
      [
        "r",
        "i"
      ],
      [
        "Ġn",
        "e"
      ],
      [
        "gh",
        "t"
      ],
      [
        "Ġd",
        "id"
      ],
      [
        "'",
        "m"
      ],
      [
        "Ġn",
        "ot"
      ],
      [
        "a",
        "l"
      ],
      [
        "c",
        "h"
      ],
      [
        "ou",
        "t"
      ],
      [
        "s",
        "t"
      ],
      [
        "Ġg",
        "o"
      ],
      [
        "Ġk",
        "n"
      ],
      [
        "r",
        "o"
      ],
      [
        "Ġs",
        "he"
      ],
      [
        "a",
        "d"
      ],
      [
        "'",
        "re"
      ],
      [
        "s",
        "e"
      ],
      [
        "Ġw",
        "h"
      ],
      [
        "u",
        "n"
      ],
      [
        "Ġkn",
        "ow"
      ],
      [
        "en",
        "t"
      ],
      [
        "l",
        "y"
      ],
      [
        "ver",
        "y"
      ],
      [
        "it",
        "h"
      ],
      [
        "Ġw",
        "ith"
      ],
      [
        "t",
        "h"
      ],
      [
        "he",
        "r"
      ],
      [
        "t",
        "er"
      ],
      [
        "Ġli",
        "ke"
      ],
      [
        "i",
        "m"
      ],
      [
        "Ġ",
        "j"
      ],
      [
        "p",
        "p"
      ],
      [
        "a",
        "ll"
      ],
      [
        "e",
        "e"
      ],
      [
        "on",
        "e"
      ],
      [
        "in",
        "k"
      ],
      [
        "i",
        "on"
      ],
      [
        "Ġa",
        "t"
      ],
      [
        "a",
        "c"
      ],
      [
        "Ġa",
        "s"
      ],
      [
        "i",
        "ll"
      ],
      [
        "Ġs",
        "h"
      ],
      [
        "Ġ",
        "r"
      ],
      [
        "Ġthe",
        "y"
      ],
      [
        "us",
        "t"
      ],
      [
        "u",
        "t"
      ],
      [
        "Ġa",
        "ll"
      ],
      [
        "Ġs",
        "u"
      ],
      [
        "Ġh",
        "is"
      ],
      [
        "i",
        "r"
      ],
      [
        "oo",
        "k"
      ],
      [
        "Ġt",
        "i"
      ],
      [
        "Ġa",
        "b"
      ],
      [
        "Ġt",
        "e"
      ],
      [
        "Ġw",
        "he"
      ],
      [
        "a",
        "in"
      ],
      [
        "Ġs",
        "ome"
      ],
      [
        "Ġh",
        "ow"
      ],
      [
        "Ġth",
        "ink"
      ],
      [
        "Ġh",
        "im"
      ],
      [
        "a",
        "ke"
      ],
      [
        "Ġan",
        "y"
      ],
      [
        "Ġc",
        "o"
      ],
      [
        "o",
        "re"
      ],
      [
        "Ġt",
        "r"
      ],
      [
        "Ġw",
        "or"
      ],
      [
        "c",
        "e"
      ],
      [
        "th",
        "ing"
      ],
      [
        "Ġthe",
        "re"
      ],
      [
        "en",
        "d"
      ],
      [
        "Ġs",
        "o"
      ],
      [
        "Ġg",
        "et"
      ],
      [
        "Ġti",
        "me"
      ],
      [
        "'",
        "ll"
      ],
      [
        "Ġa",
        "l"
      ],
      [
        "u",
        "p"
      ],
      [
        "Ġ",
        "us"
      ],
      [
        "Ġan",
        "d"
      ],
      [
        "Ġn",
        "o"
      ],
      [
        "u",
        "r"
      ],
      [
        "oo",
        "d"
      ],
      [
        "'",
        "ve"
      ],
      [
        "Ġab",
        "out"
      ],
      [
        "p",
        "e"
      ],
      [
        "Ġhe",
        "re"
      ],
      [
        "a",
        "k"
      ],
      [
        "c",
        "t"
      ],
      [
        "Ġl",
        "e"
      ],
      [
        "Ġwe",
        "re"
      ],
      [
        "Ġ",
        "very"
      ],
      [
        "Ġs",
        "a"
      ],
      [
        "Ġhe",
        "r"
      ],
      [
        "ha",
        "n"
      ],
      [
        "Ġs",
        "ee"
      ],
      [
        "Ġdid",
        "n"
      ],
      [
        "Ġ",
        "out"
      ],
      [
        "m",
        "p"
      ],
      [
        "on",
        "g"
      ],
      [
        "Ġw",
        "ill"
      ],
      [
        "all",
        "y"
      ],
      [
        "i",
        "ve"
      ],
      [
        "Ġm",
        "ar"
      ],
      [
        "in",
        "d"
      ],
      [
        "Ġ",
        "up"
      ],
      [
        "re",
        "d"
      ],
      [
        "Ġha",
        "d"
      ],
      [
        "Ġw",
        "ould"
      ],
      [
        "b",
        "le"
      ],
      [
        "Ġe",
        "very"
      ],
      [
        "Ġe",
        "x"
      ],
      [
        "u",
        "l"
      ],
      [
        "Ġp",
        "l"
      ],
      [
        "Ġha",
        "s"
      ],
      [
        "Ġi",
        "f"
      ],
      [
        "Ġha",
        "pp"
      ],
      [
        "i",
        "ght"
      ],
      [
        "Ġl",
        "o"
      ],
      [
        "Ġ",
        "un"
      ],
      [
        "Ġne",
        "ed"
      ],
      [
        "Ġon",
        "e"
      ],
      [
        "Ġwh",
        "y"
      ],
      [
        "Ġj",
        "ust"
      ],
      [
        "re",
        "n"
      ],
      [
        "r",
        "y"
      ],
      [
        "g",
        "e"
      ],
      [
        "Ġc",
        "a"
      ],
      [
        "Ġl",
        "et"
      ],
      [
        "al",
        "k"
      ],
      [
        "n",
        "d"
      ],
      [
        "d",
        "ay"
      ],
      [
        "Ġl",
        "ook"
      ],
      [
        "Ġwh",
        "o"
      ],
      [
        "o",
        "p"
      ],
      [
        "ro",
        "m"
      ],
      [
        "Ġc",
        "ould"
      ],
      [
        "Ġsh",
        "ould"
      ],
      [
        "as",
        "t"
      ],
      [
        "Ġgo",
        "ing"
      ],
      [
        "i",
        "l"
      ],
      [
        "as",
        "e"
      ],
      [
        "Ġd",
        "e"
      ],
      [
        "Ġg",
        "ood"
      ],
      [
        "'",
        "d"
      ],
      [
        "Ġte",
        "ll"
      ],
      [
        "at",
        "e"
      ],
      [
        "Ġhe",
        "l"
      ],
      [
        "q",
        "u"
      ],
      [
        "Ġhel",
        "p"
      ],
      [
        "Ġc",
        "ome"
      ],
      [
        "an",
        "d"
      ],
      [
        "is",
        "t"
      ],
      [
        "Ġdo",
        "es"
      ],
      [
        "ar",
        "t"
      ],
      [
        "ou",
        "r"
      ],
      [
        "Ġto",
        "o"
      ],
      [
        "i",
        "e"
      ],
      [
        "Ġmar",
        "y"
      ],
      [
        "Ġ",
        "en"
      ],
      [
        "Ġwor",
        "k"
      ],
      [
        "f",
        "e"
      ],
      [
        "Ġm",
        "an"
      ],
      [
        "Ġs",
        "e"
      ],
      [
        "ic",
        "e"
      ],
      [
        "d",
        "er"
      ],
      [
        "Ġp",
        "le"
      ],
      [
        "Ġc",
        "h"
      ],
      [
        "Ġwhe",
        "n"
      ],
      [
        "es",
        "s"
      ],
      [
        "ou",
        "ght"
      ],
      [
        "s",
        "s"
      ],
      [
        "Ġt",
        "han"
      ],
      [
        "Ġf",
        "rom"
      ],
      [
        "a",
        "ve"
      ],
      [
        "Ġb",
        "y"
      ],
      [
        "Ġre",
        "ally"
      ],
      [
        "Ġwhe",
        "re"
      ],
      [
        "Ġa",
        "m"
      ],
      [
        "es",
        "t"
      ],
      [
        "Ġc",
        "on"
      ],
      [
        "d",
        "y"
      ],
      [
        "Ġa",
        "g"
      ],
      [
        "a",
        "m"
      ],
      [
        "Ġple",
        "ase"
      ],
      [
        "l",
        "f"
      ],
      [
        "Ġb",
        "o"
      ],
      [
        "ay",
        "s"
      ],
      [
        "Ġt",
        "alk"
      ],
      [
        "Ġp",
        "ro"
      ],
      [
        "ac",
        "k"
      ],
      [
        "is",
        "h"
      ],
      [
        "ri",
        "end"
      ],
      [
        "at",
        "ion"
      ],
      [
        "e",
        "p"
      ],
      [
        "Ġbe",
        "en"
      ],
      [
        "Ġn",
        "ow"
      ],
      [
        "Ġ",
        "qu"
      ],
      [
        "Ġne",
        "ver"
      ],
      [
        "Ġm",
        "ore"
      ],
      [
        "ou",
        "s"
      ],
      [
        "Ġt",
        "ake"
      ],
      [
        "ot",
        "her"
      ],
      [
        "Ġg",
        "ot"
      ],
      [
        "c",
        "k"
      ],
      [
        "Ġ",
        "ri"
      ],
      [
        "o",
        "l"
      ],
      [
        "Ġa",
        "f"
      ],
      [
        "i",
        "f"
      ],
      [
        "er",
        "s"
      ],
      [
        "Ġc",
        "ar"
      ],
      [
        "i",
        "g"
      ],
      [
        "Ġsome",
        "thing"
      ],
      [
        "Ġm",
        "o"
      ],
      [
        "re",
        "e"
      ],
      [
        "Ġin",
        "t"
      ],
      [
        "w",
        "n"
      ],
      [
        "Ġas",
        "k"
      ],
      [
        "r",
        "ow"
      ],
      [
        "Ġw",
        "r"
      ],
      [
        "Ġa",
        "r"
      ],
      [
        "Ġc",
        "l"
      ],
      [
        "ou",
        "nd"
      ],
      [
        "Ġs",
        "p"
      ],
      [
        "Ġh",
        "ome"
      ],
      [
        "Ġm",
        "u"
      ],
      [
        "Ġhapp",
        "en"
      ],
      [
        "Ġb",
        "ut"
      ],
      [
        "or",
        "t"
      ],
      [
        "Ġe",
        "at"
      ],
      [
        "Ġ",
        "v"
      ],
      [
        "Ġmu",
        "ch"
      ],
      [
        "Ġm",
        "ake"
      ],
      [
        "in",
        "e"
      ],
      [
        "Ġs",
        "ay"
      ],
      [
        "Ġf",
        "riend"
      ],
      [
        "Ġre",
        "ad"
      ],
      [
        "a",
        "p"
      ],
      [
        "at",
        "her"
      ],
      [
        "m",
        "b"
      ],
      [
        "Ġof",
        "f"
      ],
      [
        "Ġri",
        "ght"
      ],
      [
        "Ġj",
        "o"
      ],
      [
        "Ġp",
        "re"
      ],
      [
        "Ġf",
        "e"
      ],
      [
        "Ġw",
        "on"
      ],
      [
        "ar",
        "d"
      ],
      [
        "it",
        "e"
      ],
      [
        "ee",
        "l"
      ],
      [
        "Ġlo",
        "ve"
      ],
      [
        "Ġl",
        "ong"
      ],
      [
        "Ġs",
        "pe"
      ],
      [
        "Ġg",
        "ive"
      ],
      [
        "one",
        "y"
      ],
      [
        "it",
        "t"
      ],
      [
        "Ġf",
        "eel"
      ],
      [
        "Ġ",
        "ke"
      ],
      [
        "Ġm",
        "oney"
      ],
      [
        "Ġb",
        "ook"
      ],
      [
        "Ġne",
        "w"
      ],
      [
        "se",
        "lf"
      ],
      [
        "b",
        "o"
      ],
      [
        "Ġl",
        "ast"
      ],
      [
        "n",
        "ing"
      ],
      [
        "Ġp",
        "e"
      ],
      [
        "Ġb",
        "us"
      ],
      [
        "Ġb",
        "r"
      ],
      [
        "Ġth",
        "ought"
      ],
      [
        "Ġbe",
        "t"
      ],
      [
        "Ġb",
        "ack"
      ],
      [
        "Ġa",
        "d"
      ],
      [
        "Ġst",
        "u"
      ],
      [
        "Ġd",
        "r"
      ],
      [
        "Ġm",
        "ad"
      ],
      [
        "Ġsu",
        "re"
      ],
      [
        "Ġh",
        "o"
      ],
      [
        "Ġw",
        "at"
      ],
      [
        "a",
        "me"
      ],
      [
        "Ġany",
        "thing"
      ],
      [
        "Ġb",
        "u"
      ],
      [
        "Ġbe",
        "l"
      ],
      [
        "ou",
        "gh"
      ],
      [
        "Ġd",
        "ay"
      ],
      [
        "Ġth",
        "ing"
      ],
      [
        "bo",
        "dy"
      ],
      [
        "Ġ",
        "or"
      ],
      [
        "i",
        "ld"
      ],
      [
        "Ġdoes",
        "n"
      ],
      [
        "e",
        "ar"
      ],
      [
        "oo",
        "l"
      ],
      [
        "ri",
        "ed"
      ],
      [
        "as",
        "s"
      ],
      [
        "u",
        "re"
      ],
      [
        "a",
        "g"
      ],
      [
        "Ġl",
        "ot"
      ],
      [
        "Ġ",
        "our"
      ],
      [
        "he",
        "d"
      ],
      [
        "Ġto",
        "ld"
      ],
      [
        "oo",
        "m"
      ],
      [
        "Ġpe",
        "op"
      ],
      [
        "Ġpeop",
        "le"
      ],
      [
        "Ġa",
        "c"
      ],
      [
        "Ġag",
        "ain"
      ],
      [
        "Ġm",
        "ust"
      ],
      [
        "Ġp",
        "o"
      ],
      [
        "ic",
        "k"
      ],
      [
        "d",
        "e"
      ],
      [
        "ie",
        "ve"
      ],
      [
        "Ġspe",
        "ak"
      ],
      [
        "Ġun",
        "der"
      ],
      [
        "Ġmad",
        "e"
      ],
      [
        "t",
        "s"
      ],
      [
        "Ġm",
        "ay"
      ],
      [
        "id",
        "e"
      ],
      [
        "Ġw",
        "ay"
      ],
      [
        "Ġco",
        "mp"
      ],
      [
        "Ġst",
        "ay"
      ],
      [
        "Ġo",
        "ld"
      ],
      [
        "Ġli",
        "ve"
      ],
      [
        "Ġc",
        "all"
      ],
      [
        "Ġman",
        "y"
      ],
      [
        "Ġsa",
        "id"
      ],
      [
        "Ġca",
        "re"
      ],
      [
        "Ġs",
        "m"
      ],
      [
        "ou",
        "se"
      ],
      [
        "Ġtr",
        "y"
      ],
      [
        "v",
        "ing"
      ],
      [
        "Ġt",
        "w"
      ],
      [
        "Ġto",
        "day"
      ],
      [
        "Ġbel",
        "ieve"
      ],
      [
        "Ġha",
        "r"
      ],
      [
        "Ġw",
        "ent"
      ],
      [
        "n",
        "t"
      ],
      [
        "Ġle",
        "ave"
      ],
      [
        "t",
        "her"
      ],
      [
        "Ġy",
        "ear"
      ],
      [
        "Ġst",
        "ill"
      ],
      [
        "Ġp",
        "r"
      ],
      [
        "a",
        "it"
      ],
      [
        "w",
        "ays"
      ],
      [
        "Ġon",
        "ly"
      ],
      [
        "Ġh",
        "ouse"
      ],
      [
        "Ġal",
        "ways"
      ],
      [
        "Ġbet",
        "ter"
      ],
      [
        "Ġhapp",
        "y"
      ],
      [
        "Ġdo",
        "ing"
      ],
      [
        "ren",
        "ch"
      ],
      [
        "Ġf",
        "rench"
      ],
      [
        "a",
        "ch"
      ],
      [
        "ur",
        "n"
      ],
      [
        "or",
        "row"
      ],
      [
        "Ġg",
        "u"
      ],
      [
        "r",
        "a"
      ],
      [
        "Ġthe",
        "m"
      ],
      [
        "Ġch",
        "ild"
      ],
      [
        "Ġw",
        "ait"
      ],
      [
        "Ġpl",
        "ay"
      ],
      [
        "Ġo",
        "ver"
      ],
      [
        "Ġr",
        "oom"
      ],
      [
        "Ġa",
        "w"
      ],
      [
        "Ġis",
        "n"
      ],
      [
        "f",
        "t"
      ],
      [
        "o",
        "s"
      ],
      [
        "Ġaf",
        "ter"
      ],
      [
        "Ġd",
        "is"
      ],
      [
        "Ġjo",
        "b"
      ],
      [
        "f",
        "ore"
      ],
      [
        "a",
        "ge"
      ],
      [
        "o",
        "se"
      ],
      [
        "Ġa",
        "pp"
      ],
      [
        "Ġn",
        "ight"
      ],
      [
        "u",
        "e"
      ],
      [
        "Ġbe",
        "fore"
      ],
      [
        "Ġs",
        "ch"
      ],
      [
        "t",
        "y"
      ],
      [
        "Ġsch",
        "ool"
      ],
      [
        "re",
        "ss"
      ],
      [
        "Ġha",
        "nd"
      ],
      [
        "mb",
        "er"
      ],
      [
        "ac",
        "e"
      ],
      [
        "Ġdo",
        "wn"
      ],
      [
        "o",
        "m"
      ],
      [
        "m",
        "ent"
      ],
      [
        "Ġwe",
        "ll"
      ],
      [
        "a",
        "ble"
      ],
      [
        "Ġex",
        "p"
      ],
      [
        "itt",
        "le"
      ],
      [
        "Ġl",
        "ittle"
      ],
      [
        "Ġo",
        "p"
      ],
      [
        "Ġp",
        "art"
      ],
      [
        "Ġy",
        "es"
      ],
      [
        "is",
        "s"
      ],
      [
        "Ġb",
        "l"
      ],
      [
        "Ġf",
        "ather"
      ],
      [
        "t",
        "ing"
      ],
      [
        "ble",
        "m"
      ],
      [
        "Ġpro",
        "blem"
      ],
      [
        "Ġunder",
        "st"
      ],
      [
        "i",
        "z"
      ],
      [
        "g",
        "et"
      ],
      [
        "Ġevery",
        "thing"
      ],
      [
        "Ġc",
        "han"
      ],
      [
        "Ġdo",
        "g"
      ],
      [
        "h",
        "ing"
      ],
      [
        "it",
        "y"
      ],
      [
        "f",
        "ul"
      ],
      [
        "Ġe",
        "ar"
      ],
      [
        "Ġp",
        "ut"
      ],
      [
        "Ġbe",
        "c"
      ],
      [
        "f",
        "f"
      ],
      [
        "re",
        "at"
      ],
      [
        "Ġwant",
        "ed"
      ],
      [
        "Ġs",
        "w"
      ],
      [
        "ter",
        "day"
      ],
      [
        "Ġpl",
        "an"
      ],
      [
        "Ġyes",
        "terday"
      ],
      [
        "le",
        "ep"
      ],
      [
        "Ġhar",
[...]
