{
  "version": "1.0",
  "truncation": null,
  "padding": {
    "strategy": "BatchLongest",
    "direction": "Right",
    "pad_to_multiple_of": null,
    "pad_id": 2,
    "pad_type_id": 0,
    "pad_token": "[pad]"
  },
  "added_tokens": [
    {
      "id": 0,
      "content": "[start]",
      "single_word": false,
      "lstrip": false,
      "rstrip": false,
      "normalized": false,
      "special": true
    },
    {
      "id": 1,
      "content": "[end]",
      "single_word": false,
      "lstrip": false,
      "rstrip": false,
      "normalized": false,
      "special": true
    },
    {
      "id": 2,
      "content": "[pad]",
      "single_word": false,
      "lstrip": false,
      "rstrip": false,
      "normalized": false,
      "special": true
    }
  ],
  "normalizer": null,
  "pre_tokenizer": {
    "type": "ByteLevel",
    "add_prefix_space": true,
    "trim_offsets": true,
    "use_regex": true
  },
  "post_processor": null,
  "decoder": {
    "type": "ByteLevel",
    "add_prefix_space": true,
    "trim_offsets": true,
    "use_regex": true
  },
  "model": {
    "type": "BPE",
    "dropout": null,
    "unk_token": null,
    "continuing_subword_prefix": null,
    "end_of_word_suffix": null,
    "fuse_unk": false,
    "byte_fallback": false,
    "ignore_merges": false,
    "vocab": {
      "[start]": 0,
      "[end]": 1,
      "[pad]": 2,
      "!": 3,
      "\"": 4,
      "$": 5,
      "%": 6,
      "&": 7,
      "'": 8,
      "(": 9,
      ")": 10,
      "+": 11,
      ",": 12,
      "-": 13,
      ".": 14,
      "/": 15,
      "0": 16,
      "1": 17,
      "2": 18,
      "3": 19,
      "4": 20,
      "5": 21,
      "6": 22,
      "7": 23,
      "8": 24,
      "9": 25,
      ":": 26,
      ";": 27,
      "?": 28,
      "a": 29,
      "b": 30,
      "c": 31,
      "d": 32,
      "e": 33,
      "f": 34,
      "g": 35,
      "h": 36,
      "i": 37,
      "j": 38,
      "k": 39,
      "l": 40,
      "m": 41,
      "n": 42,
      "o": 43,
      "p": 44,
      "q": 45,
      "r": 46,
      "s": 47,
      "t": 48,
      "u": 49,
      "v": 50,
      "w": 51,
      "x": 52,
      "y": 53,
      "z": 54,
      "¡": 55,
      "¢": 56,
      "§": 57,
      "¨": 58,
      "©": 59,
      "ª": 60,
      "«": 61,
      "®": 62,
      "¯": 63,
      "´": 64,
      "¶": 65,
      "¹": 66,
      "»": 67,
      "½": 68,
      "Â": 69,
      "Ã": 70,
      "Å": 71,
      "Ñ": 72,
      "â": 73,
      "Ġ": 74,
      "Ģ": 75,
      "ģ": 76,
      "ĭ": 77,
      "ĵ": 78,
      "ĺ": 79,
      "Ļ": 80,
      "ł": 81,
      "Ġp": 82,
      "Ġd": 83,
      "ai": 84,
      "es": 85,
      "ou": 86,
      "Ã©": 87,
      "en": 88,
      "Ġl": 89,
      "Ġt": 90,
      "Ġc": 91,
      "Ġs": 92,
      "Ġj": 93,
      "re": 94,
      "on": 95,
      "qu": 96,
      "Ġa": 97,
      "Ġn": 98,
      "Ġv": 99,
      "Ġm": 100,
      "er": 101,
      "Ġqu": 102,
      "Ġde": 103,
      "Ġpa": 104,
      "Ġje": 105,
      "ous": 106,
      "il": 107,
      "oi": 108,
      "an": 109,
      "ĠÃ": 110,
      "Ġf": 111,
      "ent": 112,
      "om": 113,
      "le": 114,
      "est": 115,
      "Ġque": 116,
      "Ġpas": 117,
      "ais": 118,
      "un": 119,
      "Ġ?": 120,
      "eu": 121,
      "is": 122,
      "ĠÃł": 123,
      "Ġun": 124,
      "Ġne": 125,
      "te": 126,
      "Ġle": 127,
      "our": 128,
      "Ġla": 129,
      "Ġce": 130,
      "Ġb": 131,
      "Ġvous": 132,
      "Ġil": 133,
      "Ġr": 134,
      "ait": 135,
      "ez": 136,
      "Ã¨": 137,
      "it": 138,
      "Ġtom": 139,
      "in": 140,
      "Ġest": 141,
      "el": 142,
      "ar": 143,
      "Ġen": 144,
      "Ġsu": 145,
      "Ġpr": 146,
      "or": 147,
      "us": 148,
      "Ã©t": 149,
      "Ġtr": 150,
      "Ġch": 151,
      "ment": 152,
      "Ġav": 153,
      "tre": 154,
      "se": 155,
      "au": 156,
      "Ġtu": 157,
      "Ġpour": 158,
      "Ġnous": 159,
      "ons": 160,
      "Ġpar": 161,
      "eux": 162,
      "ant": 163,
      "elle": 164,
      "tu": 165,
      "end": 166,
      "me": 167,
      "ti": 168,
      "av": 169,
      "ont": 170,
      "Ġau": 171,
      "ce": 172,
      "Ġles": 173,
      "Ġme": 174,
      "Ġune": 175,
      "ch": 176,
      "Ġcom": 177,
      "Ġpl": 178,
      "ri": 179,
      "onn": 180,
      "ci": 181,
      "Ãª": 182,
      "ĠÃ©t": 183,
      "Ġg": 184,
      "aire": 185,
      "ouv": 186,
      "vous": 187,
      "mp": 188,
      "ien": 189,
      "Ġtou": 190,
      "ain": 191,
      "Ġsuis": 192,
      "Ġte": 193,
      "et": 194,
      "Ġre": 195,
      "Ã©e": 196,
      "Ġh": 197,
      "oir": 198,
      "de": 199,
      "ĠdÃ©": 200,
      "tes": 201,
      "ans": 202,
      "al": 203,
      "os": 204,
      "ois": 205,
      "Ã¨re": 206,
      "Ġse": 207,
      "ag": 208,
      "as": 209,
      "que": 210,
      "Ġfaire": 211,
      "Ġelle": 212,
      "ĠÃª": 213,
      "Ġquel": 214,
      "Ġmon": 215,
      "ie": 216,
      "§a": 217,
      "ir": 218,
      "Ġ!": 219,
      "ĠÃ§a": 220,
      "pp": 221,
      "Ġsi": 222,
      "res": 223,
      "Ġdans": 224,
      "am": 225,
      "Ġi": 226,
      "Ġpen": 227,
      "Ġdes": 228,
      "ui": 229,
      "Ġplus": 230,
      "les": 231,
      "ler": 232,
      "ec": 233,
      "Ġqui": 234,
      "Ġfait": 235,
      "Ã¨s": 236,
      "at": 237,
      "Ġdu": 238,
      "Ġpro": 239,
      "Ġdi": 240,
      "and": 241,
      "Ġas": 242,
      "eur": 243,
      "Ġtout": 244,
      "Ġo": 245,
      "Ġveux": 246,
      "Ġvo": 247,
      "ang": 248,
      "Ġai": 249,
      "Ġdev": 250,
      "lÃ©": 251,
      "Ġal": 252,
      "ble": 253,
      "ĠrÃ©": 254,
      "ĠÃ©": 255,
      "Ġavec": 256,
      "si": 257,
      "Ġmar": 258,
      "li": 259,
      "ers": 260,
      "Ġcet": 261,
      "la": 262,
      "oin": 263,
      "Ġes": 264,
      "Ġe": 265,
      "rai": 266,
      "eau": 267,
      "Ġsur": 268,
      "Ġy": 269,
      "ur": 270,
      "ille": 271,
      "ac": 272,
      "ort": 273,
      "Ġpeu": 274,
      "Ġin": 275,
      "mes": 276,
      "iv": 277,
      "Ãł": 278,
      "Ġet": 279,
      "mps": 280,
      "ff": 281,
      "ĠÃªtes": 282,
      "Ġvou": 283,
      "Ġsont": 284,
      "pr": 285,
      "Ġcon": 286,
      "Ġson": 287,
      "endre": 288,
      "onne": 289,
      "ier": 290,
      "Ġcette": 291,
      "Ġdit": 292,
      "ose": 293,
      "Ġar": 294,
      "ut": 295,
      "Ġma": 296,
      "ion": 297,
      "ati": 298,
      "rais": 299,
      "oup": 300,
      "Ã©s": 301,
      "ĠtrÃ¨s": 302,
      "Ġpeux": 303,
      "ux": 304,
      "Ġmais": 305,
      "Ġmoi": 306,
      "Ġvotre": 307,
      "Ġcela": 308,
      "ail": 309,
      "uis": 310,
      "ard": 311,
      "Ġlui": 312,
      "Ġtemps": 313,
      "ĠÃªtre": 314,
      "Ġdis": 315,
      "Ġdem": 316,
      "quoi": 317,
      "Ġpourquoi": 318,
      "Ġpens": 319,
      "jour": 320,
      "Ã»": 321,
      "co": 322,
      "Ã©r": 323,
      "ĠÃ©tait": 324,
      "Ġvrai": 325,
      "Ġfr": 326,
      "Ġsais": 327,
      "Ġam": 328,
      "ĠÃ©tÃ©": 329,
      "di": 330,
      "Ã´": 331,
      "Ġtrav": 332,
      "Ġavez": 333,
      "Ġpense": 334,
      "Ġpouv": 335,
      "oit": 336,
      "Ġgr": 337,
      "tÃ©": 338,
      "Ġsa": 339,
      "Ġser": 340,
      "Ġjam": 341,
      "ol": 342,
      "riv": 343,
      "Ġchose": 344,
      "Ġils": 345,
      "ap": 346,
      "age": 347,
      "gn": 348,
      "ter": 349,
      "Ã§": 350,
      "elles": 351,
      "je": 352,
      "Ġcr": 353,
      "Ġapp": 354,
      "Ġici": 355,
      "ens": 356,
      "Ã®": 357,
      "Ġjamais": 358,
      "Ã¹": 359,
      "ot": 360,
      "op": 361,
      "che": 362,
      "mer": 363,
      "ue": 364,
      "Ġbien": 365,
      "Ġheu": 366,
      "Ġcomment": 367,
      "Ġtravail": 368,
      "app": 369,
      "Ġpers": 370,
      "Ġsav": 371,
      "ĠoÃ¹": 372,
      "Ġbeau": 373,
      "Ġdire": 374,
      "Ġvraiment": 375,
      "orte": 376,
      "able": 377,
      "Ġex": 378,
      "Ġton": 379,
      "Ġent": 380,
      "Ġquelque": 381,
      "aiss": 382,
      "Ġan": 383,
      "Ġsom": 384,
      "oy": 385,
      "iÃ¨re": 386,
      "Ġjour": 387,
      "cu": 388,
      "une": 389,
      "tt": 390,
      "itÃ©": 391,
      "Ġtous": 392,
      "moi": 393,
      "Ġtoi": 394,
      "Ãªte": 395,
      "rer": 396,
      "aut": 397,
      "Ġseu": 398,
      "uit": 399,
      "ess": 400,
      "coup": 401,
      "esoin": 402,
      "Ġbesoin": 403,
      "Ġbeaucoup": 404,
      "Ġtrouv": 405,
      "ĠprÃ©": 406,
      "Ġrest": 407,
      "Ġpeut": 408,
      "Ġon": 409,
      "bre": 410,
      "Ġmain": 411,
      "ture": 412,
      "rÃ©": 413,
      "Ġvi": 414,
      "ne": 415,
      "Ġsommes": 416,
      "gent": 417,
      "Ġjus": 418,
      "Ġvoi": 419,
      "iez": 420,
      "enir": 421,
      "ab": 422,
      "Ġparti": 423,
      "Ġvoul": 424,
      "Ġmes": 425,
      "Ġavons": 426,
      "Ġfer": 427,
      "Ġmang": 428,
      "Ġpersonne": 429,
      "lez": 430,
      "Ãªtre": 431,
      "Ġont": 432,
      "ors": 433,
      "lÃ¨": 434,
      "Ġquelqu": 435,
      "Ġmal": 436,
      "Ġparler": 437,
      "Ġaller": 438,
      "Ġsem": 439,
      "Ġva": 440,
      "Ġrien": 441,
      "Ġatt": 442,
      "lement": 443,
      "Ġfais": 444,
      "Ġcomme": 445,
      "Ġpass": 446,
      "ĠlÃł": 447,
      "Ġtrain": 448,
      "Ãªme": 449,
      "Ġmary": 450,
      "Ġheure": 451,
      "ation": 452,
      "enc": 453,
      "Ġmaison": 454,
      "ance": 455,
      "der": 456,
      "ay": 457,
      "Ã©es": 458,
      "aÃ®": 459,
      "Ġdeux": 460,
      "Ã©tait": 461,
      "Ġass": 462,
      "Ġper": 463,
      "Ġtrop": 464,
      "ge": 465,
      "Ġtoujour": 466,
      "Ġtoujours": 467,
      "Ġquoi": 468,
      "Ġvoir": 469,
      "ile": 470,
      "Ġelles": 471,
      "Ġta": 472,
      "aime": 473,
      "ve": 474,
      "Ġnouv": 475,
      "ivre": 476,
      "Ġbon": 477,
      "oire": 478,
      "Ġquand": 479,
      "Ġprob": 480,
      "Ġcomp": 481,
      "ure": 482,
      "ten": 483,
      "Ġcont": 484,
      "core": 485,
      "ils": 486,
      "Ġca": 487,
      "Ġencore": 488,
      "Ã¢": 489,
      "rait": 490,
      "Ġenf": 491,
      "ussi": 492,
      "Ġarriv": 493,
      "Ġveu": 494,
      "Ġpuis": 495,
      "Ġmonde": 496,
      "orm": 497,
      "Ġli": 498,
      "ord": 499,
      "em": 500,
      "ants": 501,
      "Ġconn": 502,
      "ĠÃ©c": 503,
      "ine": 504,
      "Ġreg": 505,
      "Ã´t": 506,
      "Ġou": 507,
      "ends": 508,
      "Ġdemand": 509,
      "ert": 510,
      "cher": 511,
      "Ġsoit": 512,
      "Ġcomb": 513,
      "ence": 514,
      "air": 515,
      "Ġses": 516,
      "Ġavoir": 517,
      "Ġfaut": 518,
      "aine": 519,
      "Ġno": 520,
      "ions": 521,
      "Ġcomm": 522,
      "Ġdois": 523,
      "Ġvoiture": 524,
      "ic": 525,
      "Ġimp": 526,
      "Ġcour": 527,
      "Ġlaiss": 528,
      "Ġdonn": 529,
      "iens": 530,
      "esp": 531,
      "Ã©tais": 532,
      "Ġder": 533,
      "ass": 534,
      "merais": 535,
      "ante": 536,
      "dre": 537,
      "ĠdÃ©s": 538,
      "Ġpos": 539,
      "Ġac": 540,
      "ign": 541,
      "Ġcombien": 542,
      "ĠrÃ©p": 543,
      "Ã©ri": 544,
      "aient": 545,
      "Ġfois": 546,
      "riez": 547,
      "Ġceci": 548,
      "Ġret": 549,
      "argent": 550,
      "Ġvais": 551,
      "Ġvu": 552,
      "Ġsou": 553,
      "ad": 554,
      "bli": 555,
      "Ġmainten": 556,
      "erre": 557,
      "Ġmaintenant": 558,
      "aimerais": 559,
      "Ġvie": 560,
      "Ġjou": 561,
      "Ġavait": 562,
      "Ġeu": 563,
      "Ġaussi": 564,
      "Ġcompr": 565,
      "ande": 566,
      "Ġfran": 567,
      "Ã©c": 568,
      "Ġnom": 569,
      "tement": 570,
      "Ġdiff": 571,
      "use": 572,
      "ra": 573,
      "ĠsÃ»": 574,
      "chet": 575,
      "pos": 576,
      "endu": 577,
      "hui": 578,
      "jourd": 579,
      "Åĵ": 580,
      "Ġpi": 581,
      "Ã§ais": 582,
      "aÃ®t": 583,
      "ĠmÃªme": 584,
      "Ġpouvez": 585,
      "prÃ¨s": 586,
      "Ġess": 587,
      "ĠproblÃ¨": 588,
      "Ġquelle": 589,
      "ĠfranÃ§ais": 590,
      "ents": 591,
      "Ġjuste": 592,
      "um": 593,
      "Ġaujourd": 594,
      "cup": 595,
      "tr": 596,
      "Ġces": 597,
      "ĠtÃ©": 598,
      "Ġdern": 599,
      "Ġporte": 600,
      "Ġaut": 601,
      "Ġfin": 602,
      "Ġhier": 603,
      "Ġmi": 604,
      "ise": 605,
      "Ġchez": 606,
      "ccup": 607,
      "ong": 608,
      "Ġman": 609,
      "ique": 610,
      "Ġtoutes": 611,
      "Ġbr": 612,
      "Ġbou": 613,
      "Ġgrand": 614,
      "ĠtÃ©lÃ©": 615,
      "ĠpÃ¨re": 616,
      "Ġple": 617,
      "Ġlivre": 618,
      "Ġseul": 619,
      "enu": 620,
      "ĠdÃ©j": 621,
      "ĠdÃ©jÃł": 622,
      "ttre": 623,
      "Ġpart": 624,
      "Ġpris": 625,
      "Ġpensais": 626,
      "ente": 627,
      "arriv": 628,
      "ner": 629,
      "Ġsouv": 630,
      "ore": 631,
      "Ġarr": 632,
      "gu": 633,
      "âĢ": 634,
      "ĠdÃ©t": 635,
      "Ġnotre": 636,
      "dÃ©": 637,
      "Ġprendre": 638,
      "Ġvoulez": 639,
      "âĢĻ": 640,
      "Ġassez": 641,
      "omme": 642,
      "Ġbonne": 643,
      "par": 644,
      "du": 645,
      "Ġmieux": 646,
      "mÃ©": 647,
      "ĠaprÃ¨s": 648,
      "Ġtrois": 649,
      "avais": 650,
      "Ġregard": 651,
      "asse": 652,
      "Ġsimp": 653,
      "itu": 654,
      "Ġsoir": 655,
      "Ġsans": 656,
      "Ġpe": 657,
      "Ġall": 658,
      "cole": 659,
      "Ġdemain": 660,
      "nous": 661,
      "Ġlong": 662,
      "cti": 663,
      "are": 664,
      "Ġcha": 665,
      "nÃ©e": 666,
      "Ġachet": 667,
      "Ġmat": 668,
      "Ġavant": 669,
      "Ġdevrais": 670,
      "Ġmanger": 671,
      "ĠproblÃ¨me": 672,
      "Ãªt": 673,
      "Ġenv": 674,
      "rit": 675,
      "Ġessay": 676,
      "Ġcons": 677,
      "Ġrenc": 678,
      "Ġauc": 679,
      "ĠplaÃ®t": 680,
      "ud": 681,
      "Ġquest": 682,
      "ĠdÃ»": 683,
      "Ġpu": 684,
      "ĠmÃ©": 685,
      "Ġgar": 686,
      "Ġpay": 687,
      "ex": 688,
      "ĠdÃ©c": 689,
      "ton": 690,
      "leur": 691,
      "Ġgens": 692,
      "Ġsavoir": 693,
      "Ġsent": 694,
      "Ãªtes": 695,
      "Ġoccup": 696,
      "auv": 697,
      "anc": 698,
      "Ġtoute": 699,
      "Ġfut": 700,
      "rang": 701,
      "Ġvis": 702,
      "Ġaux": 703,
      "Ġsupp": 704,
      "ient": 705,
      "aux": 706,
      "Ġleur": 707,
      "Ġtes": 708,
      "rez": 709,
      "Ġrev": 710,
      "ellement": 711,
      "Ġmarie": 712,
      "inu": 713,
      "Ġappr": 714,
      "Ġheures": 715,
      "avez": 716,
      "Ġenfants": 717,
      "Ġlors": 718,
      "arrive": 719,
      "rent": 720,
      "Ġmom": 721,
      "dÃ©e": 722,
      "ĠÂ": 723,
      "oses": 724,
      "Ġnuit": 725,
      "con": 726,
      "jet": 727,
      "Ġchien": 728,
      "Ġsimplement": 729,
      "Ġmoment": 730,
      "etit": 731,
      "att": 732,
      "Ġpetit": 733,
      "Ġsor": 734,
      "ĠrÃ©pon": 735,
      "Ġvos": 736,
      "Ġemp": 737,
      "autre": 738,
      "Ġph": 739,
      "Ã©cole": 740,
      "ul": 741,
      "avant": 742,
      "Ġpartir": 743,
      "Ġsens": 744,
      "oc": 745,
      "ĠmÃ¨re": 746,
      "Ġquelques": 747,
      "oyez": 748,
      "Ġans": 749,
      "lais": 750,
      "Ġnouveau": 751,
      "Ġri": 752,
      "Ġconf": 753,
      "Ġrend": 754,
      "Ġvoy": 755,
      "Ġcoup": 756,
      "ĠdÃ©p": 757,
      "Ġvoud": 758,
      "Åĵur": 759,
      "ĠsÃ»r": 760,
      "ph": 761,
      "Ġami": 762,
      "Ġcl": 763,
      "Ġchoses": 764,
      "Ġcher": 765,
      "Ġsorti": 766,
      "Ã©n": 767,
      "rem": 768,
      "Ġrais": 769,
      "ins": 770,
      "puis": 771,
      "Ġrapp": 772,
      "acc": 773,
      "Ġab": 774,
      "ager": 775,
      "rÃ©ci": 776,
      "Ġvoulais": 777,
      "Ġveut": 778,
      "ide": 779,
      "Ġfem": 780,
      "ĠpassÃ©": 781,
      "ĠderniÃ¨re": 782,
      "Ġrester": 783,
      "ite": 784,
      "Ġvenir": 785,
      "Ġcel": 786,
      "Ġbos": 787,
      "int": 788,
      "Ġboston": 789,
      "Ġpo": 790,
      "ress": 791,
      "im": 792,
      "Ġdou": 793,
      "Ġter": 794,
      "aisse": 795,
      "Ġcond": 796,
      "Ġprom": 797,
      "Ġheureux": 798,
      "Ġmoin": 799,
      "chÃ©": 800,
      "tte": 801,
      "Ġcert": 802,
      "euse": 803,
      "ob": 804,
      "Ġad": 805,
      "iste": 806,
      "enez": 807,
      "dent": 808,
      "aider": 809,
      "Ġsait": 810,
      "Ġdiffic": 811,
      "ist": 812,
      "temps": 813,
      "endant": 814,
      "ĠallÃ©": 815,
      "Ġparle": 816,
      "Ġjours": 817,
      "Ġense": 818,
      "Ġfil": 819,
      "Ġcou": 820,
      "Ġchang": 821,
      "ĠidÃ©e": 822,
      "Ġcroire": 823,
      "Ġmer": 824,
      "udi": 825,
      "Ġtomb": 826,
      "Ġfaites": 827,
      "ĠtÃ´t": 828,
      "Ġprof": 829,
      "Ġtrouver": 830,
      "Ġsemble": 831,
      "avoir": 832,
      "all": 833,
      "ĠprÃ©f": 834,
      "ill": 835,
      "Ġdepuis": 836,
      "Ġrendre": 837,
      "tion": 838,
      "Ġmauv": 839,
      "Ã¨rent": 840,
      "espÃ¨re": 841,
      "aurais": 842,
      "Ġmauvais": 843,
      "ace": 844,
      "Ġmontre": 845,
      "Ġdifficile": 846,
      "Ġmeille": 847,
      "Ġpeur": 848,
      "Ġprem": 849,
      "ention": 850,
      "omp": 851,
      "Ġcol": 852,
      "Ġfac": 853,
      "Ġrec": 854,
      "ade": 855,
      "Ġsoyez": 856,
      "qui": 857,
      "Ġnon": 858,
      "Ġcham": 859,
      "Ġim": 860,
      "if": 861,
      "ĠdemandÃ©": 862,
      "min": 863,
      "jeun": 864,
      "Ġraison": 865,
      "Ġfille": 866,
      "apon": 867,
      "eure": 868,
      "Ġexp": 869,
      "Ġmatin": 870,
      "Ġjapon": 871,
      "Ġmari": 872,
      "ts": 873,
      "Ġco": 874,
      "Ġsois": 875,
      "Ġentendu": 876,
      "Ã§on": 877,
      "phon": 878,
      "Ġconse": 879,
      "Ġouv": 880,
      "Ġhab": 881,
      "ici": 882,
      "erai": 883,
      "Ġsemaine": 884,
      "arr": 885,
      "uire": 886,
      "Ġaider": 887,
      "Ġseule": 888,
      "Ġautre": 889,
      "Ġpendant": 890,
      "ĠpiÃ¨": 891,
      "Ġfort": 892,
      "mb": 893,
      "Ġmot": 894,
      "Ġfati": 895,
      "Ġpourrais": 896,
      "quÃ©": 897,
      "roit": 898,
      "Ġrou": 899,
      "Ġcrois": 900,
      "ĠrÃ©s": 901,
      "Ġchambre": 902,
      "Ġpoin": 903,
      "Ġdisc": 904,
      "Ġjusqu": 905,
      "ĠtÃ©lÃ©phon": 906,
      "Ġfatigu": 907,
      "Ġprie": 908,
      "Ġpouvons": 909,
      "olÃ©": 910,
      "Ġhomme": 911,
      "Ġproch": 912,
      "Ġamis": 913,
      "tÃ©ress": 914,
      "Ġaff": 915,
      "Ġche": 916,
      "Ġsouvent": 917,
      "lo": 918,
      "Ãªter": 919,
      "Ġexc": 920,
      "uv": 921,
      "iss": 922,
      "Ġfemme": 923,
      "Ġphot": 924,
      "Ġcar": 925,
      "Ġparents": 926,
      "Ġsavais": 927,
      "Ġcommenc": 928,
      "rions": 929,
      "ĠÃ©tudi": 930,
      "ques": 931,
      "imp": 932,
      "Ġpasse": 933,
      "Ġrencont": 934,
      "oid": 935,
      "entre": 936,
      "ale": 937,
      "ĠprÃ©s": 938,
      "Ġretard": 939,
      "Ġnombre": 940,
      "pe": 941,
      "Ġtard": 942,
      "ĠvÃ©r": 943,
      "Ġmort": 944,
      "eurs": 945,
      "Ġpres": 946,
      "Ġvois": 947,
      "Ġdur": 948,
      "Ġlaisse": 949,
      "jeuner": 950,
      "Ġmont": 951,
      "Ġgros": 952,
      "Ġsera": 953,
      "Ġport": 954,
      "Ġment": 955,
      "heure": 956,
      "onnes": 957,
      "ĠarrivÃ©": 958,
      "ver": 959,
      "Ġlire": 960,
      "Ġquestion": 961,
      "Ġsurpr": 962,
      "uses": 963,
      "ments": 964,
      "sion": 965,
      "mi": 966,
      "Ġlit": 967,
      "Ġdemande": 968,
      "Ġappel": 969,
      "Ġlongtemps": 970,
      "alement": 971,
      "ĠfÃªte": 972,
      "teau": 973,
      "ĠintÃ©ress": 974,
      "ĠsÅĵur": 975,
      "Ġdorm": 976,
      "quer": 977,
      "Ġfam": 978,
      "uss": 979,
      "Ġlorsque": 980,
      "Ġfi": 981,
      "ĠdÃ©solÃ©": 982,
      "erreur": 983,
      "Ġchat": 984,
      "Ġmoins": 985,
      "Ġend": 986,
      "Ġperdu": 987,
      "Ġjouer": 988,
      "aires": 989,
      "ĠvÃ©": 990,
      "Ġbles": 991,
      "util": 992,
      "ition": 993,
      "Ġpourrait": 994,
      "Ġgag": 995,
      "Ġpropos": 996,
      "mis": 997,
      "mble": 998,
      "ĠpiÃ¨ce": 999,
      "Ġconnais": 1000,
      "Ġacc": 1001,
      "aim": 1002,
      "Ġbless": 1003,
      "Ã¨res": 1004,
      "cre": 1005,
      "Ġminu": 1006,
      "ĠachetÃ©": 1007,
      "Ġcor": 1008,
      "este": 1009,
      "ĠÃ©taient": 1010,
      "illez": 1011,
      "ĠtrouvÃ©": 1012,
      "ienne": 1013,
      "Ġpenses": 1014,
      "gÃ©": 1015,
      "Ġsujet": 1016,
      "ĠdÃ©ci": 1017,
      "illÃ©": 1018,
      "sible": 1019,
      "Ġcaf": 1020,
      "Ġtravailler": 1021,
      "lent": 1022,
      "Ġpresque": 1023,
      "Ġchant": 1024,
      "Ġchev": 1025,
      "esse": 1026,
      "Ġviens": 1027,
      "Ġfu": 1028,
      "Ġchem": 1029,
      "Ġconv": 1030,
      "Ġfor": 1031,
      "vÃ©": 1032,
      "Ġdont": 1033,
      "Ġth": 1034,
      "Ġdites": 1035,
      "Ġretour": 1036,
      "Ġtable": 1037,
      "Ġmus": 1038,
      "Ġnour": 1039,
      "Ġfacile": 1040,
      "vent": 1041,
      "aie": 1042,
      "Ġpasser": 1043,
      "Ġaucun": 1044,
      "Ġvoudrais": 1045,
      "Ġins": 1046,
      "Ġann": 1047,
      "Ġsortir": 1048,
      "accord": 1049,
      "Ġeff": 1050,
      "ĠprÃ©v": 1051,
      "Ġnouvelle": 1052,
      "Ġdoit": 1053,
      "Ġville": 1054,
      "ĠtÃ©lÃ©phone": 1055,
      "tez": 1056,
      "ĠfrÃ¨re": 1057,
      "Ġtrouve": 1058,
      "Ġpoint": 1059,
      "Ġref": 1060,
      "Ġdevons": 1061,
      "illes": 1062,
      "ches": 1063,
      "avantage": 1064,
      "tel": 1065,
      "Ġresp": 1066,
      "Ġparf": 1067,
      "Ġgrande": 1068,
      "Ġentre": 1069,
      "ĠcafÃ©": 1070,
      "Ġob": 1071,
      "Ġpensez": 1072,
      "Ġdavantage": 1073,
      "onnÃ©": 1074,
      "Ġliv": 1075,
      "ĠprÃªt": 1076,
      "Ġcertain": 1077,
      "ĠvÃ©ritÃ©": 1078,
      "iser": 1079,
      "ĠdÃ©b": 1080,
      "Ġaime": 1081,
      "ĠÃ¢": 1082,
      "ision": 1083,
      "Ġchaque": 1084,
      "Ġlettre": 1085,
      "Ġmis": 1086,
      "Ġrent": 1087,
      "ĠjournÃ©e": 1088,
      "Ġoubli": 1089,
      "Ġerreur": 1090,
      "Ġdevriez": 1091,
      "hab": 1092,
      "cep": 1093,
      "ĠÃ©tiez": 1094,
      "ger": 1095,
      "Ġtour": 1096,
      "Ġbi": 1097,
      "apprÃ©ci": 1098,
      "Ġsavez": 1099,
      "ĠpensÃ©": 1100,
      "Ġpoli": 1101,
      "out": 1102,
      "ond": 1103,
      "Ġvas": 1104,
      "Ġbl": 1105,
      "Ġvenu": 1106,
      "Ġreste": 1107,
      "enn": 1108,
      "Ġchau": 1109,
      "ole": 1110,
      "Ġdispos": 1111,
      "Ġaucune": 1112,
      "Ġveuillez": 1113,
      "isÃ©": 1114,
      "Ġfamille": 1115,
      "Ġviv": 1116,
      "Ġbure": 1117,
      "ĠÂ«": 1118,
      "Ġconc": 1119,
      "Ġbus": 1120,
      "avons": 1121,
      "Ġsal": 1122,
      "Ġprop": 1123,
      "Ġbureau": 1124,
      "Ġtellement": 1125,
      "Ġcap": 1126,
      "Ġtermin": 1127,
      "Ġjeune": 1128,
      "Ġimport": 1129,
      "Ġphoto": 1130,
      "istoire": 1131,
      "Ġlivres": 1132,
      "mÃªme": 1133,
      "Ġprod": 1134,
      "tite": 1135,
      "Ġdevoir": 1136,
      "Ġpetite": 1137,
      "Ġmag": 1138,
      "Ġaide": 1139,
      "Ġmeilleur": 1140,
      "nÃ©": 1141,
      "cident": 1142,
      "Ġcin": 1143,
      "Ġdix": 1144,
      "Ġvoulait": 1145,
      "Ġcuis": 1146,
      "Ġvit": 1147,
      "Ġinv": 1148,
      "Ġcontr": 1149,
      "Ġenfant": 1150,
      "ĠdonnÃ©": 1151,
      "ĠÃ©tais": 1152,
      "Ġdevez": 1153,
      "ct": 1154,
      "id": 1155,
      "rire": 1156,
      "conque": 1157,
      "Ġ1": 1158,
      "Ġgard": 1159,
      "ĠÃ©p": 1160,
      "Ġmerci": 1161,
      "Ġconnaiss": 1162,
      "Ġdisp": 1163,
      "toi": 1164,
      "Ġfeu": 1165,
      "aller": 1166,
      "ĠdiffÃ©r": 1167,
      "cle": 1168,
      "emp": 1169,
      "onc": 1170,
      "Ġinc": 1171,
      "Ġplu": 1172,
      "ĠdÃ©jeuner": 1173,
      "Ġheureuse": 1174,
      "Ġdonner": 1175,
      "ĠoccupÃ©": 1176,
      "Ġfilm": 1177,
      "Ġlaissez": 1178,
      "Ġpartie": 1179,
      "cin": 1180,
      "Ġst": 1181,
      "ignore": 1182,
      "reux": 1183,
      "ĠprÃ©sent": 1184,
      "Ġvin": 1185,
      "Ġutil": 1186,
      "Ġquit": 1187,
      "ĠÃ©ch": 1188,
      "Ġfini": 1189,
      "Ġchance": 1190,
      "Ġsign": 1191,
      "ĠÂ»": 1192,
      "rap": 1193,
      "ses": 1194,
      "Ġparv": 1195,
      "Ġlun": 1196,
      "Ġpouvoir": 1197,
      "Ġnager": 1198,
      "Ġven": 1199,
      "Ġprend": 1200,
      "Ġconfi": 1201,
      "onner": 1202,
      "Ġdemander": 1203,
      "adore": 1204,
      "Ġexac": 1205,
      "aide": 1206,
      "ro": 1207,
      "Ġprends": 1208,
      "ĠrÃ©un": 1209,
      "Ġempl": 1210,
      "Ġallez": 1211,
      "Ġalors": 1212,
      "ĠtÃªte": 1213,
      "Ã©tÃ©": 1214,
      "ivers": 1215,
      "ĠsÃ»re": 1216,
      "Ġcomprends": 1217,
      "ĠmÃ©de": 1218,
      "Ġrem": 1219,
      "Ġallons": 1220,
      "bl": 1221,
      "Ġdevrions": 1222,
      "riture": 1223,
      "Ġdevrait": 1224,
      "Ġvite": 1225,
      "ĠmangÃ©": 1226,
      "Ġcelui": 1227,
      "Ġvivre": 1228,
      "ats": 1229,
      "ĠdÃ®": 1230,
      "Ġsous": 1231,
      "ĠarrÃªte": 1232,
      "Ġnos": 1233,
      "Ġserait": 1234,
      "Ġpersonnes": 1235,
      "ied": 1236,
      "Ġserais": 1237,
      "Ġprobable": 1238,
      "Ġsp": 1239,
      "Ġver": 1240,
      "Ġmalade": 1241,
      "lot": 1242,
      "ĠÃ©trang": 1243,
      "ĠcolÃ¨re": 1244,
      "Ġfils": 1245,
      "Ġamus": 1246,
      "ontre": 1247,
      "Ã©rÃ©": 1248,
      "Ġreconn": 1249,
      "Ġpri": 1250,
      "ĠgarÃ§on": 1251,
      "Ġdiscut": 1252,
      "Ġdir": 1253,
      "arde": 1254,
      "Ġserv": 1255,
      "Ġvieux": 1256,
      "Ġvue": 1257,
      "ateur": 1258,
      "Ġlaisser": 1259,
      "Ġsouh": 1260,
      "Ġsol": 1261,
      "Ġyeux": 1262,
      "ĠrÃ©union": 1263,
      "ures": 1264,
      "Ġlang": 1265,
      "Ġcomprendre": 1266,
      "ĠdÃ©teste": 1267,
      "ĠcÃ´": 1268,
      "Ġemb": 1269,
      "Ġferais": 1270,
      "Ġacheter": 1271,
      "Ġrencontre": 1272,
      "Ġmois": 1273,
      "Ã§u": 1274,
      "Ġseulement": 1275,
      "Ġensemble": 1276,
      "Ġdang": 1277,
      "ĠfatiguÃ©": 1278,
      "rir": 1279,
      "ĠmaniÃ¨re": 1280,
      "Ġnourriture": 1281,
      "Ġdonne": 1282,
      "ĠprÃ¨s": 1283,
      "Ġplais": 1284,
      "Ġgen": 1285,
      "Ġfroid": 1286,
      "Ġgent": 1287,
      "Ġprud": 1288,
      "Ġmettre": 1289,
      "Ġgu": 1290,
      "Ġquestions": 1291,
      "Ġconduire": 1292,
      "Ġpourriez": 1293,
      "Ġang": 1294,
      "Ġord": 1295,
      "Ġboire": 1296,
      "ĠthÃ©": 1297,
      "lu": 1298,
      "ĠclÃ©": 1299,
      "Ġplan": 1300,
      "Ġbelle": 1301,
      "Ġain": 1302,
      "Ġregarder": 1303,
      "Ã©g": 1304,
      "Ġfen": 1305,
      "Ġfon": 1306,
      "Ġcontre": 1307,
      "Ġtravers": 1308,
      "itude": 1309,
      "Ġenvie": 1310,
      "Ġmo": 1311,
      "Ġserai": 1312,
      "Ġpays": 1313,
      "Ġbient": 1314,
      "Ġrap": 1315,
      "ĠÃ©crit": 1316,
      "Ġautant": 1317,
      "Ġsenti": 1318,
      "ĠrÃ©ponse": 1319,
      "Ġpremier": 1320,
      "ĠbientÃ´t": 1321,
      "Ġsau": 1322,
      "Ġesp": 1323,
      "ommes": 1324,
      "ĠrÃª": 1325,
      "ras": 1326,
      "Ġtravaille": 1327,
      "Ġcompte": 1328,
      "aite": 1329,
      "ette": 1330,
      "Ġprofess": 1331,
      "ances": 1332,
      "Ġconfiance": 1333,
      "Ġrapide": 1334,
      "arer": 1335,
      "iller": 1336,
      "aise": 1337,
      "Ġba": 1338,
      "ĠgÃ©n": 1339,
      "Ġamie": 1340,
      "Ġsouci": 1341,
      "Ġattend": 1342,
      "ĠlaissÃ©": 1343,
      "Ġchemin": 1344,
      "Ġainsi": 1345,
      "ĠÃ©g": 1346,
      "Ġfou": 1347,
      "Ġautres": 1348,
      "Ġenseign": 1349,
      "ĠoubliÃ©": 1350,
      "omm": 1351,
      "ĠÃ©tud": 1352,
      "Ġmange": 1353,
      "Ġag": 1354,
      "Ġbois": 1355,
      "Ġexactement": 1356,
      "rou": 1357,
      "iter": 1358,
      "ĠrÃ©f": 1359,
      "ĠsÃ©ri": 1360,
      "Ġplace": 1361,
      "ĠcoÃ»": 1362,
      "ĠvÃ©lo": 1363,
      "iÃ©": 1364,
      "rant": 1365,
      "ĠsÃ©": 1366,
      "Ġsour": 1367,
      "ages": 1368,
      "Ġarriver": 1369,
      "ĠcÃ´tÃ©": 1370,
      "orter": 1371,
      "Ġdormir": 1372,
      "lÃł": 1373,
      "ĠparlÃ©": 1374,
      "Ġvol": 1375,
      "ĠÃ©cou": 1376,
      "ĠmÃ©decin": 1377,
      "Ġrep": 1378,
      "Ġvoyage": 1379,
      "Ġminutes": 1380,
      "iner": 1381,
      "Ġinf": 1382,
      "Ġsuppose": 1383,
      "Ġtant": 1384,
      "Ġgare": 1385,
      "Ġloin": 1386,
      "riÃ¨re": 1387,
      "Ġvient": 1388,
      "Ġdernier": 1389,
      "oix": 1390,
      "Ġsuff": 1391,
      "Ġplut": 1392,
      "Ġquiconque": 1393,
      "Ġboulot": 1394,
      "atis": 1395,
      "anglais": 1396,
      "ations": 1397,
      "oyer": 1398,
      "Ġjourn": 1399,
      "Ġattention": 1400,
      "Ġregarde": 1401,
      "Ġendroit": 1402,
      "eler": 1403,
      "Ġpenser": 1404,
      "olÃ©e": 1405,
      "essay": 1406,
      "ĠessayÃ©": 1407,
      "Ġfau": 1408,
      "Ġchans": 1409,
      "amment": 1410,
      "ĠdÃ®ner": 1411,
      "Ġpied": 1412,
      "Ġplait": 1413,
      "Ġcontinu": 1414,
      "midi": 1415,
      "Ġpolice": 1416,
      "Ġprix": 1417,
      "per": 1418,
      "Ġpossible": 1419,
      "Ġmusique": 1420,
      "uy": 1421,
      "Ġverre": 1422,
      "Ġaim": 1423,
      "be": 1424,
      "lar": 1425,
      "ouver": 1426,
      "urer": 1427,
      "agne": 1428,
      "attend": 1429,
      "Ġanglais": 1430,
      "Ã¨te": 1431,
      "Ġprofesseur": 1432,
      "lic": 1433,
      "Ġpouvais": 1434,
      "Ġlieu": 1435,
      "ĠrencontrÃ©": 1436,
      "apprÃ©cie": 1437,
      "ital": 1438,
      "antÃ©": 1439,
      "Ġw": 1440,
      "ours": 1441,
      "ĠplutÃ´t": 1442,
      "Ġfa": 1443,
      "Ġattendre": 1444,
      "Ġabs": 1445,
      "Ġcheveux": 1446,
      "Ġprobablement": 1447,
      "Ġsorte": 1448,
      "ĠdÃ©solÃ©e": 1449,
      "leurs": 1450,
      "homme": 1451,
      "Ġmour": 1452,
      "anche": 1453,
      "Ġra": 1454,
      "Ġchois": 1455,
      "Ġapprendre": 1456,
      "ĠÃ¢ge": 1457,
      "ĠgÃ¢": 1458,
      "Ġappar": 1459,
      "exp": 1460,
      "Ġconseil": 1461,
      "Ã¨me": 1462,
      "ĠrÃ©ve": 1463,
      "Ġpuisse": 1464,
      "Ġgenre": 1465,
      "bles": 1466,
      "hÃ´": 1467,
      "ĠdÃ©rang": 1468,
      "ĠpremiÃ¨re": 1469,
      "Ġprochaine": 1470,
      "ire": 1471,
      "Ġcal": 1472,
      "ÃªtÃ©": 1473,
      "Ġassis": 1474,
      "Ġfoncti": 1475,
      "hors": 1476,
      "rÃ©e": 1477,
      "erv": 1478,
      "Ġfaim": 1479,
      "ettes": 1480,
      "Ġcontent": 1481,
      "Ġcan": 1482,
      "itÃ©s": 1483,
      "Ġleurs": 1484,
      "iend": 1485,
      "Ġdehors": 1486,
      "ĠapprÃ©ci": 1487,
      "ĠfenÃªtre": 1488,
      "Ġviend": 1489,
      "assÃ©": 1490,
      "Ġjoue": 1491,
      "Ġpayer": 1492,
      "Ġsurpris": 1493,
      "Ġchaud": 1494,
      "son": 1495,
      "Ġnei": 1496,
      "paravant": 1497,
      "Ġchanter": 1498,
      "ate": 1499,
      "tant": 1500,
      "Ġdess": 1501,
      "mÃ©di": 1502,
      "Ġproduit": 1503,
      "Ġto": 1504,
      "uritÃ©": 1505,
      "Ġhabitu": 1506,
      "Ġargent": 1507,
      "tÃ©ri": 1508,
      "cÃ©": 1509,
      "Ġk": 1510,
      "Ġauparavant": 1511,
      "Ġessayer": 1512,
      "importe": 1513,
      "avait": 1514,
      "fs": 1515,
      "ues": 1516,
      "Ġvers": 1517,
      "Ġsuiv": 1518,
      "Ġoff": 1519,
      "Ġpeuvent": 1520,
      "Ġappris": 1521,
      "ĠnÃ©c": 1522,
      "Ġrencontrer": 1523,
      "ves": 1524,
      "aille": 1525,
      "Ġentendre": 1526,
      "ĠimmÃ©di": 1527,
      "iers": 1528,
      "og": 1529,
      "cc": 1530,
      "Ã¯": 1531,
      "Ġlu": 1532,
      "ĠsÃ©c": 1533,
      "Ãªcher": 1534,
      "resse": 1535,
      "ĠdÃ©cidÃ©": 1536,
      "dit": 1537,
      "tenir": 1538,
      "Ġdr": 1539,
      "Ġcri": 1540,
      "Ġmarcher": 1541,
      "Ġprochain": 1542,
      "Ġdevoirs": 1543,
      "atisf": 1544,
      "Ġpap": 1545,
      "Ġrepr": 1546,
      "Ã©ro": 1547,
      "ĠnÃ©cess": 1548,
      "Ġsac": 1549,
      "Ã¨g": 1550,
      "Ġimportant": 1551,
      "Ġparc": 1552,
      "irent": 1553,
      "Ġattrap": 1554,
      "asser": 1555,
      "Ġsatisf": 1556,
      "Ġconvain": 1557,
      "atement": 1558,
      "Ã©b": 1559,
      "Ġstu": 1560,
      "Ġsecre": 1561,
      "Ġnouvelles": 1562,
      "Ġjournal": 1563,
      "env": 1564,
      "Ġhistoire": 1565,
      "Ġpouvait": 1566,
      "Ġfumer": 1567,
      "oÃ®": 1568,
      "user": 1569,
      "Ġchoix": 1570,
      "Ã§ons": 1571,
      "ction": 1572,
      "Ġvisite": 1573,
      "ĠimmÃ©diatement": 1574,
      "Ġty": 1575,
      "Ġsomme": 1576,
      "ĠtÃ©lÃ©v": 1577,
      "Ġchauss": 1578,
      "Ġdiscuter": 1579,
      "ĠsÃ©curitÃ©": 1580,
      "Ġstup": 1581,
      "ĠproblÃ¨mes": 1582,
      "Ġsuffis": 1583,
      "Ġtent": 1584,
      "Ġsy": 1585,
      "Ġvont": 1586,
      "usÃ©": 1587,
      "urent": 1588,
      "Ġcours": 1589,
      "Ġcinq": 1590,
      "quel": 1591,
      "ĠÃ©tions": 1592,
      "Ġop": 1593,
      "jou": 1594,
      "nes": 1595,
      "ume": 1596,
      "Ġmoy": 1597,
      "Ġprenez": 1598,
      "ira": 1599,
      "Ġsurv": 1600,
      "ĠÅĵ": 1601,
      "ing": 1602,
      "ustr": 1603,
      "ĠcommencÃ©": 1604,
      "oÃ»": 1605,
      "Ã´le": 1606,
      "Ġpeine": 1607,
      "Ġmagas": 1608,
      "Ġpois": 1609,
      "ĠterminÃ©": 1610,
      "Ġrob": 1611,
      "Ġparce": 1612,
      "ĠÃ©crire": 1613,
      "amen": 1614,
      "ies": 1615,
      "enf": 1616,
      "ĠcÃ©": 1617,
      "ĠÃ©v": 1618,
      "Ġmains": 1619,
      "Ġperdre": 1620,
      "Ġarrive": 1621,
      "Ġclasse": 1622,
      "quipe": 1623,
      "ĠbÃ©b": 1624,
      "Ġsavait": 1625,
      "ĠoccupÃ©e": 1626,
      "bas": 1627,
      "ĠboÃ®": 1628,
      "Ġcommence": 1629,
      "ĠrÃ©pondre": 1630,
      "Ġchercher": 1631,
      "Ġchanger": 1632,
      "Ġtomber": 1633,
      "Ġnombreux": 1634,
      "ement": 1635,
      "Ġlum": 1636,
      "tient": 1637,
      "Ġamou": 1638,
      "ĠcomplÃ¨": 1639,
      "tÃ©rieur": 1640,
      "Ġcop": 1641,
      "Ġsoi": 1642,
      "ains": 1643,
      "ĠdÃ©f": 1644,
      "Ġrappelle": 1645,
      "Ġpropre": 1646,
      "ig": 1647,
      "ĠsantÃ©": 1648,
      "Ġrac": 1649,
      "ĠrÃ¨g": 1650,
      "inc": 1651,
      "Ã§a": 1652,
      "Ġfier": 1653,
      "Ġcertaine": 1654,
      "Ġenn": 1655,
      "agit": 1656,
      "Ġdim": 1657,
      "Ġobli": 1658,
      "Ġfrapp": 1659,
      "part": 1660,
      "Ġemploi": 1661,
      "Ġchanson": 1662,
      "Ġwe": 1663,
      "Ġchaussures": 1664,
      "ature": 1665,
      "Ġterre": 1666,
      "Ġsitu": 1667,
      "lÃ©ch": 1668,
      "dio": 1669,
      "Ġcade": 1670,
      "Ġpleuv": 1671,
      "Ġlorsqu": 1672,
      "occup": 1673,
      "Ġfit": 1674,
      "Ġinter": 1675,
      "Ġvoulons": 1676,
      "Ġferm": 1677,
      "Ġsoin": 1678,
      "Ġchar": 1679,
      "Ġtemp": 1680,
      "Ġriche": 1681,
      "Ġsecret": 1682,
      "rons": 1683,
      "Ġor": 1684,
      "Ġnum": 1685,
      "Ġfall": 1686,
      "Ġrom": 1687,
      "ables": 1688,
      "Ġbruit": 1689,
      "Ġcelle": 1690,
      "Ġrentrer": 1691,
      "enue": 1692,
      "Ġvac": 1693,
      "Ġavais": 1694,
      "cier": 1695,
      "Ġaccep": 1696,
      "Ġrapidement": 1697,
      "ĠrÃ©flÃ©ch": 1698,
      "Ġlis": 1699,
      "Ġchap": 1700,
      "agÃ©": 1701,
      "Ġdevenir": 1702,
      "liez": 1703,
      "Ġlangue": 1704,
      "ĠÃ©tudier": 1705,
      "ĠtÃ©lÃ©vision": 1706,
      "chez": 1707,
      "ĠderriÃ¨re": 1708,
      "ĠarrÃªtÃ©": 1709,
      "ĠcomplÃ¨tement": 1710,
      "Ġaurait": 1711,
      "ets": 1712,
      "oyÃ©": 1713,
      "Ġjaponais": 1714,
      "Ġgagner": 1715,
      "ĠnÃ©cessaire": 1716,
      "pital": 1717,
      "Ġcas": 1718,
      "ĠcÅĵur": 1719,
      "quelle": 1720,
      "annÃ©e": 1721,
      "antes": 1722,
      "Ġrestau": 1723,
      "Ġrevoir": 1724,
      "Ġdol": 1725,
      "Ġlaquelle": 1726,
      "Ġresse": 1727,
      "Ġtrente": 1728,
      "Ġvouloir": 1729,
      "ĠappelÃ©": 1730,
      "Ġrespons": 1731,
      "ĠbÃ©bÃ©": 1732,
      "Ġvacances": 1733,
      "Ġdollar": 1734,
      "bres": 1735,
      "Ġmil": 1736,
      "Ġbal": 1737,
      "ĠÃ©le": 1738,
      "Ġdist": 1739,
      "habitude": 1740,
      "Ġtenn": 1741,
      "ĠbiÃ¨re": 1742,
      "ĠreÃ§u": 1743,
      "ligent": 1744,
      "Ġsouviens": 1745,
      "ustral": 1746,
      "Ġtennis": 1747,
      "ĠdÃ©cision": 1748,
      "Ġroute": 1749,
      "Ġcommencer": 1750,
      "Ġmagasin": 1751,
      "ĠnumÃ©ro": 1752,
      "Ġcause": 1753,
      "ĠboÃ®te": 1754,
      "atre": 1755,
      "Ġprojet": 1756,
      "cul": 1757,
      "Ġfaisons": 1758,
      "Ã¢mes": 1759,
      "ĠblessÃ©": 1760,
      "Ġordin": 1761,
      "mettre": 1762,
      "cha": 1763,
      "onnaire": 1764,
      "ze": 1765,
      "Ġtort": 1766,
      "indre": 1767,
      "Ġcommen": 1768,
      "Ġplein": 1769,
      "Ġsuppos": 1770,
      "Ġchapeau": 1771,
      "Ġfour": 1772,
      "Ġreti": 1773,
      "intention": 1774,
      "Ġsort": 1775,
      "Ġservi": 1776,
      "ĠfaÃ§on": 1777,
      "ustralie": 1778,
      "oci": 1779,
      "Ġpan": 1780,
      "Ġban": 1781,
      "Ġress": 1782,
      "ect": 1783,
      "Ġaimes": 1784,
      "ĠaimÃ©": 1785,
      "aÃ®tre": 1786,
      "Ġutiliser": 1787,
      "Ġneige": 1788,
      "Ġsauv": 1789,
      "oise": 1790,
      "Ġnett": 1791,
      "ĠprÃªte": 1792,
      "gne": 1793,
      "Ġdispose": 1794,
      "Ġlundi": 1795,
      "Ġceux": 1796,
      "Ġris": 1797,
      "Ġautor": 1798,
      "Ġconsci": 1799,
      "Ġmauvaise": 1800,
      "Ġfont": 1801,
      "ressi": 1802,
      "ĠrÃ©al": 1803,
      "Ġferai": 1804,
      "gr": 1805,
      "Ġ\"": 1806,
      "Ġpol": 1807,
      "Ġdroit": 1808,
      "Ġlait": 1809,
      "Ġbat": 1810,
      "siez": 1811,
      "accident": 1812,
      "Ġperd": 1813,
      "Ġgarder": 1814,
      "run": 1815,
      "uc": 1816,
      "Ã©p": 1817,
      "Ġju": 1818,
      "Ġrue": 1819,
      "Ġintel": 1820,
      "col": 1821,
      "Ġposer": 1822,
      "Ġmontrer": 1823,
      "arrÃªter": 1824,
      "Ġrouge": 1825,
      "iversaire": 1826,
      "Ġdollars": 1827,
      "iques": 1828,
      "Ġval": 1829,
      "Ġfus": 1830,
      "Ġposte": 1831,
      "Ġguerre": 1832,
      "Ġrobe": 1833,
      "Ġait": 1834,
      "uite": 1835,
      "00": 1836,
      "ense": 1837,
      "ormais": 1838,
      "ĠarrÃªter": 1839,
      "Ġvoudriez": 1840,
      "ces": 1841,
      "Ġpous": 1842,
      "Ã©rer": 1843,
      "Ġsel": 1844,
      "Ġfasse": 1845,
      "appr": 1846,
      "ĠdÃ©sormais": 1847,
      "Ġpubli": 1848,
      "ĠprÃ©fÃ¨re": 1849,
      "Ġaffaire": 1850,
      "Ġreconnaiss": 1851,
      "Ġstupide": 1852,
      "Ġrestaurant": 1853,
      "Ġmor": 1854,
      "Ã¨que": 1855,
      "Ġtromp": 1856,
      "Ġdevant": 1857,
      "ensÃ©": 1858,
      "Ġpleurer": 1859,
      "Ġnombreuses": 1860,
      "oth": 1861,
      "Ġbras": 1862,
      "Ġimag": 1863,
      "Ġaffaires": 1864,
      "Ġcadeau": 1865,
      "ĠvÃ©ri": 1866,
      "ises": 1867,
      "Ġriv": 1868,
      "Ġdesc": 1869,
      "Ġvoulu": 1870,
      "Ġdonnez": 1871,
      "Ġsituation": 1872,
      "Ġdonc": 1873,
      "Ġsuper": 1874,
      "lation": 1875,
      "raient": 1876,
      "Ġfaisait": 1877,
      "Ġveulent": 1878,
      "Ġlibre": 1879,
      "ĠdÃ©couv": 1880,
      "Ġexpli": 1881,
      "Ġplaisir": 1882,
      "Ġdimanche": 1883,
      "ek": 1884,
      "Ġay": 1885,
      "Ġparlez": 1886,
      "Ġsignif": 1887,
      "Ġweek": 1888,
      "zar": 1889,
      "Ġquatre": 1890,
      "Ġsug": 1891,
      "Ġpermis": 1892,
      "Ġaccident": 1893,
      "Ġrapport": 1894,
      "Ġsouhait": 1895,
      "Ġintelligent": 1896,
      "teur": 1897,
      "Ġ3": 1898,
      "oudre": 1899,
      "Ġsole": 1900,
      "Ġjard": 1901,
      "Ġlequel": 1902,
      "Ã©trang": 1903,
      "Ġail": 1904,
      "ĠmarchÃ©": 1905,
      "Ġrire": 1906,
      "Ġparfois": 1907,
      "Ġtype": 1908,
      "Ġsoleil": 1909,
      "achet": 1910,
      "ball": 1911,
      "Ã«": 1912,
      "Ġrendu": 1913,
      "Ã¨ne": 1914,
      "Ġprin": 1915,
      "irai": 1916,
      "Ġentrer": 1917,
      "Ġsouff": 1918,
      "Ġcuisine": 1919,
      "Ġsuffisamment": 1920,
      "ĠvÃ©rif": 1921,
      "ĠvÃªte": 1922,
      "Ġsix": 1923,
      "Ġaimer": 1924,
      "Ġgarde": 1925,
      "Ġfilles": 1926,
      "Ġremar": 1927,
      "Ġdange": 1928,
      "ĠlumiÃ¨re": 1929,
      "Ġeux": 1930,
      "Ġmante": 1931,
      "cip": 1932,
      "ĠgÃ¢teau": 1933,
      "Ġnoir": 1934,
      "Ġrat": 1935,
      "Ġremp": 1936,
      "ecti": 1937,
      "Ġdicti": 1938,
      "Ġvieille": 1939,
      "Ġmots": 1940,
      "ĠÃ©tudiants": 1941,
      "ttes": 1942,
      "Ġ2": 1943,
      "Ġplain": 1944,
      "dic": 1945,
      "Ã©cou": 1946,
      "des": 1947,
      "Ġcent": 1948,
      "Ġplage": 1949,
      "aines": 1950,
      "ĠconnaÃ®t": 1951,
      "Ġdemanda": 1952,
      "Ġpian": 1953,
      "Ġmeilleure": 1954,
      "Ġcarte": 1955,
      "Ġcapable": 1956,
      "ieurs": 1957,
      "Ġrav": 1958,
      "Ġhaut": 1959,
      "oupe": 1960,
      "Ġmoindre": 1961,
      "Ġprudent": 1962,
      "Ġmourir": 1963,
      "Ġjardin": 1964,
      "Ġmanteau": 1965,
      "dess": 1966,
      "ĠdÃ¨s": 1967,
      "Ġni": 1968,
      "Ġvenez": 1969,
      "ttez": 1970,
      "blie": 1971,
      "ĠvÃªtements": 1972,
      "rÃ©s": 1973,
      "Ġfurent": 1974,
      "Ġign": 1975,
      "Ġinqui": 1976,
      "tron": 1977,
      "Ġamies": 1978,
      "ĠrÃ©soudre": 1979,
      "oids": 1980,
      "Ġmenti": 1981,
      "ĠintÃ©ressant": 1982,
      "Ã«l": 1983,
      "Ġdictionnaire": 1984,
      "Ġdoi": 1985,
      "ague": 1986,
      "Ġplusieurs": 1987,
      "ĠannÃ©e": 1988,
      "ĠnoÃ«l": 1989,
      "Ġfinalement": 1990,
      "ky": 1991,
      "mar": 1992,
      "Ġcam": 1993,
      "tures": 1994,
      "ĠrÃ©ussi": 1995,
      "Ġfinir": 1996,
      "Ġexcuses": 1997,
      "Ġminute": 1998,
      "acheter": 1999,
      "oubli": 2000,
      "Ġcess": 2001,
      "Ã¨ve": 2002,
      "Ġsucc": 2003,
      "agn": 2004,
      "Ġmesure": 2005,
      "Ġpluie": 2006,
      "xi": 2007,
      "inÃ©": 2008,
      "Ġtrad": 2009,
      "Ġenvir": 2010,
      "ĠchangÃ©": 2011,
      "Ġporter": 2012,
      "Ġsatisfait": 2013,
      "gt": 2014,
      "Ġanim": 2015,
      "emb": 2016,
      "Ã©m": 2017,
      "Ġvaut": 2018,
      "entendre": 2019,
      "Ġbar": 2020,
      "ĠbÃ¢": 2021,
      "Ġtruc": 2022,
      "Ġhum": 2023,
      "Ġvoici": 2024,
      "Ġemprun": 2025,
      "Ġpromen": 2026,
      "ĠrÃªve": 2027,
      "histoire": 2028,
      "cieux": 2029,
      "Ġseriez": 2030,
      "Ã©v": 2031,
      "Ġparl": 2032,
      "Ġmets": 2033,
      "Ġremer": 2034,
      "Ġdevenu": 2035,
      "Ġcompris": 2036,
      "Ġembr": 2037,
      "Ġliste": 2038,
      "Ġtelle": 2039,
      "Ġsil": 2040,
      "onte": 2041,
      "Ġchiens": 2042,
      "Ġhommes": 2043,
      "irÃ©": 2044,
      "olu": 2045,
      "Ġferme": 2046,
      "blioth": 2047,
      "Ġrendez": 2048,
      "illÃ©e": 2049,
      "Ġbizar": 2050,
      "Ġbiblioth": 2051,
      "ĠriviÃ¨re": 2052,
      "gÃ©e": 2053,
      "tit": 2054,
      "Ġci": 2055,
      "Ġmit": 2056,
      "Ġfleurs": 2057,
      "Ġhonn": 2058,
      "ĠrÃ©uss": 2059,
      "Ġsurprise": 2060,
      "Ġeffr": 2061,
      "ĠdiffÃ©rent": 2062,
      "enne": 2063,
      "Ġhor": 2064,
      "Ġappare": 2065,
      "Ġferiez": 2066,
      "Ġregre": 2067,
      "Ġaband": 2068,
      "ĠannÃ©es": 2069,
      "ĠgÃ©nÃ©r": 2070,
      "ĠsuccÃ¨s": 2071,
      "Ġcoin": 2072,
      "ĠnÃ©": 2073,
      "Ġmin": 2074,
      "ĠdÃ©g": 2075,
      "Ġordinateur": 2076,
      "Ġsuite": 2077,
      "Ġcho": 2078,
      "Ġrecher": 2079,
      "Ġsecon": 2080,
      "Ġentend": 2081,
      "ĠprÃ©par": 2082,
      "Ġimpati": 2083,
      "Ġquitter": 2084,
      "Ġsugg": 2085,
      "Ġpiano": 2086,
      "vre": 2087,
      "Ġvendre": 2088,
      "Ġtrait": 2089,
      "ortÃ©": 2090,
      "Ġaimez": 2091,
      "nent": 2092,
      "Ġtasse": 2093,
      "Ã©tud": 2094,
      "Ġrepos": 2095,
      "ĠrÃ©jou": 2096,
      "ĠrÃ©parer": 2097,
      "eusement": 2098,
      "Ġface": 2099,
      "ression": 2100,
      "prise": 2101,
      "Ġcourt": 2102,
      "Ġouvert": 2103,
      "hÃ´pital": 2104,
      "ĠbibliothÃ¨que": 2105,
      "iÃ¨res": 2106,
      "Ġpor": 2107,
      "Ġcu": 2108,
      "oign": 2109,
      "ĠgoÃ»": 2110,
      "ĠvolÃ©": 2111,
      "sions": 2112,
      "Ġsembl": 2113,
      "attends": 2114,
      "Ġsty": 2115,
      "Ġpoids": 2116,
      "unes": 2117,
      "Ġbas": 2118,
      "ĠrÃ©g": 2119,
      "ĠÃ©cole": 2120,
      "prit": 2121,
      "ĠamÃ©ri": 2122,
      "Ġrestez": 2123,
      "Ġmanque": 2124,
      "Ġgentil": 2125,
      "Ġrepas": 2126,
      "Ġinform": 2127,
      "dessus": 2128,
      "cÃ©e": 2129,
      "ris": 2130,
      "Ġpauv": 2131,
      "Ġavoc": 2132,
      "tique": 2133,
      "Ġserez": 2134,
      "ĠÃ©te": 2135,
      "ĠÃ©quipe": 2136,
      "Ġgrosse": 2137,
      "ĠinvitÃ©": 2138,
      "Ġbateau": 2139,
      "Ã¨de": 2140,
      "Ġdiv": 2141,
      "Ġprison": 2142,
      "ĠpayÃ©": 2143,
      "Ġfemmes": 2144,
      "Ġplupart": 2145,
      "Ġdangereux": 2146,
      "az": 2147,
      "Ġir": 2148,
      "Ġhors": 2149,
      "ĠmÃ©dic": 2150,
      "ult": 2151,
      "Ġpoisson": 2152,
      "Ġracont": 2153,
      "ĠrÃ¨gles": 2154,
      "Ġbizarre": 2155,
      "iles": 2156,
      "ann": 2157,
      "lem": 2158,
      "Ġparap": 2159,
      "tions": 2160,
      "Ġquels": 2161,
      "Ġpersonn": 2162,
      "Ġimpressi": 2163,
      "Ġautour": 2164,
      "Ġcorre": 2165,
      "Ġtoky": 2166,
      "Ġsommeil": 2167,
      "Ġamoureux": 2168,
      "Ã©tranger": 2169,
      "Ġtokyo": 2170,
      "aff": 2171,
      "Ġtenir": 2172,
      "Ġsoci": 2173,
      "Ġbu": 2174,
      "Ġsus": 2175,
      "ĠhÃ´": 2176,
      "asion": 2177,
      "Ġdanser": 2178,
      "Ġposs": 2179,
      "Ġendorm": 2180,
      "essayer": 2181,
      "Ġpleuvoir": 2182,
      "ĠbÃ¢ti": 2183,
      "reuse": 2184,
      "Ġmens": 2185,
      "Ġjeu": 2186,
      "Ġmarche": 2187,
      "diot": 2188,
      "ĠcrÃ©": 2189,
      "Ġcontac": 2190,
      "conv": 2191,
      "Ġdormi": 2192,
      "Ġlunettes": 2193,
      "Ġvenue": 2194,
      "Ġfaute": 2195,
      "mment": 2196,
      "Ġpommes": 2197,
      "Ġat": 2198,
      "Ġnerv": 2199,
      "Ġlar": 2200,
      "rible": 2201,
      "autres": 2202,
      "ĠallÃ©e": 2203,
      "ĠarrÃªtez": 2204,
      "Ġsymp": 2205,
      "Ġmen": 2206,
      "ilitÃ©": 2207,
      "Ġfav": 2208,
      "Ġactu": 2209,
      "exc": 2210,
      "ĠÃ©trange": 2211,
      "Ġform": 2212,
      "alent": 2213,
      "ĠrestÃ©": 2214,
      "attendre": 2215,
      "titut": 2216,
      "convÃ©n": 2217,
      "oche": 2218,
      "Ġtim": 2219,
      "Ġmess": 2220,
      "auche": 2221,
      "lier": 2222,
      "utile": 2223,
      "Ġoncle": 2224,
      "Ġdurant": 2225,
      "Ġcertains": 2226,
      "Ġparviens": 2227,
      "Ġdanger": 2228,
      "Ġradio": 2229,
      "Ġfonctionne": 2230,
      "Ġpouss": 2231,
      "Ġprit": 2232,
      "ĠtombÃ©": 2233,
      "ĠÃ©pous": 2234,
      "convÃ©nient": 2235,
      "raÃ®": 2236,
      "ta": 2237,
      "alitÃ©": 2238,
      "Ġfera": 2239,
      "Ã©rience": 2240,
      "ĠregardÃ©": 2241,
      "Ġproposition": 2242,
      "ĠsÃ©rieux": 2243,
      "od": 2244,
      "oÃ¹": 2245,
      "Ã©ch": 2246,
      "Ġmien": 2247,
      "Ġmign": 2248,
      "ĠprÃªter": 2249,
      "Ġpard": 2250,
      "rice": 2251,
      "Ġguit": 2252,
      "ignor": 2253,
      "Ġpire": 2254,
      "Ġchange": 2255,
      "Ġphotos": 2256,
      "Ġpop": 2257,
      "enait": 2258,
      "Ġcli": 2259,
      "Ġneu": 2260,
      "erais": 2261,
      "Ġrh": 2262,
      "Ġtran": 2263,
      "Ġint": 2264,
      "Ġdonna": 2265,
      "dÃ©jeuner": 2266,
      "Ġrappeler": 2267,
      "luie": 2268,
      "Ġparapluie": 2269,
      "cer": 2270,
      "ront": 2271,
      "Ġjo": 2272,
      "iti": 2273,
      "avion": 2274,
      "ĠaidÃ©": 2275,
      "ĠprÃ©p": 2276,
      "Ġregardez": 2277,
      "ĠrÃ©sult": 2278,
      "Ġtableau": 2279,
      "ĠrÃ©jouis": 2280,
      "quis": 2281,
      "Ġatte": 2282,
      "Ġtriste": 2283,
      "tenu": 2284,
      "ĠallÃ©s": 2285,
      "Ġrecomm": 2286,
      "ĠfatiguÃ©e": 2287,
      "Ġappareil": 2288,
      "opp": 2289,
      "oublie": 2290,
      "ĠlÃ©": 2291,
      "inion": 2292,
      "Ġgla": 2293,
      "Ġcamp": 2294,
      "Ġcourir": 2295,
      "Ġvoyager": 2296,
      "instant": 2297,
      "Ġdoute": 2298,
      "ĠgagnÃ©": 2299,
      "Ġcheval": 2300,
      "ĠprÃ©senter": 2301,
      "Ġdirait": 2302,
      "ĠcoÃ»te": 2303,
      "Ġeffray": 2304,
      "pt": 2305,
      "uve": 2306,
      "Ġfl": 2307,
      "Ġrends": 2308,
      "itique": 2309,
      "Ġaurais": 2310,
      "Ġsec": 2311,
      "Ġidiot": 2312,
      "oindre": 2313,
      "atique": 2314,
      "Ġseras": 2315,
      "Ġfermer": 2316,
      "Ġcourant": 2317,
      "Ġsimple": 2318,
      "Ġconstr": 2319,
      "Ġsentir": 2320,
      "Ġconseils": 2321,
      "Ġanniversaire": 2322,
      "ĠdÃ©but": 2323,
      "Ġaustralie": 2324,
      "Ġpatron": 2325,
      "entends": 2326,
      "appeler": 2327,
      "nement": 2328,
      "ĠgarÃ§ons": 2329,
      "Ġconcert": 2330,
      "Ġdessus": 2331,
      "Ġroman": 2332,
      "da": 2333,
      "ĠcassÃ©": 2334,
      "euses": 2335,
      "Ġlac": 2336,
      "Ġtuer": 2337,
      "Ġproche": 2338,
      "urg": 2339,
      "Ġattendu": 2340,
      "Ġimpos": 2341,
      "Ġcherche": 2342,
      "Ġmariage": 2343,
      "Ġsalle": 2344,
      "Ġsouhaite": 2345,
      "Ġpapier": 2346,
      "ĠhonnÃªte": 2347,
      "Ġz": 2348,
      "Ã©ci": 2349,
      "Ġbons": 2350,
      "Ã©crire": 2351,
      "Ġessaie": 2352,
      "ĠprÃ©fÃ©": 2353,
      "ĠprÃ©fÃ©r": 2354,
      "Ġchats": 2355,
      "Ġressemble": 2356,
      "aprÃ¨s": 2357,
      "tres": 2358,
      "Ġfas": 2359,
      "Ġbord": 2360,
      "Ġrare": 2361,
      "ari": 2362,
      "Ġpress": 2363,
      "cev": 2364,
      "Ġvoix": 2365,
      "veille": 2366,
      "ĠconnaÃ®tre": 2367,
      "Ġpieds": 2368,
      "Ġviendra": 2369,
      "ĠtempÃªte": 2370,
      "Ġlever": 2371,
      "olie": 2372,
      "ĠprÃ©c": 2373,
      "Ġparticu": 2374,
      "Ġtaxi": 2375,
      "ĠarrÃªt": 2376,
      "Ġsupporter": 2377,
      "ĠÃ©tudiant": 2378,
      "ĠspÃ©ci": 2379,
      "ĠÃ©galement": 2380,
      "dans": 2381,
      "Ġdos": 2382,
      "Ġtel": 2383,
      "Ġtrans": 2384,
      "Ġaviez": 2385,
      "amour": 2386,
      "ĠÃ©criv": 2387,
      "Ġcomprend": 2388,
      "Ġbout": 2389,
      "Ġparfait": 2390,
      "Ġbase": 2391,
      "Ġpublic": 2392,
      "Ġtranqu": 2393,
      "Ġmou": 2394,
      "Ġmur": 2395,
      "Ġble": 2396,
      "Ġbonnes": 2397,
      "ines": 2398,
      "Ġconsid": 2399,
      "imag": 2400,
      "Ġcoucher": 2401,
      "Ġennuy": 2402,
      "Ġpou": 2403,
      "oie": 2404,
      "univers": 2405,
      "inf": 2406,
      "Ġmarier": 2407,
      "Ġmach": 2408,
      "appelle": 2409,
      "Ġchemise": 2410,
      "ĠclÃ©s": 2411,
      "Ġsignifie": 2412,
      "Ġmessage": 2413,
      "onom": 2414,
      "Ġvend": 2415,
      "let": 2416,
      "intÃ©rieur": 2417,
      "Ġchou": 2418,
      "Ġchante": 2419,
      "ĠdÃ©test": 2420,
      "ĠprÃ©fÃ©rÃ©": 2421,
      "Ġcertaines": 2422,
      "Ġavocat": 2423,
      "gment": 2424,
      "ouÃ©": 2425,
      "ĠnÃ©g": 2426,
      "Ġjeunes": 2427,
      "Ġfo": 2428,
      "Ġchaise": 2429,
      "ales": 2430,
      "Ġviande": 2431,
      "Ġvoyez": 2432,
      "Ġdouleur": 2433,
      "Ġdiscours": 2434,
      "Ġfacilement": 2435,
      "Ġmoyen": 2436,
      "Ġayez": 2437,
      "Ġseconde": 2438,
      "ctement": 2439,
      "Ġtaille": 2440,
      "Ġsci": 2441,
      "Ġnature": 2442,
      "ĠmÃ©t": 2443,
      "unis": 2444,
      "ĠÃ©tats": 2445,
      "Ġgri": 2446,
      "Ġasse": 2447,
      "ĠprÃ©si": 2448,
      "Ġmalheure": 2449,
      "Ġattent": 2450,
      "Ġcontente": 2451,
      "ancer": 2452,
      "Ġpromis": 2453,
      "Ġrespec": 2454,
      "attendais": 2455,
      "ĠdrÃ´le": 2456,
      "Ġoise": 2457,
      "oite": 2458,
      "art": 2459,
      "arti": 2460,
      "Ġsuivre": 2461,
      "Ġtri": 2462,
      "Ġindi": 2463,
      "iver": 2464,
      "Ġcompter": 2465,
      "ĠÃ©cl": 2466,
      "ĠconseillÃ©": 2467,
      "Ġanimaux": 2468,
      "Ġpauvre": 2469,
      "ĠmÃ©dica": 2470,
      "Ġrhume": 2471,
      "Ġfoot": 2472,
      "aign": 2473,
      "Ã©li": 2474,
      "Ġtiens": 2475,
      "era": 2476,
      "ites": 2477,
      "Ġsucre": 2478,
      "Ġmalad": 2479,
      "Ġallait": 2480,
      "Ġappeler": 2481,
      "Ġamusant": 2482,
      "Ġbanque": 2483,
      "ĠrÃ©ussir": 2484,
      "Ġguitare": 2485,
      "st": 2486,
      "ufs": 2487,
      "Ġbille": 2488,
      "Ġchanc": 2489,
      "ĠtuÃ©": 2490,
      "Ġextr": 2491,
      "Ġatta": 2492,
      "Ġpleur": 2493,
      "examen": 2494,
      "ĠdÃ©pÃª": 2495,
      "Ġerreurs": 2496,
      "Ġpropres": 2497,
      "ĠdiffÃ©rence": 2498,
      "ignorais": 2499,
      "Ġimpossible": 2500,
      "elez": 2501,
      "ible": 2502,
      "mÃ©e": 2503,
      "Ġpai": 2504,
      "tiÃ©": 2505,
      "Ġdispar": 2506,
      "Ġcru": 2507,
      "ĠtravaillÃ©": 2508,
      "oyable": 2509,
      "Ġsemb": 2510,
      "ĠpassÃ©e": 2511,
      "ences": 2512,
      "Ġcommand": 2513,
      "Ġpleut": 2514,
      "Ġcouleur": 2515,
      "Ġsusp": 2516,
      "ĠbÃ¢timent": 2517,
      "aÃ¯": 2518,
      "gan": 2519,
      "irer": 2520,
      "Ġdoc": 2521,
      "Ġaf": 2522,
      "Ġpren": 2523,
      "Ġparles": 2524,
      "ĠmoitiÃ©": 2525,
      "Ġfruit": 2526,
      "Ġsavons": 2527,
      "ĠmariÃ©": 2528,
      "issez": 2529,
      "Ġsentiment": 2530,
      "Ġopinion": 2531,
      "ah": 2532,
      "orer": 2533,
      "esprit": 2534,
      "Ġcer": 2535,
      "Ã©ter": 2536,
      "chÃ©e": 2537,
      "iennent": 2538,
      "Ġaies": 2539,
      "illage": 2540,
      "Ġretourner": 2541,
      "Ġvivent": 2542,
      "hÃ´tel": 2543,
      "Ġcanad": 2544,
      "Ġresponsable": 2545,
      "Ġconscience": 2546,
      "Ġ30": 2547,
      "Ġenviron": 2548,
      "Ġcir": 2549,
      "quÃ©e": 2550,
      "Ġnav": 2551,
      "isÃ©e": 2552,
      "Ġlev": 2553,
      "Ġchac": 2554,
      "Ġprogr": 2555,
      "Ġem": 2556,
      "Ġvouliez": 2557,
      "Ġcomporte": 2558,
      "ĠbrÃ»": 2559,
      "Ġsouvenir": 2560,
      "mÃ©n": 2561,
      "Ġaccomp": 2562,
      "Ġconnaissez": 2563,
      "Ġvingt": 2564,
      "Ġenseignant": 2565,
      "ĠcÃ©lÃ¨": 2566,
      "Ġciel": 2567,
      "Ġstylo": 2568,
      "ges": 2569,
      "Ġsang": 2570,
      "onge": 2571,
      "Ġpriv": 2572,
      "Ġgauche": 2573,
      "ĠdÃ©v": 2574,
      "Ã¨rement": 2575,
      "ĠinconvÃ©nient": 2576,
      "umeur": 2577,
      "ĠsoirÃ©e": 2578,
      "Ġpein": 2579,
      "Ġconduis": 2580,
      "Ġouver": 2581,
      "Ġcontinuer": 2582,
      "ĠdÃ©range": 2583,
      "Ġcalme": 2584,
      "enseign": 2585,
      "Ġemprunter": 2586,
      "ĠprÃ©sident": 2587,
      "icul": 2588,
      "Ġdents": 2589,
      "Ġsk": 2590,
      "Ġsors": 2591,
      "inqui": 2592,
      "ĠÃ©lÃ¨": 2593,
      "oyons": 2594,
      "ĠfermÃ©": 2595,
      "Ġsemaines": 2596,
      "Ġsoud": 2597,
      "trap": 2598,
      "Ġpromets": 2599,
      "ĠvÃ©cu": 2600,
      "Ġblanc": 2601,
      "Ġmilli": 2602,
      "Ġignor": 2603,
      "Ġmachine": 2604,
      "aitement": 2605,
      "ĠlÃ¢": 2606,
      "Ġnorm": 2607,
      "Ġvent": 2608,
      "Ġmec": 2609,
      "rier": 2610,
      "onna": 2611,
      "dedans": 2612,
      "ĠdÃ©mis": 2613,
      "Ã©rop": 2614,
      "Ġbienv": 2615,
      "Ġviol": 2616,
      "Ġboute": 2617,
      "ĠrÃ©flÃ©chir": 2618,
      "ĠsupposÃ©": 2619,
      "Ġselon": 2620,
      "Ġreconnaissant": 2621,
      "Ġaugment": 2622,
      "Ġhonte": 2623,
      "Ġarbre": 2624,
      "Ġsache": 2625,
      "Ġvisage": 2626,
      "expli": 2627,
      "Ġcopine": 2628,
      "Ġcertainement": 2629,
      "ĠcommenÃ§a": 2630,
      "Ġportes": 2631,
      "pl": 2632,
      "Ġjolie": 2633,
      "Ġnul": 2634,
      "Ġforte": 2635,
      "isse": 2636,
      "usse": 2637,
      "Ġavaient": 2638,
      "Ġali": 2639,
      "Ġcrav": 2640,
      "Ġcrains": 2641,
      "Ġoui": 2642,
      "Ġvieil": 2643,
      "Ġdifficul": 2644,
      "Ġpartout": 2645,
      "Ġdouche": 2646,
      "ĠmariÃ©e": 2647,
      "ĠdÃ©cider": 2648,
      "ĠdÃ©barr": 2649,
      "Ġrisque": 2650,
      "Ã©roport": 2651,
      "dÃ©es": 2652,
      "Ġsoup": 2653,
      "Ġmorte": 2654,
      "Ġbag": 2655,
      "Ġbut": 2656,
      "Ġavions": 2657,
      "Ġdieu": 2658,
      "liquÃ©": 2659,
      "Ġgroupe": 2660,
      "Ġseuls": 2661,
      "Ġlongue": 2662,
      "Ġessayez": 2663,
      "Ġouvrir": 2664,
      "ĠmontrÃ©": 2665,
      "empl": 2666,
      "rob": 2667,
      "Ġus": 2668,
      "Ã©qu": 2669,
      "Ġauriez": 2670,
      "Ġgouver": 2671,
      "Ġreme": 2672,
      "appel": 2673,
      "Ġcommun": 2674,
      "ĠdÃ©tail": 2675,
      "Ġador": 2676,
      "ĠrentrÃ©": 2677,
      "Ġincr": 2678,
      "iendra": 2679,
      "ĠapprÃ©ciÃ©": 2680,
      "Ġhabituellement": 2681,
      "Ġconvaincu": 2682,
      "Ġnettoyer": 2683,
      "Ġrarement": 2684,
      "Ġtranquille": 2685,
      "Ġdocteur": 2686,
      "Ġcravate": 2687,
      "gie": 2688,
      "men": 2689,
      "ps": 2690,
      "Ġcul": 2691,
      "ĠcensÃ©": 2692,
      "arbre": 2693,
      "Ġparole": 2694,
      "asses": 2695,
      "ĠmanquÃ©": 2696,
      "ĠenvoyÃ©": 2697,
      "ĠÅĵil": 2698,
      "Ġneuf": 2699,
      "los": 2700,
      "pÃ¨re": 2701,
      "oux": 2702,
      "enus": 2703,
      "erait": 2704,
      "Ġnew": 2705,
      "Ġenfin": 2706,
      "ick": 2707,
      "Ġcherch": 2708,
      "Ġmerveille": 2709,
      "Ġblague": 2710,
      "Ġsport": 2711,
      "ĠsÃ©jour": 2712,
      "Ġchacun": 2713,
      "hier": 2714,
      "Ġpomme": 2715,
      "Ġlente": 2716,
      "itable": 2717,
      "rib": 2718,
      "apÃ©": 2719,
      "ordin": 2720,
      "Ġpossi": 2721,
      "ulaire": 2722,
      "Ġsemblez": 2723,
      "ĠprÃ©vu": 2724,
      "ĠÃ©chec": 2725,
      "Ġverrou": 2726,
      "lication": 2727,
      "ĠrÃ©veillÃ©": 2728,
      "Ġremercier": 2729,
      "ĠamÃ©ric": 2730,
      "ĠsociÃ©tÃ©": 2731,
      "aÃ©roport": 2732,
      "Ġmeur": 2733,
      "Ġmettez": 2734,
      "Ġappelle": 2735,
      "Ã®mes": 2736,
      "Ġrevenu": 2737,
      "Ġcouteau": 2738,
      "ĠvÃ©rifier": 2739,
      "Ġsilen": 2740,
      "ĠgoÃ»t": 2741,
      "Ġfaveur": 2742,
      "universitÃ©": 2743,
      "ĠcÃ©lÃ¨bre": 2744,
      "ak": 2745,
      "lui": 2746,
      "rerais": 2747,
      "Ġmille": 2748,
      "ĠentiÃ¨re": 2749,
      "extÃ©rieur": 2750,
      "Ġmontagne": 2751,
      "ĠintÃ©ressÃ©": 2752,
      "Ġimportante": 2753,
      "Ġdisput": 2754,
      "ĠhÃ´tel": 2755,
      "iÃ¨me": 2756,
      "oque": 2757,
      "Ġdo": 2758,
      "Ġdort": 2759,
      "Ġbain": 2760,
      "ork": 2761,
      "Ġpourrions": 2762,
      "ave": 2763,
      "onnÃ©e": 2764,
      "iennes": 2765,
      "ĠdÃ©Ã§u": 2766,
      "Ġvoil": 2767,
      "Ġferait": 2768,
      "Ġcompagn": 2769,
      "Ġeut": 2770,
      "rase": 2771,
      "arrÃªt": 2772,
      "Ġmentir": 2773,
      "Ġcuisiner": 2774,
      "Ġactuellement": 2775,
      "oles": 2776,
      "Ġpont": 2777,
      "Ġdent": 2778,
      "Ġly": 2779,
      "ĠlÃ¨ve": 2780,
      "Ġjal": 2781,
      "Ġnu": 2782,
      "Ġquant": 2783,
      "Ġpati": 2784,
      "Ġchin": 2785,
      "ĠgÃ©rer": 2786,
      "Ġquelconque": 2787,
      "olog": 2788,
      "Ġcray": 2789,
      "rÃ©able": 2790,
      "Ġlib": 2791,
      "Ġretr": 2792,
      "Ġfiche": 2793,
      "Ġrefus": 2794,
      "Ġvolont": 2795,
      "ĠobligÃ©": 2796,
      "Ġfallu": 2797,
      "Ġsemblait": 2798,
      "ach": 2799,
      "Ġmienne": 2800,
      "Ġpare": 2801,
      "Ġfrais": 2802,
      "omb": 2803,
      "inter": 2804,
      "amb": 2805,
      "ĠrÃ©ellement": 2806,
      "Ġmanquer": 2807,
      "ĠrÃ©pondu": 2808,
      "Ġphrase": 2809,
      "ĠtombÃ©e": 2810,
      "Ġgagne": 2811,
      "ĠquittÃ©": 2812,
      "Ġchouette": 2813,
      "aies": 2814,
      "Ġavion": 2815,
      "Ãªmes": 2816,
      "asp": 2817,
      "Ġmarch": 2818,
      "cule": 2819,
      "Ġcourses": 2820,
      "Ġrevenir": 2821,
      "Ġadresse": 2822,
      "impression": 2823,
      "Ġobtenu": 2824,
      "Ġlangues": 2825,
      "Ġchoisir": 2826,
      "Ġconseilla": 2827,
      "Ġbattre": 2828,
      "ĠprÃ©parer": 2829,
      "Ġrecommand": 2830,
      "ĠdÃ©missi": 2831,
      "Ġincroyable": 2832,
      "ĠvoilÃł": 2833,
      "atu": 2834,
      "bout": 2835,
      "tÃ©s": 2836,
      "Ġeur": 2837,
      "Ġdest": 2838,
      "Ġloi": 2839,
      "qua": 2840,
      "Ġmord": 2841,
      "Ġdebout": 2842,
      "Ġdisent": 2843,
      "Ġvide": 2844,
      "Ġnote": 2845,
      "Ġpromesse": 2846,
      "import": 2847,
      "ĠrencontrÃ©s": 2848,
      "entretenir": 2849,
      "ĠcinÃ©m": 2850,
      "ĠsÃ©rieusement": 2851,
      "Ġressent": 2852,
      "embr": 2853,
      "Ġpromenade": 2854,
      "Ġlentement": 2855,
      "hn": 2856,
      "na": 2857,
      "off": 2858,
      "Ġpre": 2859,
      "Ġpatient": 2860,
      "Ġfol": 2861,
      "istes": 2862,
      "ination": 2863,
      "Ġsub": 2864,
      "Ġpars": 2865,
      "ĠdÃ©si": 2866,
      "ĠrÃ©c": 2867,
      "Ġesc": 2868,
      "assÃ©e": 2869,
      "arriver": 2870,
      "Ġcelles": 2871,
      "ĠÃ©tudiÃ©": 2872,
      "Ġportait": 2873,
      "Ġterminer": 2874,
      "Ġprudente": 2875,
      "Ġsourire": 2876,
      "Ġmorce": 2877,
      "Ġcuri": 2878,
      "Ġglace": 2879,
      "ĠextrÃªme": 2880,
      "Ġbouteille": 2881,
      "ution": 2882,
      "Ġpain": 2883,
      "Ġtient": 2884,
      "Ġjoindre": 2885,
      "Ġfond": 2886,
      "rig": 2887,
      "Ġrej": 2888,
      "ĠhÃ¢": 2889,
      "ĠprotÃ©": 2890,
      "Ġperme": 2891,
      "Ġadore": 2892,
      "Ġcorps": 2893,
      "ondres": 2894,
      "Ġproduire": 2895,
      "empÃªcher": 2896,
      "ĠespÃ©r": 2897,
      "Ġmoyens": 2898,
      "Ã©couter": 2899,
      "Ġparlons": 2900,
      "ĠpossÃ¨de": 2901,
      "Ġendormi": 2902,
      "ĠcinÃ©ma": 2903,
      "dez": 2904,
      "Ġ5": 2905,
      "Ġutile": 2906,
      "Ġloc": 2907,
      "Ġlondres": 2908,
      "Ġve": 2909,
      "ĠdÃ©mÃ©n": 2910,
      "Ġdipl": 2911,
      "ange": 2912,
      "Ġarme": 2913,
      "atif": 2914,
      "Åĵil": 2915,
      "Ġbouton": 2916,
      "ĠdÃ©pend": 2917,
      "ĠprÃ©vois": 2918,
      "cteur": 2919,
      "Ġmaladie": 2920,
      "Ġafin": 2921,
      "Ġouverte": 2922,
      "Ġgouvernement": 2923,
      "ĠpÃ©n": 2924,
      "Ġtend": 2925,
      "Ġtrem": 2926,
      "Ġsc": 2927,
      "Ġpause": 2928,
      "Ġren": 2929,
      "Ġens": 2930,
      "Ġparis": 2931,
      "ĠidÃ©es": 2932,
      "ectu": 2933,
      "Ġdise": 2934,
      "Ã´tre": 2935,
      "Ġcroy": 2936,
      "Ġconnu": 2937,
      "Ġregarda": 2938,
      "Ġvisiter": 2939,
      "Ġconduit": 2940,
      "ifique": 2941,
      "Ġparfaitement": 2942,
      "ĠprÃªts": 2943,
      "ĠattrapÃ©": 2944,
      "Ġfallait": 2945,
      "apprendre": 2946,
      "gÃ©s": 2947,
      "mon": 2948,
      "obre": 2949,
      "Ġtick": 2950,
      "Ġnez": 2951,
      "avis": 2952,
      "Ġocc": 2953,
      "accep": 2954,
      "Ġseules": 2955,
      "Ġattends": 2956,
      "ayez": 2957,
      "Ġconfecti": 2958,
      "ĠdÃ©pri": 2959,
      "Ġhabite": 2960,
      "ĠmusÃ©e": 2961,
      "Ġannu": 2962,
      "raph": 2963,
      "Ġconvaincre": 2964,
      "Ġennuis": 2965,
      "Ġnerveux": 2966,
      "Ġsympa": 2967,
      "tituteur": 2968,
      "neu": 2969,
      "ĠmÃ©ri": 2970,
      "Ġfai": 2971,
      "entend": 2972,
      "Ġlaver": 2973,
      "els": 2974,
      "ĠdÃ©li": 2975,
      "ĠsiÃ¨": 2976,
      "ĠÃ©m": 2977,
      "Ġvoitures": 2978,
      "ĠarrivÃ©e": 2979,
      "Ġgrands": 2980,
      "Ġmatch": 2981,
      "ĠcanapÃ©": 2982,
      "ĠÅĵufs": 2983,
      "Ġorgan": 2984,
      "Ġravi": 2985,
      "Ġdivor": 2986,
      "ĠprÃ©fÃ©rerais": 2987,
      "cine": 2988,
      "fi": 2989,
      "noc": 2990,
      "oli": 2991,
      "Ġtalent": 2992,
      "erie": 2993,
      "its": 2994,
      "itÃ©e": 2995,
      "Ġvoler": 2996,
      "Ġfrance": 2997,
      "Ġapporte": 2998,
      "Ġheureuses": 2999,
      "Ġmanqu": 3000,
      "Ġpeint": 3001,
      "Ġclaire": 3002,
      "aimait": 3003,
      "Ġ19": 3004,
      "Ġdirai": 3005,
      "Ġsolution": 3006,
      "Ġsauf": 3007,
      "Ġespoir": 3008,
      "Ġattraper": 3009,
      "Ġservice": 3010,
      "ĠdÃ©couvert": 3011,
      "affaire": 3012,
      "Ġjohn": 3013,
      "Ġpossib": 3014,
      "bes": 3015,
      "Ġtot": 3016,
      "Ġnage": 3017,
      "entrer": 3018,
      "Ġpron": 3019,
      "aurai": 3020,
      "Ġquelles": 3021,
      "Ġaimerais": 3022,
      "acle": 3023,
      "atiques": 3024,
      "Ġamb": 3025,
      "Ġseront": 3026,
      "asseoir": 3027,
      "Ġforme": 3028,
      "Ġaimeriez": 3029,
      "oubliez": 3030,
      "ĠprÃ©parÃ©": 3031,
      "Ġcontact": 3032,
      "ĠextrÃªmement": 3033,
      "oo": 3034,
      "romp": 3035,
      "sons": 3036,
      "tal": 3037,
      "Ġpier": 3038,
      "Ġdate": 3039,
      "Ã©ner": 3040,
      "Ġtir": 3041,
      "Ġcouv": 3042,
      "Ġfant": 3043,
      "tir": 3044,
      "ĠdÃ©mar": 3045,
      "Ġsept": 3046,
      "lÃ©g": 3047,
      "ĠrÃ©d": 3048,
      "Ġsavent": 3049,
      "Ã©rique": 3050,
      "Ġmath": 3051,
      "ĠagrÃ©able": 3052,
      "Ġressemb": 3053,
      "Ġfourn": 3054,
      "Ġpolitique": 3055,
      "Ã©tudier": 3056,
      "Ġdomm": 3057,
      "Ġsoyons": 3058,
      "Ġvienne": 3059,
      "Ġtrah": 3060,
      "lerai": 3061,
      "raite": 3062,
      "Ġpleine": 3063,
      "Ġclair": 3064,
      "Ġterrible": 3065,
      "Ġprofon": 3066,
      "Ġaccord": 3067,
      "ĠblessÃ©e": 3068,
      "ĠrefusÃ©": 3069,
      "ĠdÃ©brou": 3070,
      "Ġcapit": 3071,
      "Ġattendez": 3072,
      "Ġprintemps": 3073,
      "Ġtrucs": 3074,
      "Ġregrette": 3075,
      "quisition": 3076,
      "dis": 3077,
      "oti": 3078,
      "ĠpÃªcher": 3079,
      "ĠfiÃ¨re": 3080,
      "Ġru": 3081,
      "Ġplac": 3082,
      "ath": 3083,
      "Ġinnoc": 3084,
      "Ġpensait": 3085,
      "ĠfrÃ¨res": 3086,
      "moire": 3087,
      "essaie": 3088,
      "abilitÃ©": 3089,
      "Ã©rir": 3090,
      "Ġallum": 3091,
      "Ġconst": 3092,
      "Ġinstant": 3093,
      "Ġsold": 3094,
      "ĠÃ©couter": 3095,
      "Ġchoisi": 3096,
      "occuper": 3097,
      "Ġvalise": 3098,
      "ĠmÃ©dicament": 3099,
      "Ġpaix": 3100,
      "Ġsilencieux": 3101,
      "Ã©quipe": 3102,
      "Ġvillage": 3103,
      "Ġfaux": 3104,
      "itation": 3105,
      "Ġenc": 3106,
      "Ġhau": 3107,
      "ĠÃ©ve": 3108,
      "ope": 3109,
      "Ġsembles": 3110,
      "Ġfaisais": 3111,
      "ĠoccupÃ©s": 3112,
      "Ġnouveaux": 3113,
      "ĠsÃ»rs": 3114,
      "Ġexcel": 3115,
      "Ġplaisant": 3116,
      "Ġabsent": 3117,
      "Ġabsolu": 3118,
      "ĠautorisÃ©": 3119,
      "Ġdescend": 3120,
      "Ġrecherche": 3121,
      "ĠlÃ©gu": 3122,
      "Ġnaturel": 3123,
      "Ġfruits": 3124,
      "expliquer": 3125,
      "dra": 3126,
      "ime": 3127,
      "zz": 3128,
      "Ġira": 3129,
      "ĠlÃ©g": 3130,
      "Ġmam": 3131,
      "ern": 3132,
      "omas": 3133,
      "Ġbis": 3134,
      "Ġbaiss": 3135,
      "itiÃ©": 3136,
      "ĠprÃªtes": 3137,
      "orme": 3138,
      "Ġmet": 3139,
      "Ġhuit": 3140,
      "Ġoct": 3141,
      "ĠÃ©l": 3142,
      "Ã©ra": 3143,
      "Ġserons": 3144,
      "Ġpersu": 3145,
      "Ġperte": 3146,
      "Ġpermettre": 3147,
      "Ġprisonn": 3148,
      "Ġconsac": 3149,
      "occ": 3150,
      "Ġthomas": 3151,
      "Ġconnaissance": 3152,
      "ĠgÃ©ni": 3153,
      "ĠhabituÃ©": 3154,
      "ingue": 3155,
      "Ġchocol": 3156,
      "Ġattentiv": 3157,
      "ĠÃ©lÃ¨ves": 3158,
      "Ġensuite": 3159,
      "lise": 3160,
      "port": 3161,
      "Ġlou": 3162,
      "Ġlour": 3163,
      "Ġtenez": 3164,
      "Ġpours": 3165,
      "tiÃ¨re": 3166,
      "cid": 3167,
      "allais": 3168,
      "ĠcongÃ©": 3169,
      "Ġexam": 3170,
      "Ġlim": 3171,
      "Ġcommis": 3172,
      "ĠdÃ©cÃ©": 3173,
      "Ġchef": 3174,
      "ĠforcÃ©": 3175,
      "Ġsoucie": 3176,
      "Ġdroite": 3177,
      "Ġballe": 3178,
      "ĠprÃ©fÃ©rÃ©e": 3179,
      "cevoir": 3180,
      "Ġfootball": 3181,
      "Ġnulle": 3182,
      "Ġcompagnie": 3183,
      "Ġcrayon": 3184,
      "ĠprotÃ©ger": 3185,
      "Ġoctobre": 3186,
      "cte": 3187,
      "feu": 3188,
      "lin": 3189,
      "mbre": 3190,
      "Ġtap": 3191,
      "Ġcens": 3192,
      "Ġvus": 3193,
      "Ġromp": 3194,
      "Ġeng": 3195,
      "Ġremettre": 3196,
      "Ġdiri": 3197,
      "ĠÃ©ner": 3198,
      "Ġgrandes": 3199,
      "Ġcloche": 3200,
      "Ġsortez": 3201,
      "Ġappartement": 3202,
      "Ġcrime": 3203,
      "enfant": 3204,
      "Ġmensonge": 3205,
      "Ġlarmes": 3206,
      "ĠlycÃ©e": 3207,
      "Ġabsolument": 3208,
      "heur": 3209,
      "Ġput": 3210,
      "Ġmai": 3211,
      "lex": 3212,
      "Ġpratique": 3213,
      "rie": 3214,
      "Ġdevraient": 3215,
      "Ġeh": 3216,
      "Ġyork": 3217,
      "Ġjambe": 3218,
      "ĠapportÃ©": 3219,
      "oto": 3220,
      "oph": 3221,
      "Ġligne": 3222,
      "Ġimporte": 3223,
      "ĠsÃ»res": 3224,
      "ĠdÃ©ter": 3225,
      "Ġcoupable": 3226,
      "Ġsortie": 3227,
      "Ġadv": 3228,
      "Ġimm": 3229,
      "Ġmorts": 3230,
      "Ġvoisins": 3231,
      "Ġeffort": 3232,
      "Ġtraverser": 3233,
      "ĠfrappÃ©": 3234,
      "Ġaccepter": 3235,
      "Ġpermission": 3236,
      "ĠremarquÃ©": 3237,
      "Ġimpatient": 3238,
      "ĠsuggÃ¨re": 3239,
      "Ġcorrectement": 3240,
      "excuser": 3241,
      "Ġgrimp": 3242,
      "Ġbillet": 3243,
      "ĠhÃ¢te": 3244,
      "Ġpis": 3245,
      "one": 3246,
      "Ġfasses": 3247,
      "Ġbour": 3248,
      "Ġchine": 3249,
      "Ġaura": 3250,
      "Ġhas": 3251,
      "Ġfaits": 3252,
      "Ġdure": 3253,
      "Ġaiment": 3254,
      "lÃ©ment": 3255,
      "ĠÃ©n": 3256,
      "ative": 3257,
      "Ã©ration": 3258,
      "Ġsaou": 3259,
      "Ġcroit": 3260,
      "Ġessaya": 3261,
      "ĠintÃ©ressante": 3262,
      "Ġcorde": 3263,
      "Ġconvers": 3264,
      "isÃ©ment": 3265,
      "Ġsigne": 3266,
      "expÃ©rience": 3267,
      "envers": 3268,
      "Ġexpliquer": 3269,
      "Ġrempl": 3270,
      "urgence": 3271,
      "ĠprÃ©cisÃ©ment": 3272,
      "ĠspÃ©cial": 3273,
      "inform": 3274,
      "idÃ©e": 3275,
      "Ġdom": 3276,
      "aimes": 3277,
      "Ġloup": 3278,
      "Ġlune": 3279,
      "Ġtenu": 3280,
      "Ġlett": 3281,
      "Ġbuv": 3282,
      "inv": 3283,
      "tume": 3284,
      "ĠdÃ©rou": 3285,
      "amis": 3286,
      "Ġdevait": 3287,
      "Ġart": 3288,
      "Ã»mes": 3289,
      "terre": 3290,
      "Ġcroyez": 3291,
      "Ġpassez": 3292,
      "Ġassur": 3293,
      "ĠjouÃ©": 3294,
      "Ġcomprenez": 3295,
      "Ġmagn": 3296,
      "Ġcuisin": 3297,
      "Ġvenus": 3298,
      "ĠamusÃ©": 3299,
      "Ġaille": 3300,
      "ĠgÃ©nÃ©ralement": 3301,
      "Ġraconter": 3302,
      "lemand": 3303,
      "Ġprogram": 3304,
      "Ġbagages": 3305,
      "Ġchinois": 3306,
      "ĠlÃ©gumes": 3307,
      "occasion": 3308,
      "eff": 3309,
      "mÃ¨re": 3310,
      "vÃ©e": 3311,
      "ycle": 3312,
      "ĠpÃ¢": 3313,
      "essi": 3314,
      "Ã©te": 3315,
      "quet": 3316,
      "ĠmÃ©r": 3317,
      "isÃ©s": 3318,
      "Ã¨vre": 3319,
      "ĠprÃ©t": 3320,
      "amÃ©rique": 3321,
      "ateurs": 3322,
      "Ġprov": 3323,
      "lions": 3324,
      "Ġarbres": 3325,
      "ĠmaÃ®": 3326,
      "Ġtrouvait": 3327,
      "Ġnouvel": 3328,
      "ĠrÃ©par": 3329,
      "Ġretraite": 3330,
      "Ġcesse": 3331,
      "ĠmÃ©moire": 3332,
      "Ġriz": 3333,
      "Ġcolle": 3334,
      "Ġrefuse": 3335,
      "Ġchaude": 3336,
      "Ġ10": 3337,
      "Ġsentiments": 3338,
      "Ġchansons": 3339,
      "Ġky": 3340,
      "Ġsoient": 3341,
      "ĠacceptÃ©": 3342,
      "Ġparticulier": 3343,
      "Ġmorceau": 3344,
      "Ġhasard": 3345,
      "Ġlettres": 3346,
      "australie": 3347,
      "iment": 3348,
      "Ġmise": 3349,
      "ĠlevÃ©": 3350,
      "Ġrentre": 3351,
      "ingu": 3352,
      "elopp": 3353,
      "Ġtrac": 3354,
      "tur": 3355,
      "endie": 3356,
      "Ġopp": 3357,
      "Ġtravaill": 3358,
      "Ġmangez": 3359,
      "ĠposÃ©": 3360,
      "Ġchaleur": 3361,
      "Ġcouper": 3362,
      "accomp": 3363,
      "Ġjaponaise": 3364,
      "Ġeffectu": 3365,
      "Ġtourne": 3366,
      "ĠinvitÃ©s": 3367,
      "ctri": 3368,
      "ĠÃ©chouÃ©": 3369,
      "Ġprendra": 3370,
      "ĠÃ©tudie": 3371,
      "ĠcoÃ»t": 3372,
      "ĠÃ©clat": 3373,
      "Ġdisparu": 3374,
      "Ġcircu": 3375,
      "ĠentiÃ¨rement": 3376,
      "ĠdiplÃ´": 3377,
      "Ġchocolat": 3378,
      "Ġur": 3379,
      "Ġpaire": 3380,
      "Ġmir": 3381,
      "Ġjeter": 3382,
      "Ġlave": 3383,
      "Ġsuici": 3384,
      "Ġavance": 3385,
      "Ġpla": 3386,
      "Ġgasp": 3387,
      "Ġidio": 3388,
      "Ġore": 3389,
      "Ġmarrant": 3390,
      "Ġsombre": 3391,
      "Ġpizz": 3392,
      "issent": 3393,
      "Ġobtenir": 3394,
      "Ġsalaire": 3395,
      "ĠcontrÃ´le": 3396,
      "ĠÃ©chapp": 3397,
      "ĠthÃ©or": 3398,
      "ĠrÃªves": 3399,
      "ĠÃ©coutÃ©": 3400,
      "Ġdistance": 3401,
      "Ġprincip": 3402,
      "Ġplaindre": 3403,
      "ĠdÃ©termin": 3404,
      "lÃ©e": 3405,
      "uer": 3406,
      "Ġos": 3407,
      "Ġpun": 3408,
      "ilitÃ©s": 3409,
      "Ġfum": 3410,
      "Ġflic": 3411,
      "isation": 3412,
      "aurait": 3413,
      "rimer": 3414,
      "acquisition": 3415,
      "Ġcombat": 3416,
      "Ġportefeu": 3417,
      "ctions": 3418,
      "entreprise": 3419,
      "Ġgrossi": 3420,
      "Ġforce": 3421,
      "Ġincap": 3422,
      "Ġdirais": 3423,
      "iendrai": 3424,
      "Ġoffre": 3425,
      "Ġdoivent": 3426,
      "Ġchanceux": 3427,
      "ĠprivÃ©": 3428,
      "Ġportefeuille": 3429,
      ".\"": 3430,
      "ude": 3431,
      "Ġtre": 3432,
      "Ġcos": 3433,
      "Ġcand": 3434,
      "Ġach": 3435,
      "ĠvÃ´tre": 3436,
      "erci": 3437,
      "itions": 3438,
      "Ġchi": 3439,
      "tiez": 3440,
      "chons": 3441,
      "chant": 3442,
      "Ġcommer": 3443,
      "ĠÃ©tat": 3444,
      "aint": 3445,
      "ĠdÃ©Ã§": 3446,
      "lig": 3447,
      "raign": 3448,
      "Ġvraie": 3449,
      "Ġamen": 3450,
      "Ġexamen": 3451,
      "ĠentrÃ©": 3452,
      "aband": 3453,
      "Ġdemandez": 3454,
      "ĠdÃ©tr": 3455,
      "ĠsupplÃ©ment": 3456,
      "Ġvoyons": 3457,
      "ĠmatinÃ©e": 3458,
      "ĠmariÃ©s": 3459,
      "ĠvÃ©ritable": 3460,
      "Ġentreprise": 3461,
      "Ġobj": 3462,
      "Ġfoule": 3463,
      "ĠÃ©coute": 3464,
      "ĠrÃ¨gle": 3465,
      "Ġsauver": 3466,
      "Ġinquiet": 3467,
      "Ã©chapp": 3468,
      "ĠrÃ©sultat": 3469,
      "ĠrÃ©sultats": 3470,
      "Ġmalheureuse": 3471,
      "Ġpeinture": 3472,
      "Ġmaman": 3473,
      "Ġcandid": 3474,
      "grÃ©": 3475,
      "ize": 3476,
      "ser": 3477,
      "ĠtirÃ©": 3478,
      "Ġcous": 3479,
      "Ġsoupe": 3480,
      "Ã¨tres": 3481,
      "ĠparaÃ®t": 3482,
      "Ġgol": 3483,
      "ection": 3484,
      "Ġvoleur": 3485,
      "Ġsame": 3486,
      "Ġvaleur": 3487,
      "ĠÃ©conom": 3488,
      "icycle": 3489,
      "tru": 3490,
      "Ġmauvaises": 3491,
      "Ġcartes": 3492,
      "Ġportable": 3493,
      "ĠintÃ©ressÃ©e": 3494,
      "ĠsÅĵurs": 3495,
      "Ġfix": 3496,
      "habitu": 3497,
      "Ġvitesse": 3498,
      "Ġpapa": 3499,
      "Ã©pous": 3500,
      "Ġailles": 3501,
      "Ġ20": 3502,
      "ĠcommandÃ©": 3503,
      "traper": 3504,
      "Ġdommage": 3505,
      "Ġbiscu": 3506,
      "ĠpÃ©t": 3507,
      "reur": 3508,
      "leterre": 3509,
      "Ġbicycle": 3510,
      "intÃ©": 3511,
      "Ġenne": 3512,
      "Ġparlent": 3513,
      "cieuse": 3514,
      "ouvrir": 3515,
      "ĠdÃ©m": 3516,
      "ĠdÃ©jeun": 3517,
      "Ġdevais": 3518,
      "ĠÃ©puis": 3519,
      "prouv": 3520,
      "Ġpensent": 3521,
      "ĠvidÃ©": 3522,
      "ĠÃ©cout": 3523,
      "Ġmatins": 3524,
      "Ġrendit": 3525,
      "ĠexpÃ©rience": 3526,
      "Ġdiscussi": 3527,
      "Ġmenteur": 3528,
      "Ġchauff": 3529,
      "Ġmagaz": 3530,
      "Ġcontrari": 3531,
      "Ġembarr": 3532,
      "Ġamoureuse": 3533,
      "Ġconstruit": 3534,
      "ĠmÃ©rite": 3535,
      "Ġconversation": 3536,
      "Ġbicyclette": 3537,
      "ulation": 3538,
      "Ġten": 3539,
      "ĠnÃ©e": 3540,
      "Ġveste": 3541,
      "ĠfÃ¢": 3542,
      "eug": 3543,
      "onnaie": 3544,
      "Ġhur": 3545,
      "oires": 3546,
      "ĠdÃ©part": 3547,
      "Ã©rature": 3548,
      "Ġgratu": 3549,
      "Ġsert": 3550,
      "Ġdirection": 3551,
      "ĠentraÃ®": 3552,
      "aisselle": 3553,
      "Ġanci": 3554,
      "ĠprÃ©cip": 3555,
      "Ġcontin": 3556,
      "Ġdonnerai": 3557,
      "Ġpartis": 3558,
      "Ġpasseport": 3559,
      "Ġvoisin": 3560,
      "Ġmeilleurs": 3561,
      "Ġconnaissait": 3562,
      "Ġsuivi": 3563,
      "ĠdifficultÃ©s": 3564,
      "ĠpÃ©nÃ©t": 3565,
      "Ġoccasion": 3566,
      "Ã©nergie": 3567,
      "Ġattentivement": 3568,
      "Ġpoursui": 3569,
      "ĠthÃ©orie": 3570,
      "Ġgolf": 3571,
      "ader": 3572,
      "uie": 3573,
      "yp": 3574,
      "ĠtÃ¢": 3575,
      "ita": 3576,
      "indi": 3577,
      "Ġprise": 3578,
      "endroit": 3579,
      "tif": 3580,
      "Ġmett": 3581,
      "Ġcacher": 3582,
      "Ġpuiss": 3583,
      "assurer": 3584,
      "Ġbouche": 3585,
      "Ãªtres": 3586,
      "Ġenvers": 3587,
      "ĠdÃ©clar": 3588,
      "Ġmontrez": 3589,
      "Ġexplication": 3590,
      "issait": 3591,
      "ĠcontrÃ´": 3592,
      "Ġ14": 3593,
      "ĠtentÃ©": 3594,
      "ĠratÃ©": 3595,
      "Ġremerci": 3596,
      "ĠdiffÃ©rentes": 3597,
      "Ã©tudie": 3598,
      "anniversaire": 3599,
      "Ġcampagne": 3600,
      "imagine": 3601,
      "Ġassey": 3602,
      "ĠdÃ©barrasser": 3603,
      "importance": 3604,
      "Ġpiscine": 3605,
      "sÃ©": 3606,
      "Ġtar": 3607,
      "Ġcancer": 3608,
      "Ġunique": 3609,
      "ourv": 3610,
      "usez": 3611,
      "Ġaveug": 3612,
      "Ġauras": 3613,
      "irm": 3614,
      "andis": 3615,
      "ĠrÃ©vÃ©": 3616,
      "Ġeau": 3617,
      "ĠamÃ©li": 3618,
      "Ġcompos": 3619,
      "Ġveuilles": 3620,
      "Ġsoul": 3621,
      "ĠoccupÃ©es": 3622,
      "Ġreviens": 3623,
      "ĠdÃ©pourv": 3624,
      "Ġaccro": 3625,
      "Ġretourne": 3626,
      "Ġrefaire": 3627,
      "habite": 3628,
      "Ġfilms": 3629,
      "Ġgentille": 3630,
      "ĠsÃ©par": 3631,
      "ĠÃ©levÃ©": 3632,
      "Ġtimide": 3633,
      "ĠÃ©pouse": 3634,
      "Ġzoo": 3635,
      "Ġbleu": 3636,
      "Ġscient": 3637,
      "Ġoiseaux": 3638,
      "Ġprenons": 3639,
      "embrasser": 3640,
      "ĠespÃ©rons": 3641,
      "ĠsiÃ¨ge": 3642,
      "Ġpierre": 3643,
      "Ġkyoto": 3644,
      "ercice": 3645,
      "Ġsamedi": 3646,
      "hum": 3647,
      "ieu": 3648,
      "ident": 3649,
      "ok": 3650,
      "ode": 3651,
      "pes": 3652,
      "uÃ©": 3653,
      "Ġpot": 3654,
      "Ġdro": 3655,
      "Ġtandis": 3656,
      "Ġvint": 3657,
      "Ġfis": 3658,
      "auc": 3659,
      "Ġtoucher": 3660,
      "ĠhÃ©r": 3661,
      "anger": 3662,
      "Ġdevint": 3663,
      "ack": 3664,
      "Ã¢ge": 3665,
      "Ġderniers": 3666,
      "Ġgrandi": 3667,
      "Ġprofond": 3668,
      "Ġfume": 3669,
      "ception": 3670,
      "Ġdisposez": 3671,
      "Ġdisposons": 3672,
      "Ġarrivera": 3673,
      "Ġassister": 3674,
      "Ġkil": 3675,
      "Ġpousser": 3676,
      "ĠÃ©checs": 3677,
      "Ġescal": 3678,
      "information": 3679,
      "Ġcirculation": 3680,
      "Ã©ment": 3681,
      "ĠlÃ¨": 3682,
      "Ġtor": 3683,
      "Ġtien": 3684,
      "Ġtire": 3685,
      "Ġtirer": 3686,
      "ilier": 3687,
      "Ã©tudi": 3688,
      "Ġtrou": 3689,
      "Ġparie": 3690,
      "avenir": 3691,
      "onter": 3692,
      "Ġaurez": 3693,
      "Ġprodu": 3694,
      "Ġalliez": 3695,
      "Ġgrave": 3696,
      "Ġsaviez": 3697,
      "oya": 3698,
      "ĠprÃ©occup": 3699,
      "Ġconnaisse": 3700,
      "Ġbros": 3701,
      "Ġenvis": 3702,
      "Ġsentez": 3703,
      "Ġtombe": 3704,
      "ĠpiÃ¨ces": 3705,
      "ĠrÃ©ser": 3706,
      "Ġrespect": 3707,
      "Ġtourner": 3708,
      "oncer": 3709,
      "Ġprendrai": 3710,
      "Ã©glise": 3711,
      "Ġsortit": 3712,
      "Ġhorrible": 3713,
      "Ġennuyeux": 3714,
      "Ġskier": 3715,
      "Ġretrouv": 3716,
      "Ġticket": 3717,
      "Ġidiote": 3718,
      "gue": 3719,
      "ieur": 3720,
      "lus": 3721,
      "aimer": 3722,
      "esc": 3723,
      "Ã©d": 3724,
      "Ġcle": 3725,
      "Ġcig": 3726,
      "quette": 3727,
      "Ġajou": 3728,
      "Ġjeux": 3729,
      "Ġroi": 3730,
      "itÃ´t": 3731,
      "astique": 3732,
      "esses": 3733,
      "Ġveuille": 3734,
      "Ġgars": 3735,
      "Ġappro": 3736,
      "Ġpoche": 3737,
      "ĠallÃ©es": 3738,
      "Ġmonter": 3739,
      "ĠÃ¢gÃ©": 3740,
      "ennent": 3741,
      "ĠdiffÃ©rente": 3742,
      "Ġboisson": 3743,
      "Ġrepro": 3744,
      "Ġsurviv": 3745,
      "Ġmilieu": 3746,
      "ĠembrassÃ©": 3747,
      "Ġfassiez": 3748,
      "Ġmecs": 3749,
      "ĠdÃ©tails": 3750,
      "Ġdisputer": 3751,
      "Ġpreuve": 3752,
      "Ġfolle": 3753,
      "Ġtremble": 3754,
      "Ġsoldats": 3755,
      "Ġincapable": 3756,
      "Ġdiscussion": 3757,
      "Ġcontinue": 3758,
      "cation": 3759,
      "hor": 3760,
      "hiver": 3761,
      "ia": 3762,
      "xim": 3763,
      "Ġpaie": 3764,
      "Ġdingue": 3765,
      "Ã©le": 3766,
      "Ġtienne": 3767,
      "Ġsand": 3768,
      "quÃ©rir": 3769,
      "enti": 3770,
      "entrÃ©e": 3771,
      "istre": 3772,
      "Ġboit": 3773,
      "Ġram": 3774,
      "Ġrumeur": 3775,
      "Ã¨le": 3776,
      "inÃ©e": 3777,
      "ĠÃ©to": 3778,
      "Ġdevenue": 3779,
      "sique": 3780,
      "Ġinti": 3781,
      "Ġcondu": 3782,
      "ĠsongÃ©": 3783,
      "Ġmaj": 3784,
      "Ġmaisons": 3785,
      "cool": 3786,
      "Ã©rÃªt": 3787,
      "ĠfrÃ©qu": 3788,
      "ĠcompÃ©t": 3789,
      "ĠarrivÃ©s": 3790,
      "Ġcouru": 3791,
      "Ġvues": 3792,
      "adresse": 3793,
      "Ġpique": 3794,
      "Ġpeindre": 3795,
      "ĠaccusÃ©": 3796,
      "Ġblesser": 3797,
      "ĠdÃ©cida": 3798,
      "ennes": 3799,
      "Ġvivant": 3800,
      "Ġtoil": 3801,
      "ĠrÃ©alitÃ©": 3802,
      "ĠimaginÃ©": 3803,
      "ĠabandonnÃ©": 3804,
      "ĠimpressionnÃ©": 3805,
      "Ġbaseball": 3806,
      "Ġoiseau": 3807,
      "Ġnavire": 3808,
      "inquiÃ¨te": 3809,
      "Ġmerveilleux": 3810,
      "Ġfaible": 3811,
      "Ġclairement": 3812,
      "Ġurgent": 3813,
      "Ġcostume": 3814,
      "Ã©pouser": 3815,
      "ame": 3816,
      "bat": 3817,
      "gÃ©es": 3818,
      "idÃ©": 3819,
      "Ġpose": 3820,
      "Ġponc": 3821,
      "Ġcentre": 3822,
      "ĠnaÃ¯": 3823,
      "Ġvert": 3824,
      "ouse": 3825,
      "illa": 3826,
      "Ġfail": 3827,
      "arme": 3828,
      "Ġparess": 3829,
      "ĠÃ©tas": 3830,
      "allez": 3831,
      "Ġdevient": 3832,
      "Ġalla": 3833,
      "Ġmarre": 3834,
      "libat": 3835,
      "Ġsaches": 3836,
      "appar": 3837,
      "Ġexi": 3838,
      "abord": 3839,
      "Ġmanges": 3840,
      "ĠcausÃ©": 3841,
      "Ġnotes": 3842,
      "Ġcourse": 3843,
      "ĠdÃ©sesp": 3844,
      "Ġsoule": 3845,
      "Ġmidi": 3846,
      "Ġsupporte": 3847,
      "ock": 3848,
      "ĠdÃ©pens": 3849,
      "icien": 3850,
      "Ġconvient": 3851,
      "Ġpolicier": 3852,
      "Ġfeuilles": 3853,
      "ĠfenÃªtres": 3854,
      "ĠcoÃ»ter": 3855,
      "Ġfaudra": 3856,
      "ĠrÃ©veiller": 3857,
      "enfants": 3858,
      "ĠcÃ©libat": 3859,
      "ĠobligÃ©e": 3860,
      "Ġvendredi": 3861,
      "Ġmignonne": 3862,
      "Ġpopulation": 3863,
      "Ġsoudain": 3864,
      "ĠlÃ¢che": 3865,
      "accepter": 3866,
      "ĠÃ©veillÃ©": 3867,
      "ĠÃ©loign": 3868,
      "Ġpizza": 3869,
      "intÃ©resse": 3870,
      "Ġponctu": 3871,
      "ĠÃ©tasun": 3872,
      "hi": 3873,
      "nique": 3874,
      "tin": 3875,
      "ĠpÃª": 3876,
      "Ġtest": 3877,
      "Ġcit": 3878,
      "Ġviennent": 3879,
      "Ġfle": 3880,
      "Ġ?\"": 3881,
      "amuser": 3882,
      "Ġyens": 3883,
      "action": 3884,
      "Ġind": 3885,
      "uise": 3886,
      "Ġdisait": 3887,
      "Ġdemi": 3888,
      "Ġsale": 3889,
      "Ġexemp": 3890,
      "ĠimpliquÃ©": 3891,
      "Ġcourage": 3892,
      "Ġbrill": 3893,
      "ĠdÃ©pla": 3894,
      "Ġcoll": 3895,
      "Ġouvre": 3896,
      "ĠrÃ©solu": 3897,
      "Ġexcusez": 3898,
      "ĠprÃ©sente": 3899,
      "Ġstation": 3900,
      "Ġspect": 3901,
      "ĠcontinuÃ©": 3902,
      "Ġappartient": 3903,
      "Ġfonctionner": 3904,
      "Ġfermez": 3905,
      "ĠfermÃ©e": 3906,
      "Ġdoigt": 3907,
      "Ġsilence": 3908,
      "Ġabandonner": 3909,
      "Ġatteint": 3910,
      "ĠpleurÃ©": 3911,
      "Ġemmen": 3912,
      "Ġmeurtre": 3913,
      "Ġdocu": 3914,
      "olesc": 3915,
      "ĠconfectionnÃ©": 3916,
      "Ġcigare": 3917,
      "mÃªmes": 3918,
      "Ġpneu": 3919,
      "enant": 3920,
      "Ġtoit": 3921,
      "Ġtenait": 3922,
      "quez": 3923,
      "Ġvir": 3924,
      "Ġvoit": 3925,
      "ister": 3926,
      "Ġbelles": 3927,
      "Ġbatt": 3928,
      "intÃ©ress": 3929,
      "inze": 3930,
      "Ġaver": 3931,
      "Ġavis": 3932,
      "tiques": 3933,
      "cemment": 3934,
      "Ġrela": 3935,
      "Ġhiver": 3936,
      "Ġarti": 3937,
      "Ġamic": 3938,
      "Ġjambes": 3939,
      "Ġappelez": 3940,
      "ĠrestÃ©e": 3941,
      "Ġvoulaient": 3942,
      "Ġbonheur": 3943,
      "ĠcachÃ©": 3944,
      "Ġlaissa": 3945,
      "Ġsentis": 3946,
      "Ġpetits": 3947,
      "ĠrÃ©pond": 3948,
      "Ġpromet": 3949,
      "istance": 3950,
      "Ġhabit": 3951,
      "ĠrencontrÃ©e": 3952,
      "ĠobÃ©": 3953,
      "Ġcontrar": 3954,
      "ides": 3955,
      "ĠÃ©pau": 3956,
      "Ġdispon": 3957,
      "Ġreconnu": 3958,
      "Ġgentilles": 3959,
      "essaye": 3960,
      "Ġsommet": 3961,
      "Ġretirer": 3962,
      "Ġjuge": 3963,
      "Ġcamion": 3964,
      "Ġtraiter": 3965,
      "Ġinformations": 3966,
      "ordinaire": 3967,
      "ĠgÃ©nial": 3968,
      "Ġbiscuits": 3969,
      "ich": 3970,
      "Ġauss": 3971,
      "Ġquoti": 3972,
      "eus": 3973,
      "ĠreÃ§": 3974,
      "Ġremis": 3975,
      "Ġcompar": 3976,
      "assit": 3977,
      "ĠrÃ©pÃ©ter": 3978,
      "Ġmanu": 3979,
      "ĠbrisÃ©": 3980,
      "dÃ©ment": 3981,
      "Ġfortune": 3982,
      "ĠrÃ©serv": 3983,
      "Ġinstru": 3984,
      "ĠÃ©tranger": 3985,
      "Ġneiger": 3986,
      "Ġsoif": 3987,
      "Ġintern": 3988,
      "Ġprojets": 3989,
      "Ġimaginer": 3990,
      "Ġregret": 3991,
      "ĠcrÃ©dit": 3992,
      "Ġatti": 3993,
      "Ġsecr": 3994,
      "Ġcercle": 3995,
      "Ġdentiste": 3996,
      "ĠdÃ©missionner": 3997,
      "Ġcouvert": 3998,
      "ĠprofondÃ©ment": 3999,
      "Ġprogramme": 4000,
      "ĠvidÃ©o": 4001,
      "Ġsandw": 4002,
      "ĠaussitÃ´t": 4003,
      "Ġquotid": 4004,
      "hÃ©": 4005,
      "nez": 4006,
      "ru": 4007,
      "tÃ©e": 4008,
      "Ġpoup": 4009,
      "Ġache": 4010,
      "Ġnation": 4011,
      "Ġmons": 4012,
      "isez": 4013,
      "Ã¨se": 4014,
      "orÃ©": 4015,
      "ĠchÃ¨re": 4016,
      "onses": 4017,
      "tiv": 4018,
      "chÃ©s": 4019,
      "rim": 4020,
      "onnel": 4021,
      "Ġgl": 4022,
      "Ġtouche": 4023,
      "alcool": 4024,
      "Ġproc": 4025,
      "ĠrÃ©cemment": 4026,
      "acitÃ©": 4027,
      "Ġdises": 4028,
      "Ġappuy": 4029,
      "appro": 4030,
      "Ġvoie": 4031,
      "Ġassise": 4032,
      "Ġcouramment": 4033,
      "ĠrÃ©ponses": 4034,
      "Ġchangement": 4035,
      "ĠfatiguÃ©s": 4036,
      "Ġcorri": 4037,
      "Ġcontrat": 4038,
      "Ġparvenu": 4039,
      "Ġsauter": 4040,
      "Ġconvainc": 4041,
      "Ġsyst": 4042,
      "Ġsurvenu": 4043,
      "ĠcommenÃ§ons": 4044,
      "ĠexpliquÃ©": 4045,
      "ĠrÃ©gime": 4046,
      "ĠamÃ©rique": 4047,
      "Ġpersonnel": 4048,
      "Ġmignon": 4049,
      "ĠeffrayÃ©": 4050,
      "Ġparticuli": 4051,
      "Ġcomportement": 4052,
      "Ġmaig": 4053,
      "Ġefforts": 4054,
      "Ġsaoul": 4055,
      "Ġmagnifique": 4056,
      "indiquer": 4057,
      "honn": 4058,
      "rage": 4059,
      "ensible": 4060,
      "Ġcaisse": 4061,
      "Ġcouver": 4062,
      "ĠcassÃ©e": 4063,
      "Ġsinc": 4064,
      "quÃ©s": 4065,
      "entraÃ®": 4066,
      "Ġras": 4067,
      "Ġprouver": 4068,
      "endorm": 4069,
      "Ġrejet": 4070,
      "ĠdÃ©ch": 4071,
      "agÃ¨re": 4072,
      "Ġmondi": 4073,
      "Ġsurve": 4074,
      "Ġinutile": 4075,
      "ffre": 4076,
      "Ã¢tre": 4077,
      "ication": 4078,
      "espÃ©": 4079,
      "adme": 4080,
      "Ġjoues": 4081,
      "Ġbouger": 4082,
      "ĠdÃ©tendre": 4083,
      "Ġchamp": 4084,
      "exercice": 4085,
      "Ġcoupe": 4086,
      "ĠcoupÃ©": 4087,
      "Ġrappelez": 4088,
      "arrÃªte": 4089,
      "issons": 4090,
      "Ġdisposer": 4091,
      "Ġgardez": 4092,
      "ĠguÃ¨re": 4093,
      "ĠtraversÃ©": 4094,
      "Ġpoissons": 4095,
      "000": 4096,
      "Ġsupermar": 4097,
      "Ġcessez": 4098,
      "ĠgÃ©nÃ©ral": 4099,
      "Ġsemblant": 4100,
      "Ġimpressionn": 4101,
      "Ġnormal": 4102,
      "Ġjaloux": 4103,
      "Ġrefusa": 4104,
      "Ġpareille": 4105,
      "ĠpossibilitÃ©": 4106,
      "ĠdÃ©marrer": 4107,
      "ĠmathÃ©m": 4108,
      "Ġdirige": 4109,
      "Ġartiste": 4110,
      "Ġobjecti": 4111,
      "Ġtoilettes": 4112,
      "Ġfailli": 4113,
      "ĠsystÃ¨me": 4114,
      "gez": 4115,
      "ieux": 4116,
      "jus": 4117,
      "obli": 4118,
      "ub": 4119,
      "Ġnat": 4120,
      "Ġmy": 4121,
      "Ġpage": 4122,
      "anci": 4123,
      "Ġtraite": 4124,
      "Ġplans": 4125,
      "rique": 4126,
      "Ġgarer": 4127,
      "Ġivre": 4128,
      "lÃ©s": 4129,
      "Ġinvent": 4130,
      "Ġcritique": 4131,
      "oyÃ©s": 4132,
      "Ġrestes": 4133,
      "Ġarriva": 4134,
      "Ġpuissions": 4135,
      "Ġimpli": 4136,
      "Ġlaisserai": 4137,
      "adÃ©": 4138,
      "Ã©conom": 4139,
      "Ġchausse": 4140,
      "Ġrendue": 4141,
      "allons": 4142,
      "ĠmontÃ©": 4143,
      "aimez": 4144,
      "Ġchanteur": 4145,
      "ĠterminÃ©e": 4146,
      "Ġveniez": 4147,
      "Ġpanne": 4148,
      "Ġpantal": 4149,
      "Ġreconnaissante": 4150,
      "ĠtrompÃ©": 4151,
      "ĠdÃ©couvrir": 4152,
      "Ġintelligente": 4153,
      "Ġtraduire": 4154,
      "titutrice": 4155,
      "Ġtimbres": 4156,
      "Ġbienvenue": 4157,
      "ĠfantÃ´": 4158,
      "ĠcontrÃ´ler": 4159,
      "ĠsupermarchÃ©": 4160,
      "ĠmathÃ©matiques": 4161,
      "man": 4162,
      "ni": 4163,
      "Ġlog": 4164,
      "Ġcents": 4165,
      "quÃ©es": 4166,
      "Ġvendu": 4167,
      "oiff": 4168,
      "Ġfous": 4169,
      "teaux": 4170,
      "ĠbÃ©n": 4171,
      "aujourd": 4172,
      "Ġparmi": 4173,
      "Ġmembre": 4174,
      "onnable": 4175,
      "ĠÃ©tage": 4176,
      "ĠgÃª": 4177,
      "agner": 4178,
      "ĠrÃ©si": 4179,
      "Ã©rÃ©e": 4180,
      "Ġpouviez": 4181,
      "Ġferions": 4182,
      "vement": 4183,
      "Ġcompli": 4184,
      "Ġcache": 4185,
      "Ã¢ce": 4186,
      "Ġimprob": 4187,
      "ĠdÃ©sir": 4188,
      "Ġposa": 4189,
      "Ġportez": 4190,
      "dul": 4191,
      "Ġgarage": 4192,
      "Ġsentais": 4193,
      "Ġoccuper": 4194,
      "Ġsortes": 4195,
      "Ġriches": 4196,
      "ĠdÃ©pensÃ©": 4197,
      "Ġraisons": 4198,
      "Ġresterai": 4199,
      "Ġadolesc": 4200,
      "Ġexplos": 4201,
      "ĠfiÃ¨vre": 4202,
      "Ġoublier": 4203,
      "ĠblÃ¢": 4204,
      "ĠÃ©chou": 4205,
      "Ġparvenir": 4206,
      "ĠÃ©trangÃ¨re": 4207,
      "ĠapprÃ©cie": 4208,
      "Ġlisez": 4209,
      "ĠresponsabilitÃ©": 4210,
      "champ": 4211,
      "ĠsauvÃ©": 4212,
      "Ġimagination": 4213,
      "Ã©coute": 4214,
      "Ġravie": 4215,
      "Ġreposer": 4216,
      "Ġmalheureux": 4217,
      "Ġtotalement": 4218,
      "Ġinnocent": 4219,
      "Ġhaute": 4220,
      "Ġtreize": 4221,
      "Ġsandwich": 4222,
      "ule": 4223,
      "ute": 4224,
      "Ġjack": 4225,
      "Ġnag": 4226,
      "oient": 4227,
      "Ġfoi": 4228,
      "euble": 4229,
      "Ġlap": 4230,
      "Ġbeur": 4231,
      "ĠchÃ¢": 4232,
      "avance": 4233,
      "chiez": 4234,
      "Ġgui": 4235,
      "Ġmonte": 4236,
      "ĠgrÃ¢ce": 4237,
      "gnÃ©": 4238,
      "ĠdonnÃ©es": 4239,
      "Ġjoueur": 4240,
      "Ġvoudrait": 4241,
      "Ġclub": 4242,
      "instituteur": 4243,
      "ĠpoÃ¨me": 4244,
      "Ġpromesses": 4245,
      "Ġdifficiles": 4246,
      "Ġcoop": 4247,
      "mbres": 4248,
      "Ġexcuse": 4249,
      "ĠforÃªt": 4250,
      "Ġvenues": 4251,
      "Ġverrai": 4252,
      "ĠÃ©trangers": 4253,
      "Ġordres": 4254,
      "Ġmod": 4255,
      "Ġenseigne": 4256,
      "ĠsÃ©rieuse": 4257,
      "Ġjournaux": 4258,
      "ĠdÃ©ranger": 4259,
      "Ġviendrai": 4260,
      "Ġcopain": 4261,
      "ĠtempÃ©rature": 4262,
      "Ġconscient": 4263,
      "Ġsouhaiterais": 4264,
      "Ġsouffre": 4265,
      "Ġhumeur": 4266,
      "Ġpromener": 4267,
      "Ġpopulaire": 4268,
      "Ġasseoir": 4269,
      "Ġaliments": 4270,
      "ologie": 4271,
      "Ġencour": 4272,
      "ĠpÃ©tr": 4273,
      "irmiÃ¨re": 4274,
      "Ġimprobable": 4275,
      "ron": 4276,
      "uction": 4277,
      "Ã©h": 4278,
      "ensi": 4279,
      "Ġsage": 4280,
      "quante": 4281,
      "ĠaÃ®": 4282,
      "Ġmonnaie": 4283,
      "Ġquinze": 4284,
      "isme": 4285,
      "ĠrÃ©t": 4286,
      "itaire": 4287,
      "Ġchand": 4288,
      "Ġmembres": 4289,
      "ami": 4290,
      "ĠprocÃ©": 4291,
      "eaux": 4292,
      "act": 4293,
      "ards": 4294,
      "Ġtravaillent": 4295,
      "Ġbeaux": 4296,
      "Ġresta": 4297,
      "lÃ¨rent": 4298,
      "Ġperdit": 4299,
      "Ġcourrier": 4300,
      "espoir": 4301,
      "Ġsouti": 4302,
      "Ġautom": 4303,
      "Ġpartit": 4304,
      "Ġpartager": 4305,
      "ĠempÃª": 4306,
      "ĠdÃ©pÃªcher": 4307,
      "istoires": 4308,
      "ĠportÃ©": 4309,
      "ĠblessÃ©s": 4310,
      "Ġnourrir": 4311,
      "Ġeffic": 4312,
      "ĠprÃ©venu": 4313,
      "Ġpropri": 4314,
      "Ġprudents": 4315,
      "Ġsuffit": 4316,
      "Ġsuivant": 4317,
      "Ġcrimin": 4318,
      "incendie": 4319,
      "Ġbarbe": 4320,
      "Ġclim": 4321,
      "ĠÃ©crivez": 4322,
      "Ġsuspect": 4323,
      "ĠamÃ©ricain": 4324,
      "Ġexcellent": 4325,
      "Ġflics": 4326,
      "ĠdÃ©jeunÃ©": 4327,
      "Ġmagazine": 4328,
      "Ġexemple": 4329,
      "Ġspectacle": 4330,
      "ĠcontrariÃ©": 4331,
      "Ġquotidienne": 4332,
      "ache": 4333,
      "dition": 4334,
      "nom": 4335,
      "Ġ:": 4336,
      "Ġpil": 4337,
      "ĠpÃ©ri": 4338,
      "Ġdame": 4339,
      "enons": 4340,
      "Ġloyer": 4341,
      "ĠcÃ¢": 4342,
      "Ġsin": 4343,
      "reg": 4344,
      "Ġadul": 4345,
      "ĠvirÃ©": 4346,
      "Ġfab": 4347,
      "Ġfaite": 4348,
      "omac": 4349,
      "Ġbri": 4350,
      "Ã¨ter": 4351,
      "ĠplantÃ©": 4352,
      "Ġplantes": 4353,
      "Ġgal": 4354,
      "Ġgaz": 4355,
      "ĠhÃ©": 4356,
      "Ġhar": 4357,
      "Ġproxim": 4358,
      "Ã©rence": 4359,
      "Ġgren": 4360,
      "Ġvicti": 4361,
      "Ġmangent": 4362,
      "Ġcompt": 4363,
      "Ġpuissiez": 4364,
      "ĠÃ©cris": 4365,
      "ĠlaissÃ©e": 4366,
      "ignit": 4367,
      "Ġnoms": 4368,
      "Ġpartage": 4369,
      "Ġallong": 4370,
      "Ġessayons": 4371,
      "Ġterri": 4372,
      "Ġhabitude": 4373,
      "Ġmoteur": 4374,
      "Ġfutur": 4375,
      "Ġforc": 4376,
      "Ġrefuser": 4377,
      "ĠdisposÃ©": 4378,
      "ĠÃ©gard": 4379,
      "Ġoffert": 4380,
      "Ġminuit": 4381,
      "Ġjoli": 4382,
      "Ġsoudaine": 4383,
      "Ġsouper": 4384,
      "Ġpatience": 4385,
      "Ġcurieux": 4386,
      "Ã©teindre": 4387,
      "ĠdÃ©Ã§ue": 4388,
      "Ġmalheureusement": 4389,
      "Ġpoursuiv": 4390,
      "Ġtremblement": 4391,
      "espÃ©rais": 4392,
      "Ġjackson": 4393,
      "Ġbeurre": 4394,
      "ĠproximitÃ©": 4395,
      "bri": 4396,
      "ib": 4397,
      "ionn": 4398,
      "ma": 4399,
      "Â»": 4400,
      "Ġ8": 4401,
      "aitez": 4402,
      "ouill": 4403,
      "Ġtat": 4404,
      "Ġja": 4405,
      "Ġjette": 4406,
      "Ġfleur": 4407,
      "ĠprÃªtÃ©": 4408,
      "usÃ©e": 4409,
      "Ġchic": 4410,
      "chose": 4411,
      "Ġdurer": 4412,
      "Ġprot": 4413,
      "Ġassi": 4414,
      "ĠÃ©lÃ©g": 4415,
      "ortable": 4416,
      "Ġamour": 4417,
      "Ġpouvions": 4418,
      "Ġentier": 4419,
      "oyÃ©e": 4420,
      "autor": 4421,
      "essence": 4422,
      "Ġpartici": 4423,
      "Ġcourag": 4424,
      "Ġmanif": 4425,
      "ducation": 4426,
      "Ġallume": 4427,
      "Ġlongs": 4428,
      "Ġpetites": 4429,
      "Ġrig": 4430,
      "Ġridi": 4431,
      "Ġtomba": 4432,
      "Ġconcer": 4433,
      "Ġconcentrer": 4434,
      "ĠrencontrÃ©es": 4435,
      "ĠdÃ©rangerait": 4436,
      "Ġparcour": 4437,
      "Ġbanan": 4438,
      "Ġayons": 4439,
      "Ġentendue": 4440,
      "Ġimpatiente": 4441,
      "ĠÃ©teint": 4442,
      "lemagne": 4443,
      "Ġfavor": 4444,
      "Ġviolon": 4445,
      "Ġusage": 4446,
      "Ġeurope": 4447,
      "Ġcroyais": 4448,
      "Ġcapitale": 4449,
      "Ġaveugle": 4450,
      "ĠcÃ©libataire": 4451,
      "hÃ©si": 4452,
      "cen": 4453,
      "cis": 4454,
      "lir": 4455,
      "oÃ¯": 4456,
      "Ġais": 4457,
      "Ġdor": 4458,
      "Ġdress": 4459,
      "Ġcre": 4460,
      "Ġcoiff": 4461,
      "Ġvain": 4462,
      "Ġvaisselle": 4463,
      "Ġquarti": 4464,
      "Ġbanc": 4465,
      "Ã©tude": 4466,
      "ĠtraÃ®": 4467,
      "Ġavenir": 4468,
      "Ġauquel": 4469,
      "Ġplaign": 4470,
      "Ġremb": 4471,
      "ĠdÃ©rob": 4472,
      "uteur": 4473,
      "Ġcrain": 4474,
      "Ġtravaillez": 4475,
      "Ġtrouves": 4476,
      "Ġpassait": 4477,
      "Ġassure": 4478,
      "ĠcompliquÃ©": 4479,
      "Ġenfance": 4480,
      "assa": 4481,
      "Ġvieilles": 4482,
      "guÃ©": 4483,
      "Ġessaye": 4484,
      "ancÃ©": 4485,
      "ĠvisitÃ©": 4486,
      "ulter": 4487,
      "Ġterme": 4488,
      "Ġadop": 4489,
      "Ġcoffre": 4490,
      "issant": 4491,
      "ĠprÃ©sence": 4492,
      "Ġfuri": 4493,
      "Ġblag": 4494,
      "Ġblanche": 4495,
      "Ġphotog": 4496,
      "ĠprÃ©sentÃ©": 4497,
      "Ġservir": 4498,
      "Ġenseignante": 4499,
      "Ġressens": 4500,
      "Ġmortes": 4501,
      "Ġcesser": 4502,
      "Ġenvirons": 4503,
      "Ġembrasser": 4504,
      "Ġpardonner": 4505,
      "Ġatteindre": 4506,
      "ĠdifficultÃ©": 4507,
      "emploi": 4508,
      "Ġvolontaire": 4509,
      "Ġrejoin": 4510,
      "Ġtiroir": 4511,
      "Ġplaisanter": 4512,
      "Ġrompu": 4513,
      "Ġpantalon": 4514,
      "humeur": 4515,
      "lou": 4516,
      "ote": 4517,
      "th": 4518,
      "Ġpoign": 4519,
      "Ġtelles": 4520,
      "Ġcasse": 4521,
      "ĠcÃ©rÃ©": 4522,
      "Ġcraign": 4523,
      "Ġfe": 4524,
      "omage": 4525,
      "Ġcein": 4526,
      "ĠbÃªte": 4527,
      "Ġbague": 4528,
      "ĠauprÃ¨s": 4529,
      "Ġtex": 4530,
      "alif": 4531,
      "iration": 4532,
      "amÃ©li": 4533,
      "lique": 4534,
      "Ġfromage": 4535,
      "ottes": 4536,
      "chement": 4537,
      "Ġvase": 4538,
      "assez": 4539,
      "Ã©cut": 4540,
      "chette": 4541,
      "Ġregardes": 4542,
      "Ġsentie": 4543,
      "Ġrende": 4544,
      "Ġrendrai": 4545,
      "Ġcoups": 4546,
      "Ġcherchez": 4547,
      "Ġconduite": 4548,
      "ĠprÃ©fÃ¨res": 4549,
      "Ġouvrit": 4550,
      "Ġmontra": 4551,
      "Ġvivons": 4552,
      "ĠinvitÃ©e": 4553,
      "ĠgardÃ©": 4554,
      "Ġconnaissais": 4555,
      "oncÃ©": 4556,
      "Ġremonter": 4557,
      "ĠamusÃ©e": 4558,
      "ĠdiscutÃ©": 4559,
      "ĠenseignÃ©": 4560,
      "ĠrÃ©veillÃ©e": 4561,
      "Ã¯n": 4562,
      "envoyer": 4563,
      "ĠlumiÃ¨res": 4564,
      "ĠÃ©lectri": 4565,
      "Ġpolit": 4566,
      "Ġsouffle": 4567,
      "Ġplaint": 4568,
      "Ġmenac": 4569,
      "Ġintention": 4570,
      "ĠprÃ©pare": 4571,
      "ĠpressÃ©": 4572,
      "Ġsemblent": 4573,
      "Ġbienvenu": 4574,
      "appellerai": 4575,
      "ordinateur": 4576,
      "interromp": 4577,
      "ĠdÃ©primÃ©": 4578,
      "ĠhÃ©ros": 4579,
      "Ġarticle": 4580,
      "Ġmonsieur": 4581,
      "Ġefficace": 4582,
      "30": 4583,
      "cens": 4584,
      "cture": 4585,
      "fois": 4586,
      "her": 4587,
      "ption": 4588,
      "Ġtante": 4589,
      "quÃªte": 4590,
      "Ġnord": 4591,
      "Ġmous": 4592,
      "ĠmÃª": 4593,
      "ĠmÃªmes": 4594,
      "Ġqueue": 4595,
      "Ġbais": 4596,
      "Ġrenvers": 4597,
      "Ã¨tes": 4598,
      "itue": 4599,
      "Ġsud": 4600,
      "ust": 4601,
      "Ã©taire": 4602,
      "Ã©tique": 4603,
      "Ġchances": 4604,
      "avions": 4605,
      "chent": 4606,
      "rite": 4607,
      "Ġhyp": 4608,
      "angleterre": 4609,
      "Ġair": 4610,
      "Ġalent": 4611,
      "Ġallemand": 4612,
      "Ġallions": 4613,
      "ĠrÃ©cup": 4614,
      "ĠarriÃ¨re": 4615,
      "Ġsaison": 4616,
      "aissance": 4617,
      "ĠmalgrÃ©": 4618,
      "Ġcomplet": 4619,
      "Ġcourut": 4620,
      "Ġjouez": 4621,
      "ĠderniÃ¨res": 4622,
      "Ġpleure": 4623,
      "ĠrÃ©pondit": 4624,
      "Ġphar": 4625,
      "Ġcherches": 4626,
      "Ġpoches": 4627,
      "Ġadm": 4628,
      "Ġprofessi": 4629,
      "illon": 4630,
      "Ġexpert": 4631,
      "uves": 4632,
      "Ġfiers": 4633,
      "Ġchatte": 4634,
      "utiliser": 4635,
      "aimais": 4636,
      "Ġinstituteur": 4637,
      "Ġparfaite": 4638,
      "ĠrentrÃ©e": 4639,
      "ennuy": 4640,
      "Ġdisposes": 4641,
      "Ġquitte": 4642,
      "ĠcoÃ»tÃ©": 4643,
      "ĠreprÃ©s": 4644,
      "Ġsatisfaite": 4645,
      "Ġsuffisant": 4646,
      "Ġdistrib": 4647,
      "Ġserviette": 4648,
      "ĠrÃ©alisÃ©": 4649,
      "Ġprudentes": 4650,
      "Ġanimal": 4651,
      "ennemi": 4652,
      "ĠtraitÃ©": 4653,
      "Ġcontacter": 4654,
      "Ġnerveuse": 4655,
      "ĠlÃ©ger": 4656,
      "ĠmÃ©th": 4657,
      "enseigner": 4658,
      "aka": 4659,
      "achÃ¨te": 4660,
      "ĠrecommandÃ©": 4661,
      "Ġtendance": 4662,
      "monie": 4663,
      "raphe": 4664,
      "Ġlourd": 4665,
      "ĠdÃ©cÃ©dÃ©": 4666,
      "ĠÃ©norme": 4667,
      "Ġbuvez": 4668,
      "Ġescaliers": 4669,
      "Ġregretter": 4670,
      "ĠpoupÃ©e": 4671,
      "Ġchaussettes": 4672,
      "Ġparticiper": 4673,
      "ox": 4674,
      "Ġdors": 4675,
      "ouille": 4676,
      "Ġtenue": 4677,
      "Ġsh": 4678,
      "Ġmaire": 4679,
      "ertÃ©": 4680,
      "Ġquar": 4681,
      "Ġjet": 4682,
      "Ġunivers": 4683,
      "Ġracc": 4684,
      "ind": 4685,
      "Ġsup": 4686,
      "auriez": 4687,
      "tim": 4688,
      "chait": 4689,
      "Ġplat": 4690,
      "Ġgor": 4691,
      "ouvre": 4692,
      "Ġrel": 4693,
      "Ġhistoires": 4694,
      "ĠdÃ©l": 4695,
      "Ġsim": 4696,
      "ama": 4697,
      "ĠÃ©par": 4698,
      "ortun": 4699,
      "ĠcongÃ©s": 4700,
      "Ġdisiez": 4701,
      "Ġsable": 4702,
      "ĠcrÃ¨me": 4703,
      "ĠbeautÃ©": 4704,
      "Ġcommettre": 4705,
      "Ġpassa": 4706,
      "Ġpuisses": 4707,
      "ĠfranÃ§aise": 4708,
      "oreille": 4709,
      "ĠempÃªcher": 4710,
      "Ġrappel": 4711,
      "Ġrappelles": 4712,
      "ĠcoÃ¯n": 4713,
      "Ġpoints": 4714,
      "loge": 4715,
      "ĠexcitÃ©": 4716,
      "Ġfig": 4717,
      "ĠblessÃ©es": 4718,
      "ĠdÃ©bat": 4719,
      "Ġcapables": 4720,
      "Ġcinquante": 4721,
      "ĠdiffÃ©rents": 4722,
      "ĠutilisÃ©": 4723,
      "session": 4724,
      "ĠthÃ©Ã¢tre": 4725,
      "Ġmode": 4726,
      "Ġsouris": 4727,
      "Ġdescendre": 4728,
      "Ġrater": 4729,
      "Ġignore": 4730,
      "Ġparlait": 4731,
      "Ġsympath": 4732,
      "ĠÃ©crivain": 4733,
      "Ġleva": 4734,
      "ĠprogrÃ¨s": 4735,
      "Ġaugmentation": 4736,
      "ĠdotÃ©": 4737,
      "Ġrejoindre": 4738,
      "Ġexamens": 4739,
      "Ġpratiquement": 4740,
      "Ġoreilles": 4741,
      "Ã©chapper": 4742,
      "Ġcolline": 4743,
      "Ġceinture": 4744,
      "citÃ©": 4745,
      "moin": 4746,
      "uf": 4747,
      "uler": 4748,
      "vres": 4749,
      "Ġ6": 4750,
      "aiment": 4751,
      "Ġmic": 4752,
      "oide": 4753,
      "anou": 4754,
      "ĠÃ´": 4755,
      "isions": 4756,
      "Ġlamp": 4757,
      "ĠrÃ´le": 4758,
      "Ġenle": 4759,
      "Ġenreg": 4760,
      "Ã©tage": 4761,
      "Ã©tagÃ¨re": 4762,
      "Ġrelig": 4763,
      "ecte": 4764,
      "Ġdeviner": 4765,
      "Ã»t": 4766,
      "Ġfroide": 4767,
      "Ġsachiez": 4768,
      "gnes": 4769,
      "Ġcra": 4770,
      "Ġmalch": 4771,
      "Ġbonjour": 4772,
      "Ġoublie": 4773,
      "Ġimpression": 4774,
      "Ġposter": 4775,
      "igne": 4776,
      "Ġpartons": 4777,
      "Ġvisit": 4778,
      "Ġdouz": 4779,
      "Ġterr": 4780,
      "ĠhabillÃ©": 4781,
      "Ġfich": 4782,
      "Ġconcent": 4783,
      "ĠdÃ®nÃ©": 4784,
      "ĠÃ©gal": 4785,
      "oixante": 4786,
      "Ġfautes": 4787,
      "Ġfrappa": 4788,
      "Ġweb": 4789,
      "Ġdistingu": 4790,
      "Ġrisques": 4791,
      "ĠempruntÃ©": 4792,
      "ĠdÃ©goÃ»": 4793,
      "Ġbleue": 4794,
      "ĠmÃ©dicaments": 4795,
      "ĠdÃ©pÃªche": 4796,
      "Ġcanadien": 4797,
      "Ġemm": 4798,
      "ĠdÃ©velopp": 4799,
      "issement": 4800,
      "Ġnuages": 4801,
      "ĠdÃ©sire": 4802,
      "Ġambiti": 4803,
      "Ġpersuader": 4804,
      "ĠloupÃ©": 4805,
      "Ġcuisinier": 4806,
      "Ġoppos": 4807,
      "Ġcommerci": 4808,
      "Ġmondiale": 4809,
      "Ġquartier": 4810,
      "gique": 4811,
      "Ġdan": 4812,
      "Ġlo": 4813,
      "Ġnaissance": 4814,
      "Ġviennes": 4815,
      "Ġmeu": 4816,
      "anches": 4817,
      "isÃ©es": 4818,
      "ĠillÃ©g": 4819,
      "Ġrasse": 4820,
      "Ġroses": 4821,
      "armÃ©e": 4822,
      "Ġparte": 4823,
      "Ġparlais": 4824,
      "Ġgel": 4825,
      "Ġgos": 4826,
      "Ġtech": 4827,
      "Ġhe": 4828,
      "Ġprocu": 4829,
      "ĠvotÃ©": 4830,
      "Ġesprit": 4831,
      "Ġing": 4832,
      "Ġinjus": 4833,
      "Ġarmes": 4834,
      "Ġgrav": 4835,
      "Ġserp": 4836,
      "terie": 4837,
      "Ġcrise": 4838,
      "Ġtrouva": 4839,
      "ĠprÃ©nom": 4840,
      "Ġparticip": 4841,
      "Ġmalin": 4842,
      "ĠdeuxiÃ¨me": 4843,
      "Ġliqu": 4844,
      "Ġlicen": 4845,
      "ordre": 4846,
      "ĠÃ©cras": 4847,
      "Ġjouait": 4848,
      "Ġfranchement": 4849,
      "onges": 4850,
      "Ġbrouill": 4851,
      "ĠdÃ©ton": 4852,
      "ĠmÃ©pr": 4853,
      "attention": 4854,
      "Ġphy": 4855,
      "ĠconfÃ©rence": 4856,
      "obÃ©": 4857,
      "obile": 4858,
      "Ġfacture": 4859,
      "ĠfatiguÃ©es": 4860,
      "Ġfamilier": 4861,
      "erreurs": 4862,
      "Ġinsp": 4863,
      "apprÃ©cierais": 4864,
      "Ġvivait": 4865,
      "ĠÃ©poque": 4866,
      "Ġremise": 4867,
      "Ġsouri": 4868,
      "italie": 4869,
      "ĠfonctionnÃ©": 4870,
      "Ġfrapper": 4871,
      "Ġcharm": 4872,
      "ĠrÃ©aliser": 4873,
      "Ġperds": 4874,
      "Ġvalises": 4875,
      "Ġailleurs": 4876,
      "Ġcamar": 4877,
      "Ġsuggest": 4878,
      "ĠhÃ´pital": 4879,
      "Ġlarge": 4880,
      "ĠprÃ©fÃ©rez": 4881,
      "ĠnÃ©goci": 4882,
      "Ġrespecter": 4883,
      "ĠÃ©clair": 4884,
      "Ġski": 4885,
      "arrÃªta": 4886,
      "Ġdestin": 4887,
      "ĠannulÃ©": 4888,
      "Ġprisonniers": 4889,
      "Ġassurance": 4890,
      "ĠfumÃ©e": 4891,
      "Ġennemi": 4892,
      "Ġtarte": 4893,
      "Ġscientifique": 4894,
      "Ġparesseux": 4895,
      "Ġgentillesse": 4896,
      "Ã©conomie": 4897,
      "ĠchÃ¢teau": 4898,
      "Ġquotidiennement": 4899,
      "censeur": 4900,
      "ĠcoÃ¯ncid": 4901,
      "..": 4902,
      "bum": 4903,
      "cles": 4904,
      "cins": 4905,
      "dÃ©s": 4906,
      "fiÃ©": 4907,
      "gts": 4908,
      "hu": 4909,
      "iÃ©e": 4910,
      "rure": 4911,
      "vÃ©s": 4912,
      "Ġ4": 4913,
      "aid": 4914,
      "Ã©l": 4915,
      "Ã©ant": 4916,
      "Ġcla": 4917,
      "Ġjume": 4918,
      "Ġnatif": 4919,
      "ĠmÃ©tÃ©": 4920,
      "Ġpatr": 4921,
      "Ġfirent": 4922,
      "ombe": 4923,
      "Ġuns": 4924,
      "Ġlecture": 4925,
      "Ġbaign": 4926,
      "Ã©taient": 4927,
      "auff": 4928,
      "Ġaurions": 4929,
      "ĠtouchÃ©": 4930,
      "Ġrelation": 4931,
      "Ġrecevoir": 4932,
      "ĠdÃ©col": 4933,
      "aler": 4934,
      "irurg": 4935,
      "Ġsite": 4936,
      "resp": 4937,
      "attraper": 4938,
      "urÃ©": 4939,
      "Ġintr": 4940,
      "onnement": 4941,
      "Ġdemie": 4942,
      "Ġtravailles": 4943,
      "Ġdirectement": 4944,
      "Ġentra": 4945,
      "Ġonze": 4946,
      "Ġferas": 4947,
      "Ġpasses": 4948,
      "Ġcontrib": 4949,
      "Ġarrives": 4950,
      "Ġarrivent": 4951,
      "Ã´tres": 4952,
      "Ġcourte": 4953,
      "Ġpossession": 4954,
      "ĠconsidÃ©": 4955,
      "Ġconsulter": 4956,
      "Ġsentait": 4957,
      "Ġsentit": 4958,
      "Ġraisonnable": 4959,
      "Ġouvrez": 4960,
      "ĠÃ©tudiante": 4961,
      "ĠchantÃ©": 4962,
      "Ġvivez": 4963,
      "Ġconclus": 4964,
      "Ġ100": 4965,
      "ĠmÃ©decins": 4966,
      "ieds": 4967,
      "Ġverti": 4968,
      "ĠrÃªver": 4969,
      "ĠgÃ©nie": 4970,
      "ĠÃ©coutez": 4971,
      "lications": 4972,
      "Ġmourut": 4973,
      "ĠdÃ©rangÃ©": 4974,
      "Ġproduits": 4975,
      "Ġtoile": 4976,
      "Ġreprod": 4977,
      "Ġraconte": 4978,
      "Ġplainte": 4979,
      "Ġhauteur": 4980,
      "Ġcambri": 4981,
      "oublierai": 4982,
      "ĠcessÃ©": 4983,
      "Ġhorreur": 4984,
      "ĠrÃ©gler": 4985,
      "Ġinformation": 4986,
      "ĠÃ©pousÃ©": 4987,
      "Ġpoulet": 4988,
      "article": 4989,
      "Ġremets": 4990,
      "Ġapportez": 4991,
      "Ġcapitaine": 4992,
      "cidents": 4993,
      "Ġlimite": 4994,
      "Ġtravaillons": 4995,
      "ĠsupplÃ©mentaire": 4996,
      "Ġchauffeur": 4997,
      "ĠtÃ¢che": 4998,
      "Ġclef": 4999,
      "Ġdisponible": 5000,
      "Ġchandail": 5001,
      "herbe": 5002,
      "Ġliquide": 5003,
      "Ġbrouillard": 5004,
      "fond": 5005,
      "huit": 5006,
      "ice": 5007,
      "ji": 5008,
      "lant": 5009,
      "Ġlin": 5010,
      "Ġsaut": 5011,
      "ĠsonnÃ©": 5012,
      "Ġsoixante": 5013,
      "Ġvilles": 5014,
      "ĠfÃ»mes": 5015,
      "estomac": 5016,
      "isent": 5017,
      "ĠlavÃ©": 5018,
      "Ġrang": 5019,
      "Ġramen": 5020,
      "Ġprati": 5021,
      "aud": 5022,
      "ĠÃ©tant": 5023,
      "ĠrÃ©v": 5024,
      "ĠÃ©prouv": 5025,
      "Ġsurf": 5026,
      "ĠindÃ©": 5027,
      "ive": 5028,
      "endrez": 5029,
      "dire": 5030,
      "Ġtrouvez": 5031,
      "ĠtrouvÃ©e": 5032,
      "Ġjusti": 5033,
      "Ġcad": 5034,
      "Ġdemandais": 5035,
      "Ã©cris": 5036,
      "ĠmaniÃ¨res": 5037,
      "ĠtroisiÃ¨me": 5038,
      "Ġapprend": 5039,
      "Ġmeilleures": 5040,
      "quip": 5041,
      "ĠappelÃ©e": 5042,
      "Ġchevaux": 5043,
      "Ġsalade": 5044,
      "Ġconnaissent": 5045,
      "ĠremÃ¨de": 5046,
      "ĠÃ©trangÃ¨res": 5047,
      "attendrai": 5048,
      "Ġchoisis": 5049,
      "Ġapparence": 5050,
      "ĠhabituÃ©e": 5051,
      "ĠÃ©viter": 5052,
      "Ġcopie": 5053,
      "Ġsoign": 5054,
      "ĠdÃ©faut": 5055,
      "Ġpleuvra": 5056,
      "Ġcharger": 5057,
      "ĠrÃ©flÃ©chi": 5058,
      "Ġsortons": 5059,
      "Ġdescends": 5060,
      "Ġrempla": 5061,
      "Ġdoigts": 5062,
      "ĠracontÃ©": 5063,
      "Ġmensonges": 5064,
      "Ġformulaire": 5065,
      "Ġclients": 5066,
      "Ġfassions": 5067,
      "Ġbillets": 5068,
      "Ġmerveilleuse": 5069,
      "ĠquantitÃ©": 5070,
      "ĠlibertÃ©": 5071,
      "Ġmarchand": 5072,
      "ĠdÃ©mÃ©nagÃ©": 5073,
      "ĠpossibilitÃ©s": 5074,
      "Ġconstamment": 5075,
      "ĠcensÃ©e": 5076,
      "ĠÃ©nervÃ©": 5077,
      "ĠÃ©chappÃ©": 5078,
      "ĠcontrariÃ©e": 5079,
      "Ġhurler": 5080,
      "ĠpÃ©nÃ©trer": 5081,
      "Ġdocument": 5082,
      "ĠparticuliÃ¨rement": 5083,
      "Ġbaiser": 5084,
      "ĠcoÃ¯ncidence": 5085,
      "lait": 5086,
      "umer": 5087,
      "Ġdrap": 5088,
      "oute": 5089,
      "Ã©reux": 5090,
      "Ġtente": 5091,
      "Ġcard": 5092,
      "Ġsienne": 5093,
      "Ġsaint": 5094,
      "reuses": 5095,
      "once": 5096,
      "onde": 5097,
      "ĠmÃ©c": 5098,
      "entendu": 5099,
      "ombre": 5100,
      "estre": 5101,
      "Ġpassi": 5102,
      "ĠleÃ§on": 5103,
      "Ã¨ner": 5104,
      "Ġparla": 5105,
      "Ġpartez": 5106,
      "Ġaurons": 5107,
      "onnez": 5108,
      "Ġheur": 5109,
      "allemagne": 5110,
      "Ġsieste": 5111,
      "ectÃ©": 5112,
      "atte": 5113,
      "Ġsurp": 5114,
      "uiss": 5115,
      "Ġdissi": 5116,
      "Ã©rant": 5117,
      "Ã©rÃ©s": 5118,
      "Ã®le": 5119,
      "Ġsavaient": 5120,
      "Ġdirecteur": 5121,
      "Ġtrouvent": 5122,
      "ĠrestÃ©s": 5123,
      "rÃ©es": 5124,
      "Ġpassag": 5125,
      "Ġcontents": 5126,
      "Ġlaisses": 5127,
      "ades": 5128,
      "Ġvieill": 5129,
      "Ġjouons": 5130,
      "ĠcomprÃ©h": 5131,
      "Ġbouge": 5132,
      "ĠdÃ©tend": 5133,
      "ĠmÃ©n": 5134,
      "Ġreviend": 5135,
      "Ġreviendra": 5136,
      "ĠdouÃ©": 5137,
      "obtenir": 5138,
      "aiderai": 5139,
      "ifiques": 5140,
      "Ġproches": 5141,
      "Ġmenteuse": 5142,
      "ĠvÃ©hi": 5143,
      "Ġretourn": 5144,
      "Ġtableaux": 5145,
      "ĠprÃ©voyez": 5146,
      "ĠÃ¢gÃ©e": 5147,
      "Ġconnaissons": 5148,
      "Ġstri": 5149,
      "Ġgueu": 5150,
      "Ġimportantes": 5151,
      "ĠÃ©vident": 5152,
      "Ġcadeaux": 5153,
      "occupe": 5154,
      "Ġordinateurs": 5155,
      "Ġperdue": 5156,
      "Ã©poque": 5157,
      "Ġrempli": 5158,
      "Ġcorrect": 5159,
      "ĠprÃ©fÃ©rable": 5160,
      "ĠconsidÃ©rÃ©": 5161,
      "Ġchanceuse": 5162,
      "Ġsembla": 5163,
      "Ġretrouver": 5164,
      "achÃ¨ter": 5165,
      "offe": 5166,
      "Ġpreuves": 5167,
      "ĠscÃ¨ne": 5168,
      "Ġtalentu": 5169,
      "Ġlouer": 5170,
      "ĠrÃ©parÃ©": 5171,
      "ĠdiplÃ´mÃ©": 5172,
      "Ġpuni": 5173,
      "ĠamenÃ©": 5174,
      "ĠÃ©puisÃ©": 5175,
      "Ġremercie": 5176,
      "Ġasseyez": 5177,
      "ĠdÃ©pourvu": 5178,
      "Ġajouter": 5179,
      "Ġexige": 5180,
      "Ġinternet": 5181,
      "Ġlogique": 5182,
      "ĠblÃ¢mer": 5183,
      "ĠaisÃ©": 5184,
      "Ġsimil": 5185,
      "Ġpatronne": 5186,
      "ber": 5187,
      "gies": 5188,
      "ju": 5189,
      "ow": 5190,
      "pendant": 5191,
      "Ġ9": 5192,
      "Ġurgence": 5193,
      "Ġps": 5194,
      "Ġpel": 5195,
      "Ġlent": 5196,
      "Ġsain": 5197,
      "quin": 5198,
      "Ġap": 5199,
      "Ġpaquet": 5200,
      "estation": 5201,
      "isa": 5202,
      "Ġbasse": 5203,
      "Ġrit": 5204,
      "inte": 5205,
      "inet": 5206,
      "Ġsuc": 5207,
      "order": 5208,
      "orient": 5209,
      "orig": 5210,
      "Ġparoles": 5211,
      "aviez": 5212,
      "ĠcomitÃ©": 5213,
      "Ġha": 5214,
      "allemand": 5215,
      "Ġpensiez": 5216,
      "Ġdiable": 5217,
      "ĠrÃ©col": 5218,
      "ĠmatiÃ¨re": 5219,
      "opri": 5220,
      "Ġvirer": 5221,
      "Ġmalentendu": 5222,
      "Ġfaisiez": 5223,
      "Ã´ts": 5224,
      "Ġdemandes": 5225,
      "Ġcommande": 5226,
      "Ġcourri": 5227,
      "Ġretenir": 5228,
      "addition": 5229,
      "Ġbruy": 5230,
      "Ġlongues": 5231,
      "accus": 5232,
      "Ġdouce": 5233,
      "ĠcollÃ¨": 5234,
      "Ġouvrage": 5235,
      "Ġrouges": 5236,
      "Ġcroiss": 5237,
      "Ġexcit": 5238,
      "mire": 5239,
      "utilise": 5240,
      "Ġinvitation": 5241,
      "idence": 5242,
      "ĠemployÃ©": 5243,
      "Ġsouhaitez": 5244,
      "Ġmoder": 5245,
      "Ġcontinua": 5246,
      "Ġabsence": 5247,
      "Ġdessert": 5248,
      "Ġinterromp": 5249,
      "Ġromans": 5250,
      "ĠrÃ©flÃ©chis": 5251,
      "ĠsupposÃ©e": 5252,
      "ĠautorisÃ©e": 5253,
      "ĠautorisÃ©s": 5254,
      "Ġtromper": 5255,
      "ĠmentionnÃ©": 5256,
      "Ġpauvres": 5257,
      "ĠÃ©teindre": 5258,
      "Ġrespecte": 5259,
      "Ġmordu": 5260,
      "ĠdÃ©mÃ©nager": 5261,
      "raphie": 5262,
      "Ġosaka": 5263,
      "ĠachÃ¨te": 5264,
      "abandonner": 5265,
      "Ġ201": 5266,
      "Ġfleuve": 5267,
      "endormir": 5268,
      "Ġsurveiller": 5269,
      "Ġfabri": 5270,
      "Ġsoudainement": 5271,
      "Ġconcerne": 5272,
      "ĠreprÃ©sent": 5273,
      "ĠingÃ©n": 5274,
      "Ġpassagers": 5275,
      "ctes": 5276,
      "itement": 5277,
      "ibles": 5278,
      "neur": 5279,
      "sc": 5280,
      "serv": 5281,
      "Ġ7": 5282,
      "Ġsonne": 5283,
      "Ġsaign": 5284,
      "Ġsensible": 5285,
      "Ġjeta": 5286,
      "oigne": 5287,
      "ĠfÃ©": 5288,
      "eures": 5289,
      "Ġrues": 5290,
      "Ġralent": 5291,
      "ormer": 5292,
      "Ġchu": 5293,
      "Ġchirurg": 5294,
      "aver": 5295,
      "ĠdÃ©pos": 5296,
      "agnes": 5297,
      "Ġvoter": 5298,
      "Ġalbum": 5299,
      "ĠÃ©qu": 5300,
      "Ġmarteau": 5301,
      "Ġinhabitu": 5302,
      "Ġconte": 5303,
      "ĠamitiÃ©": 5304,
      "Ġcroir": 5305,
      "Ġapporter": 5306,
      "ueil": 5307,
      "ĠexprÃ¨s": 5308,
      "Ġpartiel": 5309,
      "Ġferons": 5310,
      "Ġcauser": 5311,
      "Ã©cl": 5312,
      "ĠmÃ©chant": 5313,
      "ĠgarÃ©": 5314,
      "Ġapproche": 5315,
      "Ġride": 5316,
      "Ġconfortable": 5317,
      "Ġrendra": 5318,
      "Ġdoulou": 5319,
      "Ġconseille": 5320,
      "Ġforts": 5321,
      "Ġaffam": 5322,
      "Ġcommencez": 5323,
      "aleine": 5324,
      "ĠretournÃ©": 5325,
      "ĠprÃ©venir": 5326,
      "Ġconcours": 5327,
      "Ġcontrac": 5328,
      "emporter": 5329,
      "Ġexact": 5330,
      "Ġsolaire": 5331,
      "Ġembau": 5332,
      "ĠplanÃ¨te": 5333,
      "Ġattendons": 5334,
      "Ġsourit": 5335,
      "Ġcontinuez": 5336,
      "Ġaimons": 5337,
      "Ġchoisissez": 5338,
      "Ġdessin": 5339,
      "Ġcrier": 5340,
      "Ġtenter": 5341,
      "Ġinterdit": 5342,
      "ĠfermÃ©s": 5343,
      "Ġaccept": 5344,
      "Ġretira": 5345,
      "Ġressour": 5346,
      "Ġsuperbe": 5347,
      "Ġaimerait": 5348,
      "ĠimpressionnÃ©e": 5349,
      "Ġactuelle": 5350,
      "Ġchangements": 5351,
      "Ġclient": 5352,
      "Ġfascin": 5353,
      "Ġtransf": 5354,
      "Ġscience": 5355,
      "ĠbrÃ»lÃ©": 5356,
      "Ġaccompli": 5357,
      "inquiÃ©ter": 5358,
      "ĠÃ©lÃ¨ve": 5359,
      "Ġaliment": 5360,
      "Ġremettez": 5361,
      "Ġcherchais": 5362,
      "ĠvolontÃ©": 5363,
      "neuf": 5364,
      "ĠdÃ©licieux": 5365,
      "Ġtapis": 5366,
      "ĠprÃ©tend": 5367,
      "ĠmaÃ®tr": 5368,
      "ĠÃ©clata": 5369,
      "Ġmiroir": 5370,
      "ĠdÃ©truit": 5371,
      "aucune": 5372,
      "Ã©tudiants": 5373,
      "ĠpÃªche": 5374,
      "Ġinstructions": 5375,
      "Ġconvaincue": 5376,
      "admets": 5377,
      "Ġrembours": 5378,
      "Ġblagues": 5379,
      "ĠcÃ©rÃ©monie": 5380,
      "Ġquarante": 5381,
      "Ġlampe": 5382,
      "Ġmeubles": 5383,
      "Ġrassemb": 5384,
      "Ġinjuste": 5385,
      "ates": 5386,
      "Ġpur": 5387,
      "Ġpist": 5388,
      "ouff": 5389,
      "Ã©ducation": 5390,
      "Ġlus": 5391,
      "Ġtit": 5392,
      "Ġtaux": 5393,
      "Ġsitue": 5394,
      "Ġaper": 5395,
      "Ġnou": 5396,
      "Ġmas": 5397,
      "Ġquas": 5398,
      "ĠqualitÃ©": 5399,
      "Ġqualif": 5400,
      "ana": 5401,
      "lettes": 5402,
      "esti": 5403,
      "Ġlab": 5404,
      "Ġrose": 5405,
      "Ã¨ce": 5406,
      "oritÃ©": 5407,
      "sept": 5408,
      "choir": 5409,
      "chauff": 5410,
      "Ġplant": 5411,
      "onnÃ¨rent": 5412,
      "ouve": 5413,
      "dem": 5414,
      "ĠdÃ©cev": 5415,
      "agÃ©e": 5416,
      "agissait": 5417,
      "Ġaidez": 5418,
      "Ġmars": 5419,
      "Ġdisais": 5420,
      "Ã©rateur": 5421,
      "ĠserrÃ©": 5422,
      "Ġparties": 5423,
      "lÃ¨ve": 5424,
      "Ġfaisaient": 5425,
      "Ġarrivez": 5426,
      "Ġlignes": 5427,
      "Ġconnait": 5428,
      "Ġposez": 5429,
      "Ġaccidents": 5430,
      "Ã©cart": 5431,
      "Åĵufs": 5432,
      "ĠtÃ©moin": 5433,
      "Ġmatern": 5434,
      "Ġpul": 5435,
      "Ġgarant": 5436,
      "Ġconfir": 5437,
      "ĠclÃ´": 5438,
      "obe": 5439,
      "Ġmontrerai": 5440,
      "ifier": 5441,
      "ĠtÃ©lÃ©phoner": 5442,
      "Ġrencontres": 5443,
      "Ġpression": 5444,
      "Ġforces": 5445,
      "Ġeffet": 5446,
      "Ġvenait": 5447,
      "ĠemployÃ©s": 5448,
      "Ġreconnais": 5449,
      "Ġplaisante": 5450,
      "Ġgentils": 5451,
      "Ġmoque": 5452,
      "ĠÃ©goÃ¯": 5453,
      "Ġagir": 5454,
      "ĠrÃ©frig": 5455,
      "ĠfaÃ§ons": 5456,
      "Ġstupides": 5457,
      "Ġferma": 5458,
      "Ġcharge": 5459,
      "Ġretire": 5460,
      "ĠretirÃ©": 5461,
      "Ġjuger": 5462,
      "Ġrattraper": 5463,
      "Ġirons": 5464,
      "Ġsecours": 5465,
      "ĠarrÃªtÃ©e": 5466,
      "Ġmouchoir": 5467,
      "Ġpleurait": 5468,
      "Ġculture": 5469,
      "Ġincroyablement": 5470,
      "Ġlocuteur": 5471,
      "Ġannuler": 5472,
      "Ġprononcer": 5473,
      "ĠdÃ©brouillÃ©": 5474,
      "Ġexcell": 5475,
      "lexe": 5476,
      "ĠmÃ©rit": 5477,
      "Ġgrossier": 5478,
      "Ġkilom": 5479,
      "Ġenvisager": 5480,
      "ĠÃ©toiles": 5481,
      "appartient": 5482,
      "Ġcigarette": 5483,
      "Ġamical": 5484,
      "honnÃªte": 5485,
      "Ġobjectif": 5486,
      "Ġridicule": 5487,
      "ĠmÃ©thode": 5488,
      "ĠsupÃ©ri": 5489,
      "Ġmalchanc": 5490,
      "Ġdouzaine": 5491,
      "Ġdistinguer": 5492,
      "Ġdanse": 5493,
      "Ġlicenci": 5494,
      "Ġphysique": 5495,
      "Ġressources": 5496,
      "ĠÃ©goÃ¯s": 5497,
      "bon": 5498,
      "cent": 5499,
      "die": 5500,
      "gÃ©t": 5501,
      "jection": 5502,
      "ket": 5503,
      "lam": 5504,
      "mor": 5505,
      "oler": 5506,
      "ych": 5507,
      "Ġcd": 5508,
      "Ġcat": 5509,
      "ĠsÃ¨": 5510,
      "ĠmÃ¨tres": 5511,
      "erver": 5512,
      "ĠÃ®": 5513,
      "Ġfile": 5514,
      "Ġlav": 5515,
      "iteur": 5516,
      "inconvÃ©nient": 5517,
      "Ã©toffe": 5518,
      "Ġpourrai": 5519,
      "Ġplomb": 5520,
      "Ġgam": 5521,
      "Ġtouchez": 5522,
      "ascenseur": 5523,
      "Ġoh": 5524,
      "angÃ©": 5525,
      "Ġaie": 5526,
      "ĠÃ©lu": 5527,
      "utÃ©": 5528,
      "apacitÃ©": 5529,
      "Ġanti": 5530,
      "abilitÃ©s": 5531,
      "Ġvaches": 5532,
      "Ġattitude": 5533,
      "Ġtax": 5534,
      "Ã¢t": 5535,
      "emm": 5536,
      "Ġconnue": 5537,
      "icile": 5538,
      "Ġimpuiss": 5539,
      "ĠdÃ©saccord": 5540,
      "ignorer": 5541,
      "admire": 5542,
      "Ġsouvenez": 5543,
      "ĠmatÃ©ri": 5544,
      "Ġpaye": 5545,
      "ĠdÃ©cl": 5546,
      "Ġrendent": 5547,
      "intÃ©rÃªt": 5548,
      "imm": 5549,
      "allon": 5550,
      "illÃ¨re": 5551,
      "ĠpiÃ¨ge": 5552,
      "ĠtÃ©lÃ©phonÃ©": 5553,
      "issue": 5554,
      "issante": 5555,
      "ĠretardÃ©": 5556,
      "Ġportent": 5557,
      "Ġfiable": 5558,
      "ĠforcÃ©e": 5559,
      "Ġpassera": 5560,
      "Ġmission": 5561,
      "Ġdisposais": 5562,
      "idÃ©es": 5563,
      "Ġ16": 5564,
      "emprun": 5565,
      "ĠamusÃ©s": 5566,
      "Ġdiscutons": 5567,
      "Ġagit": 5568,
      "Ġarriverait": 5569,
      "ĠinfirmiÃ¨re": 5570,
      "essayais": 5571,
      "ĠapprÃ©cier": 5572,
      "Ġsurprises": 5573,
      "Ġoffens": 5574,
      "Ġoffici": 5575,
      "Ġpapiers": 5576,
      "ĠÅĵuv": 5577,
      "incapacitÃ©": 5578,
      "Ġsortis": 5579,
      "apprends": 5580,
      "ĠpubliÃ©": 5581,
      "ĠvÃ©rifiÃ©": 5582,
      "Ġhumains": 5583,
      "Ġentendit": 5584,
      "ĠinformÃ©": 5585,
      "Ã©chec": 5586,
      "Ġtransp": 5587,
      "imagin": 5588,
      "Ġtrico": 5589,
      "Ġviolence": 5590,
      "Ġjalouse": 5591,
      "Ġpermett": 5592,
      "entendis": 5593,
      "ĠrÃ©duire": 5594,
      "Ġterriblement": 5595,
      "Ġprofonde": 5596,
      "ĠallumÃ©": 5597,
      "Ġbaisser": 5598,
      "Ġdomicile": 5599,
      "ĠdÃ©roulÃ©": 5600,
      "ĠpÃ¢le": 5601,
      "Ġopportun": 5602,
      "accompagner": 5603,
      "Ġeffectuer": 5604,
      "Ġmiracle": 5605,
      "Ġplafond": 5606,
      "Ġcousin": 5607,
      "habituer": 5608,
      "iaque": 5609,
      "ĠfrÃ©quence": 5610,
      "Ġemmener": 5611,
      "Ġcorriger": 5612,
      "Ġmyst": 5613,
      "ĠinventÃ©": 5614,
      "ĠrÃ©cupÃ©rer": 5615,
      "Ġhein": 5616,
      "Ġjustice": 5617,
      "Ġgueule": 5618,
      "Ġ2013": 5619,
      "ĠrÃ©frigÃ©rateur": 5620,
      "hous": 5621,
      "ias": 5622,
      "roid": 5623,
      "uir": 5624,
      "vis": 5625,
      "ville": 5626,
      "Ġpes": 5627,
      "Ġpeau": 5628,
      "Ġpomp": 5629,
      "Ġdot": 5630,
      "outu": 5631,
      "Ã©f": 5632,
      "Ġciv": 5633,
      "Ġcuit": 5634,
      "Ġamp": 5635,
      "Ġmiens": 5636,
      "ĠfÃªtes": 5637,
      "Ġbel": 5638,
      "Ġbaisse": 5639,
      "ina": 5640,
      "ĠtuÃ©s": 5641,
      "Ġpark": 5642,
      "tive": 5643,
      "chon": 5644,
      "Ġgants": 5645,
      "Ġhall": 5646,
      "Ġdiriez": 5647,
      "Ġvole": 5648,
      "lÃ©ph": 5649,
      "ĠsurvÃ©": 5650,
      "ailles": 5651,
      "Ġfron": 5652,
      "ĠfraÃ®": 5653,
      "Ġappl": 5654,
      "ĠentrÃ©e": 5655,
      "Ġvache": 5656,
      "Ġassieds": 5657,
      "Ġperp": 5658,
      "ĠarrivÃ©es": 5659,
      "espace": 5660,
      "assur": 5661,
      "Ġact": 5662,
      "Ġfinanci": 5663,
      "Ġmanche": 5664,
      "Ġpleuve": 5665,
      "gues": 5666,
      "Ġacheta": 5667,
      "ĠdÃ©cour": 5668,
      "Ġrevienne": 5669,
      "Ġreviendrai": 5670,
      "Ġdoux": 5671,
      "Ġdouble": 5672,
      "allait": 5673,
      "Ġimage": 5674,
      "Ġexplications": 5675,
      "Ġblessure": 5676,
      "Ġchanteuse": 5677,
      "Ġforcer": 5678,
      "Ġnourr": 5679,
      "Ġentrepr": 5680,
      "habiller": 5681,
      "Ġsalon": 5682,
      "Ġinviter": 5683,
      "Ġcontraire": 5684,
      "Ġdispute": 5685,
      "Ġincor": 5686,
      "Ġinconn": 5687,
      "Ġsigner": 5688,
      "adorerais": 5689,
      "Ġverres": 5690,
      "Ġdira": 5691,
      "ĠsautÃ©": 5692,
      "Ġfoudre": 5693,
      "Ġenseigner": 5694,
      "Ġmangea": 5695,
      "Ġmangeons": 5696,
      "ĠsÃ©v": 5697,
      "Ġattrape": 5698,
      "Ġsecrets": 5699,
      "ĠobligÃ©s": 5700,
      "Ġpleuvait": 5701,
      "ĠÃ©levÃ©s": 5702,
      "Ġbattu": 5703,
      "Ġmoral": 5704,
      "Ġtrompe": 5705,
      "Ġsouhaiter": 5706,
      "ĠinquiÃ¨te": 5707,
      "Ã¨vement": 5708,
      "agnol": 5709,
      "Ġsatisfaits": 5710,
      "ĠchoquÃ©": 5711,
      "Ġattir": 5712,
      "ĠintÃ©rÃªt": 5713,
      "ĠeffrayÃ©e": 5714,
      "ĠdÃ©testent": 5715,
      "ĠmÃ©tro": 5716,
      "ĠdÃ©pÃªchez": 5717,
      "Ġcruel": 5718,
      "Ġmillions": 5719,
      "Ġtickets": 5720,
      "Ġfournir": 5721,
      "ĠdÃ©brouiller": 5722,
      "Ġplaces": 5723,
      "Ġlourde": 5724,
      "ĠengagÃ©": 5725,
      "ĠdÃ©terminÃ©": 5726,
      "ĠfÃ¢chÃ©": 5727,
      "aucun": 5728,
      "Ã©lectri": 5729,
      "ĠnaÃ¯f": 5730,
      "Ġjaune": 5731,
      "Ġprotest": 5732,
      "Ġcourageux": 5733,
      "Ġalentours": 5734,
      "Ġsuggestion": 5735,
      "ĠmÃ©tÃ©o": 5736,
      "Ġpsych": 5737,
      "ĠfÃ©lic": 5738,
      "Ġquasiment": 5739,
      "Ġexcellente": 5740,
      "ĠkilomÃ¨tres": 5741,
      "ĠÃ®le": 5742,
      "housias": 5743,
      "ĠsurvÃ©cu": 5744,
      "lit": 5745,
      "otÃ©": 5746,
      "uff": 5747,
      "vard": 5748,
      "ym": 5749,
      "Ġoses": 5750,
      "aides": 5751,
      "Ã©an": 5752,
      "Ġlois": 5753,
      "Ġlut": 5754,
      "Ġti": 5755,
      "Ġtas": 5756,
      "Ġcis": 5757,
      "Ġcot": 5758,
      "Ġcuire": 5759,
      "Ġsonner": 5760,
      "Ġscol": 5761,
      "Ġsonna": 5762,
      "onf": 5763,
      "Ġniv": 5764,
      "Ġvente": 5765,
      "anÃ§a": 5766,
      "aises": 5767,
      "Ġber": 5768,
      "Ġbombe": 5769,
      "Ġrenv": 5770,
      "organ": 5771,
      "Ġchoc": 5772,
      "Ġavert": 5773,
      "Ġpourraient": 5774,
      "Ġparaiss": 5775,
      "Ãªtu": 5776,
      "Ġhos": 5777,
      "agir": 5778,
      "Ġquelcon": 5779,
      "Ġdiam": 5780,
      "Ġdevenus": 5781,
      "ĠrÃ©di": 5782,
      "ĠrÃ©gu": 5783,
      "Ġdiss": 5784,
      "Ġdemeure": 5785,
      "Ã§ait": 5786,
      "ots": 5787,
      "apporter": 5788,
      "Ġexpos": 5789,
      "autom": 5790,
      "Ġvoient": 5791,
      "Ġpassage": 5792,
      "ĠpassÃ©es": 5793,
      "Ġassistance": 5794,
      "emmen": 5795,
      "ĠÃ©crite": 5796,
      "ador": 5797,
      "Ġjouent": 5798,
      "ĠmÃ©d": 5799,
      "ĠmÃ©mor": 5800,
      "ĠpayÃ©e": 5801,
      "Ġvisa": 5802,
      "Ġrever": 5803,
      "Ġapprouv": 5804,
      "Ġemplettes": 5805,
      "ocÃ©an": 5806,
      "Ġconfront": 5807,
      "ĠvoyagÃ©": 5808,
      "Ġcouple": 5809,
      "Ġdouze": 5810,
      "Ġconditions": 5811,
      "Ġpromit": 5812,
      "Ġadmis": 5813,
      "Ġtrouverais": 5814,
      "ĠexpÃ©ri": 5815,
      "Ġexprimer": 5816,
      "Ġroug": 5817,
      "ĠprÃ©sents": 5818,
      "Ġmontagnes": 5819,
      "ĠvÃ©gÃ©t": 5820,
      "Ġfuji": 5821,
      "Ġinst": 5822,
      "Ġinstitutrice": 5823,
      "ĠÃ¢gÃ©es": 5824,
      "Ġsales": 5825,
      "Ġheureusement": 5826,
      "ĠsÃ»rement": 5827,
      "ĠcÃ´te": 5828,
      "ĠrÃªv": 5829,
      "ĠrÃ©flex": 5830,
      "Ġaimait": 5831,
      "attendait": 5832,
      "iendrait": 5833,
      "Ġsuivez": 5834,
      "ĠnÃ©cessaires": 5835,
      "Ġtenta": 5836,
      "Ġoptions": 5837,
      "Ġmagasins": 5838,
      "Ġinterpr": 5839,
      "ĠchargÃ©": 5840,
      "Ġorig": 5841,
      "oiseau": 5842,
      "Ġnoirs": 5843,
      "Ġcentaines": 5844,
      "Ġtraduction": 5845,
      "Ġstyle": 5846,
      "ĠÃ©teins": 5847,
      "azz": 5848,
      "Ġpersonnelle": 5849,
      "Ġcorrecte": 5850,
      "Ġendormie": 5851,
      "excuse": 5852,
      "Ġpoule": 5853,
      "Ġcanadienne": 5854,
      "Ġcommuni": 5855,
      "Ġadorent": 5856,
      "ĠsÃ©journÃ©": 5857,
      "Ġdestination": 5858,
      "Ġressenti": 5859,
      "Ġtendit": 5860,
      "Ġressemblent": 5861,
      "Ġprisonnier": 5862,
      "ĠconsacrÃ©": 5863,
      "Ġgrimper": 5864,
      "Ġcollecti": 5865,
      "ĠgrossiÃ¨re": 5866,
      "ĠamÃ©liorÃ©": 5867,
      "humour": 5868,
      "Ġdrogue": 5869,
      "ĠlÃ¨vres": 5870,
      "Ġreprocher": 5871,
      "ĠÃ©toile": 5872,
      "ĠfrÃ©quent": 5873,
      "ĠdÃ©penser": 5874,
      "ĠcoÃ»tera": 5875,
      "ĠÃ©tasuniens": 5876,
      "Ġaverti": 5877,
      "ĠÃ©paule": 5878,
      "ĠÃ©paules": 5879,
      "ĠfantÃ´mes": 5880,
      "ĠpÃ©riode": 5881,
      "ĠallongÃ©": 5882,
      "Ġtatou": 5883,
      "Ġfurieux": 5884,
      "Ġmarchandises": 5885,
      "Ġciseaux": 5886,
      "Ġquelconques": 5887,
      "ament": 5888,
      "ctron": 5889,
      "drai": 5890,
      "lle": 5891,
      "och": 5892,
      "rud": 5893,
      "tra": 5894,
      "ĠpÃ©r": 5895,
      "Ã©prouv": 5896,
      "eniez": 5897,
      "Ġcasser": 5898,
      "Ġjoin": 5899,
      "Ġjoy": 5900,
      "Ġjazz": 5901,
      "quelles": 5902,
      "Ġnana": 5903,
      "Ġvague": 5904,
      "Ġmirent": 5905,
      "Ġpat": 5906,
      "ĠjetÃ©": 5907,
      "ourdi": 5908,
      "Ġballon": 5909,
      "arc": 5910,
      "orde": 5911,
      "aule": 5912,
      "Ġpourv": 5913,
      "char": 5914,
      "ries": 5915,
      "ricul": 5916,
      "onnant": 5917,
      "ĠgÃ©": 5918,
      "Ġteint": 5919,
      "ĠdÃ©te": 5920,
      "ĠdÃ©lic": 5921,
      "alarme": 5922,
      "Ġvoleurs": 5923,
      "Ġaient": 5924,
      "Ġdevine": 5925,
      "atifs": 5926,
      "Ġsaisi": 5927,
      "dieux": 5928,
      "Ġgram": 5929,
      "gner": 5930,
      "Ġenter": 5931,
      "Ġentour": 5932,
      "Ġmesures": 5933,
      "encre": 5934,
      "ĠimpÃ´ts": 5935,
      "ĠdÃ©sert": 5936,
      "Ġacteur": 5937,
      "ĠrÃ©pand": 5938,
      "Ġfinit": 5939,
      "Ġmanques": 5940,
      "Ġprises": 5941,
      "ĠdÃ©tour": 5942,
      "Ġallais": 5943,
      "Ġconsom": 5944,
      "Ġconsomm": 5945,
      "ĠdÃ©cla": 5946,
      "Ġapprends": 5947,
      "Ġappropri": 5948,
      "atta": 5949,
      "ĠemportÃ©": 5950,
      "ulance": 5951,
      "Ġclas": 5952,
      "ĠcherchÃ©": 5953,
      "Ġpoil": 5954,
      "Ġcondam": 5955,
      "illons": 5956,
      "Ġfactures": 5957,
      "Ġcorresp": 5958,
      "Ġinsc": 5959,
      "Ġentretenir": 5960,
      "ĠtournÃ©": 5961,
      "Ġpolici": 5962,
      "Ġproduise": 5963,
      "Ġincons": 5964,
      "ĠsignÃ©": 5965,
      "Ġlangage": 5966,
      "Ġsaurait": 5967,
      "Ġattendent": 5968,
      "ĠÃ©tudes": 5969,
      "Ġboissons": 5970,
      "Ġinflu": 5971,
      "essayez": 5972,
      "Ġfausse": 5973,
      "Ġraf": 5974,
      "explos": 5975,
      "Ġviendras": 5976,
      "Ġtentative": 5977,
      "ĠdÃ©fi": 5978,
      "ĠdÃ©fin": 5979,
      "Ġrome": 5980,
      "Ġresponsables": 5981,
      "Ġpanier": 5982,
      "Ġsignification": 5983,
      "ĠsuggÃ©": 5984,
      "Ġtraduis": 5985,
      "Ġtraduit": 5986,
      "Ġbarb": 5987,
      "ĠchoquÃ©e": 5988,
      "Ġimpatience": 5989,
      "ĠcuillÃ¨re": 5990,
      "ĠinvitÃ©es": 5991,
      "ĠconsidÃ¨re": 5992,
      "Ġindiff": 5993,
      "ĠignorÃ©": 5994,
      "Ġadorable": 5995,
      "Ġfolles": 5996,
      "Ġcroyait": 5997,
      "Ġfaibles": 5998,
      "Ġdivorcer": 5999,
      "Ġtrahi": 6000,
      "Ġhautement": 6001,
      "ĠsupplÃ©mentaires": 6002,
      "Ġembarrass": 6003,
      "Ġasseyons": 6004,
      "Ġbrosse": 6005,
      "escal": 6006,
      "entiel": 6007,
      "Ġbrillant": 6008,
      "ĠrÃ©ponds": 6009,
      "oblige": 6010,
      "Ġnatale": 6011,
      "Ġclimat": 6012,
      "Ġvictime": 6013,
      "Ġparcourir": 6014,
      "Ġferez": 6015,
      "Ġgorge": 6016,
      "ĠillÃ©gal": 6017,
      "ĠdÃ©tonation": 6018,
      "Ġsoigneusement": 6019,
      "Ġmoderne": 6020,
      "Ġmaternelle": 6021,
      "ĠclÃ´ture": 6022,
      "ĠÃ©goÃ¯ste": 6023,
      "Ã©lectricitÃ©": 6024,
      "Ġniveau": 6025,
      "deur": 6026,
      "lie": 6027,
      "mos": 6028,
      "ving": 6029,
      "Ġpy": 6030,
      "ĠpitiÃ©": 6031,
      "Ġcab": 6032,
      "Ġsoli": 6033,
      "Ġjoie": 6034,
      "quent": 6035,
      "Ġna": 6036,
      "Ġmun": 6037,
      "ĠmÃ¢": 6038,
      "ouss": 6039,
      "ili": 6040,
      "iseur": 6041,
      "Ġblo": 6042,
      "Ã¨tre": 6043,
      "itables": 6044,
      "orn": 6045,
      "Ġtra": 6046,
      "endrier": 6047,
      "avaient": 6048,
      "chÃ©es": 6049,
      "ĠÃ©tendu": 6050,
      "ĠdÃ©n": 6051,
      "agez": 6052,
      "ĠidÃ©": 6053,
      "Ġident": 6054,
      "atrice": 6055,
      "Ġastu": 6056,
      "europe": 6057,
      "anges": 6058,
      "ĠrÃ©chauff": 6059,
      "Ġsurm": 6060,
      "acquÃ©rir": 6061,
      "Ġcontient": 6062,
      "atives": 6063,
      "diez": 6064,
      "Ġcroient": 6065,
      "applique": 6066,
      "Ġenthousias": 6067,
      "Ġtrouvais": 6068,
      "Ġong": 6069,
      "abs": 6070,
      "Ġassist": 6071,
      "Ġlibres": 6072,
      "Ġout": 6073,
      "ĠdonnÃ©e": 6074,
      "Ġactions": 6075,
      "ĠrÃ©put": 6076,
      "Ã©cout": 6077,
      "Ġmiel": 6078,
      "Ġbougies": 6079,
      "gument": 6080,
      "Ġregardait": 6081,
      "Ġlongu": 6082,
      "ctive": 6083,
      "Ġenvoyer": 6084,
      "ĠdÃ©crire": 6085,
      "Ġemporter": 6086,
      "ulte": 6087,
      "ulaires": 6088,
      "Ġabe": 6089,
      "Ġabat": 6090,
      "Ġdoutes": 6091,
      "Ġtermes": 6092,
      "obsc": 6093,
      "Ġadmettre": 6094,
      "Ġaiderai": 6095,
      "ĠrÃ©sol": 6096,
      "Ġpointe": 6097,
      "Ġsurprendre": 6098,
      "ĠintÃ©ressÃ©s": 6099,
      "Ġfortes": 6100,
      "ennuie": 6101,
      "Ġimportance": 6102,
      "Ġgardes": 6103,
      "Ġincendie": 6104,
      "Ġservez": 6105,
      "Ġangleterre": 6106,
      "Ġordre": 6107,
      "ĠespÃ¨re": 6108,
      "Ġaimable": 6109,
      "ĠrÃ©veille": 6110,
      "ĠassistÃ©": 6111,
      "Ġviendrait": 6112,
      "Ġsacs": 6113,
      "enfuir": 6114,
      "ĠcÃ©lÃ©": 6115,
      "ĠfermÃ©es": 6116,
      "ĠresponsabilitÃ©s": 6117,
      "Ġfourchette": 6118,
      "Ġpani": 6119,
      "Ġpann": 6120,
      "ĠnettoyÃ©": 6121,
      "ĠrisquÃ©": 6122,
      "Ġpollu": 6123,
      "Ġjupe": 6124,
      "ĠrÃ©ussite": 6125,
      "Ġmince": 6126,
      "ĠsuggÃ©rÃ©": 6127,
      "Ġpersonnellement": 6128,
      "ĠpoussÃ©": 6129,
      "ĠÃ©pouser": 6130,
      "raÃ®ch": 6131,
      "odeur": 6132,
      "ĠpublicitÃ©": 6133,
      "ĠsÃ©journer": 6134,
      "ĠamÃ©ricaine": 6135,
      "Ġpareil": 6136,
      "ĠorganisÃ©": 6137,
      "ĠdivorcÃ©": 6138,
      "Ġplaisanterie": 6139,
      "ĠpersuadÃ©": 6140,
      "Ġremplir": 6141,
      "ĠprÃ©tendu": 6142,
      "ĠmaÃ®tre": 6143,
      "ĠdÃ©terminer": 6144,
      "Ġancien": 6145,
      "Ġscientifiques": 6146,
      "Ġintime": 6147,
      "Ġconducteur": 6148,
      "ĠobÃ©ir": 6149,
      "Ġmanuel": 6150,
      "Ġharvard": 6151,
      "Ġterrifi": 6152,
      "Ġdorment": 6153,
      "Ġprofessionnel": 6154,
      "ennuyer": 6155,
      "Ġambitieux": 6156,
      "Ġtechn": 6157,
      "Ġprocurer": 6158,
      "Ġcardiaque": 6159,
      "Ġdissim": 6160,
      "Ġsimilaire": 6161,
      "Ġcourriel": 6162,
      "Ġpull": 6163,
      "automne": 6164,
      "ĠvÃ©gÃ©tar": 6165,
      "Ġtatouage": 6166,
      "Ġclassique": 6167,
      "explosion": 6168,
      "heures": 6169,
      "lor": 6170,
      "ov": 6171,
      "venir": 6172,
      "Ġours": 6173,
      "Ġpus": 6174,
      "Ġlancer": 6175,
      "Ġtendu": 6176,
      "ĠcÃ´t": 6177,
      "Ġste": 6178,
      "Ġsites": 6179,
      "Ġdettes": 6180,
      "Ġpattes": 6181,
      "Ġfan": 6182,
      "Ġfain": 6183,
      "Ġfuite": 6184,
      "entions": 6185,
      "omis": 6186,
      "aison": 6187,
      "Ġunes": 6188,
      "Ġband": 6189,
      "Ġrum": 6190,
      "Ġrenf": 6191,
      "Ġrusse": 6192,
      "Ã¨nes": 6193,
      "arrang": 6194,
      "Ġsuit": 6195,
      "Ã©tiez": 6196,
      "Ġchaises": 6197,
      "Ġavancer": 6198,
      "autÃ©": 6199,
      "tible": 6200,
      "Ġauraient": 6201,
      "onnerai": 6202,
      "Ġrequ": 6203,
      "tesse": 6204,
      "aly": 6205,
      "ositÃ©": 6206,
      "Ġsep": 6207,
      "ĠÃªtres": 6208,
      "Ġmontez": 6209,
      "irais": 6210,
      "Ġsiff": 6211,
      "amuse": 6212,
      "attrap": 6213,
      "Ġprog": 6214,
      "Ġdeviens": 6215,
      "oupes": 6216,
      "Ġpensons": 6217,
      "Ã©rent": 6218,
      "Ġserions": 6219,
      "Ġserrure": 6220,
      "tern": 6221,
      "ota": 6222,
      "ueill": 6223,
      "Ġdirect": 6224,
      "essai": 6225,
      "Ġtrouvons": 6226,
      "abe": 6227,
      "Ġparlerai": 6228,
      "Ġallergique": 6229,
      "Ġdemandai": 6230,
      "Ġdonnes": 6231,
      "ignez": 6232,
      "Ġsoucis": 6233,
      "Ã©crit": 6234,
      "ĠdÃ©tendu": 6235,
      "ĠmÃ©ch": 6236,
      "expos": 6237,
      "ĠdÃ©cor": 6238,
      "Ġconfond": 6239,
      "Ġconditi": 6240,
      "objet": 6241,
      "ĠcouchÃ©": 6242,
      "Ġprofit": 6243,
      "Ġrecr": 6244,
      "Ġcode": 6245,
      "ĠhabillÃ©e": 6246,
      "Ġautrement": 6247,
      "Ġmoto": 6248,
      "Ġpoing": 6249,
      "Ġcommencent": 6250,
      "Ġgrosses": 6251,
      "Ġlitt": 6252,
      "Ġmusicien": 6253,
      "olet": 6254,
      "Ġdisposent": 6255,
      "Ġconcern": 6256,
      "Ġsalu": 6257,
      "Ġcaptu": 6258,
      "Ġstress": 6259,
      "Ġutilise": 6260,
      "ĠÂ».": 6261,
      "ĠamusÃ©es": 6262,
      "Ġgenoux": 6263,
      "Ġmodi": 6264,
      "Ġsoucier": 6265,
      "Ġrepose": 6266,
      "Ġcalmes": 6267,
      "Ġoffrir": 6268,
      "ĠcriÃ©": 6269,
      "Ġreproche": 6270,
      "Ġpoison": 6271,
      "ĠobligÃ©es": 6272,
      "Ġsoins": 6273,
      "ĠÃ©lectron": 6274,
      "Ġbataille": 6275,
      "Ġpoussi": 6276,
      "Ġplaintes": 6277,
      "Ġdevenues": 6278,
      "Ġmiennes": 6279,
      "Ġmignons": 6280,
      "Ġcamper": 6281,
      "Ġtels": 6282,
      "ĠnÃ©gligent": 6283,
      "Ġattentif": 6284,
      "Ġcanada": 6285,
      "Ġnavi": 6286,
      "ĠbrÃ»le": 6287,
      "Ġmilliers": 6288,
      "ĠlÃ¢chez": 6289,
      "Ġcherchait": 6290,
      "Ġchinoise": 6291,
      "offre": 6292,
      "Ġpermettez": 6293,
      "Ġ50": 6294,
      "Ġoccas": 6295,
      "ĠdÃ©primÃ©e": 6296,
      "ĠsiÃ¨cle": 6297,
      "Ġdivorce": 6298,
      "Ġpronon": 6299,
      "Ġfantastique": 6300,
      "Ġmaths": 6301,
      "Ġplacard": 6302,
      "Ġconstitu": 6303,
      "ĠbaissÃ©": 6304,
      "Ġconsacrer": 6305,
      "Ġexaminer": 6306,
      "ingues": 6307,
      "Ġgaspiller": 6308,
      "Ġcommerce": 6309,
      "Ġgratuit": 6310,
      "Ġvoisinage": 6311,
      "ĠsoulagÃ©": 6312,
      "ĠprÃ©occupe": 6313,
      "Ġponctuel": 6314,
      "Ġcitoy": 6315,
      "Ġlapin": 6316,
      "ĠmodÃ¨le": 6317,
      "ĠpÃ©trin": 6318,
      "ĠpÃ©trole": 6319,
      "Ġcriminel": 6320,
      "Ġadultes": 6321,
      "ĠdÃ©robÃ©": 6322,
      "ĠpoignÃ©e": 6323,
      "Ġserpents": 6324,
      "Ġintrod": 6325,
      "ĠsucrÃ©": 6326,
      "Ġexcitant": 6327,
      "Ġattirante": 6328,
      "ĠrafraÃ®ch": 6329,
      "Ġlongueur": 6330,
      "ĠcÃ©lÃ©b": 6331,
      "ĠcÃ´tÃ©s": 6332,
      "his": 6333,
      "ip": 6334,
      "ker": 6335,
      "ls": 6336,
      "ly": 6337,
      "lande": 6338,
      "ril": 6339,
      "york": 6340,
      "Ġtaire": 6341,
      "Ġsm": 6342,
      "Ġsien": 6343,
      "Ġjoign": 6344,
      "Ġner": 6345,
      "Ġmass": 6346,
      "Ġmout": 6347,
      "ermÃ©": 6348,
      "Ġdette": 6349,
      "anitÃ©": 6350,
      "Ġfar": 6351,
      "Ġfri": 6352,
      "isant": 6353,
      "Ġlace": 6354,
      "Ġbol": 6355,
      "Ġbass": 6356,
      "itif": 6357,
      "ĠenquÃªte": 6358,
      "Ġprennent": 6359,
      "Ã©tit": 6360,
      "Ã©tions": 6361,
      "ĠchÃ¨que": 6362,
      "tiens": 6363,
      "rira": 6364,
      "onnelle": 6365,
      "cieuses": 6366,
      "ĠÃ©tonnÃ©": 6367,
      "Ġred": 6368,
      "Ġrequis": 6369,
      "Ġretenu": 6370,
      "Ġho": 6371,
      "Ġher": 6372,
      "alÃ©": 6373,
      "Ġseau": 6374,
      "agent": 6375,
      "uies": 6376,
      "Ġot": 6377,
      "Ġdevin": 6378,
      "Ġdevras": 6379,
      "ĠÃ©co": 6380,
      "Ġsurveille": 6381,
      "orta": 6382,
      "orth": 6383,
      "Ġindis": 6384,
      "uisent": 6385,
      "cope": 6386,
      "opÃ©": 6387,
      "Ġcommentaire": 6388,
      "oyÃ©es": 6389,
      "auteur": 6390,
      "Ġbesoins": 6391,
      "Ġvies": 6392,
      "Ġpartirai": 6393,
      "Ġfaisant": 6394,
      "encer": 6395,
      "tence": 6396,
      "Ġlaissons": 6397,
      "ĠrÃ©pÃ©t": 6398,
      "Åĵuf": 6399,
      "Ġregardant": 6400,
      "ĠachetÃ©e": 6401,
      "ĠconsÃ©qu": 6402,
      "ĠmÃ©l": 6403,
      "ĠrÃ©pondez": 6404,
      "Ġrendons": 6405,
      "Ġrendrait": 6406,
      "ĠdÃ©pit": 6407,
      "institutrice": 6408,
      "idemment": 6409,
      "itez": 6410,
      "Ġcondition": 6411,
      "Ġprofiter": 6412,
      "Ġtrouveras": 6413,
      "Ġcollier": 6414,
      "Ġcarottes": 6415,
      "ĠÃ©tudies": 6416,
      "Ġsurprenant": 6417,
      "Ġappellerai": 6418,
      "Ġgagn": 6419,
      "Ġaccent": 6420,
      "Ġnourri": 6421,
      "ĠprÃ©voir": 6422,
      "Ġrespirer": 6423,
      "Ġobser": 6424,
      "Ġtouristes": 6425,
      "apprÃ©cient": 6426,
      "Ġvive": 6427,
      "Ġ18": 6428,
      "ĠÃ©pic": 6429,
      "Ġvenais": 6430,
      "Ġconfiant": 6431,
      "Ġexacte": 6432,
      "ĠmÃ©decine": 6433,
      "Ġtraversa": 6434,
      "ĠrÃªvÃ©": 6435,
      "Ġenseignants": 6436,
      "Ġagressi": 6437,
      "ĠÃ©coulÃ©": 6438,
      "Ġabsente": 6439,
      "Ġcalcu": 6440,
      "Ġdessous": 6441,
      "ĠoffensÃ©": 6442,
      "Ġreprises": 6443,
      "Ġjournaliste": 6444,
      "envir": 6445,
      "Ġtypes": 6446,
      "ĠtÃ©lÃ©viseur": 6447,
      "ĠopÃ©ration": 6448,
      "Ġmoyenne": 6449,
      "Ġsurvivre": 6450,
      "Ġfrappe": 6451,
      "Ġdistrait": 6452,
      "Ġpousse": 6453,
      "oublier": 6454,
      "Ġhumide": 6455,
      "Ġeffront": 6456,
      "annÃ©es": 6457,
      "ĠpossÃ©": 6458,
      "Ġatter": 6459,
      "Ġmenace": 6460,
      "ĠprÃªterai": 6461,
      "ĠmouillÃ©": 6462,
      "Ġpleura": 6463,
      "Ġafrique": 6464,
      "Ġsouvenirs": 6465,
      "Ġmillion": 6466,
      "ĠaugmentÃ©": 6467,
      "Ġverrouiller": 6468,
      "ĠverrouillÃ©e": 6469,
      "ĠamÃ©ricains": 6470,
      "Ġmeurt": 6471,
      "Ġpatiente": 6472,
      "Ġrecommanda": 6473,
      "Ġcurieuse": 6474,
      "Ġpermet": 6475,
      "Ġveiller": 6476,
      "ĠrÃ©duit": 6477,
      "Ġdescendit": 6478,
      "ĠlÃ©gÃ¨rement": 6479,
      "ĠcensÃ©s": 6480,
      "ĠcuisiniÃ¨re": 6481,
      "Ġcollection": 6482,
      "ĠeffectuÃ©": 6483,
      "Ġcandidat": 6484,
      "Ġcandidature": 6485,
      "ĠembarrassÃ©": 6486,
      "Ġgratuitement": 6487,
      "ĠdÃ©clarÃ©": 6488,
      "Ġprofondeur": 6489,
      "ĠrÃ©server": 6490,
      "ĠdÃ©penses": 6491,
      "Ġpromettre": 6492,
      "Ġpromettez": 6493,
      "ĠsecrÃ¨te": 6494,
      "Ġmaigre": 6495,
      "ĠrejetÃ©": 6496,
      "ĠfantÃ´me": 6497,
      "Ġguide": 6498,
      "ĠempÃªchÃ©": 6499,
      "ĠcÃ¢lin": 6500,
      "ĠbriÃ¨vement": 6501,
      "Ġgalerie": 6502,
      "Ġgrenier": 6503,
      "maci": 6504,
      "Ġbanane": 6505,
      "hÃ©sitez": 6506,
      "Ġassurez": 6507,
      "Ġtexte": 6508,
      "ĠrenversÃ©": 6509,
      "Ġpharmaci": 6510,
      "ĠdÃ©lai": 6511,
      "Ġsympathique": 6512,
      "huile": 6513,
      "Ġjumeaux": 6514,
      "Ġsauta": 6515,
      "quipage": 6516,
      "ĠheurtÃ©": 6517,
      "ĠvÃ©hicule": 6518,
      "Ġpelouse": 6519,
      "Ã©clair": 6520,
      "Ġdouloureux": 6521,
      "Ġpistolet": 6522,
      "honnÃªtetÃ©": 6523,
      "ĠfrontiÃ¨re": 6524,
      "ĠfraÃ®che": 6525,
      "Ġgramm": 6526,
      "Ġpoliciers": 6527,
      "obscuritÃ©": 6528,
      "Ġpanneau": 6529,
      "Ġsteak": 6530,
      "ĠconditionnÃ©": 6531,
      ".Â»": 6532,
      "ba": 6533,
      "cons": 6534,
      "gÃ¨ne": 6535,
      "hir": 6536,
      "ple": 6537,
      "rants": 6538,
      "rÃ¨rent": 6539,
      "va": 6540,
      "vaisselle": 6541,
      "Ġ000": 6542,
      "ĠpÃ©": 6543,
      "Ġpoi": 6544,
      "Ġdon": 6545,
      "ouest": 6546,
      "Ã©tez": 6547,
      "ĠlanÃ§a": 6548,
      "Ġtal": 6549,
      "Ġtab": 6550,
      "Ġscep": 6551,
      "Ġjure": 6552,
      "Ġjum": 6553,
      "ondu": 6554,
      "Ġaraign": 6555,
      "Ġnue": 6556,
      "ĠnÃ´tre": 6557,
      "Ġmu": 6558,
      "Ġmouv": 6559,
      "ĠmÃ¨ne": 6560,
      "Ġquart": 6561,
      "Ġfre": 6562,
      "leure": 6563,
      "isage": 6564,
      "istr": 6565,
      "Ġbe": 6566,
      "Ġbav": 6567,
      "Ġbul": 6568,
      "Ġboite": 6569,
      "Ġrand": 6570,
      "Ġrock": 6571,
      "Ġench": 6572,
      "Ġprenne": 6573,
      "Ã©tat": 6574,
      "Ã©tang": 6575,
      "Ġchim": 6576,
      "Ġparten": 6577,
      "Ġparliez": 6578,
      "tiers": 6579,
      "Ġplastique": 6580,
      "ription": 6581,
      "ĠÃ©tend": 6582,
      "Ġgau": 6583,
      "ĠgÃ©rant": 6584,
      "Ġreb": 6585,
      "Ġhom": 6586,
      "ĠdansÃ©": 6587,
      "amie": 6588,
      "lerait": 6589,
      "atÃ©": 6590,
      "Ġprote": 6591,
      "Ġdigne": 6592,
      "Ġodeur": 6593,
      "ĠdevinÃ©": 6594,
      "ĠÃ©lÃ©ph": 6595,
      "dix": 6596,
      "Ġpouvaient": 6597,
      "Ġcriti": 6598,
      "Ġcraint": 6599,
      "appelles": 6600,
      "Ġexig": 6601,
      "cure": 6602,
      "Ġvict": 6603,
      "Ġattrib": 6604,
      "Ġpassons": 6605,
      "Ġassass": 6606,
      "Ġassurer": 6607,
      "Ġcomporter": 6608,
      "Ġenfui": 6609,
      "ĠouÃ¯": 6610,
      "Ġfauteu": 6611,
      "Ġcourus": 6612,
      "Ġpost": 6613,
      "Ġposition": 6614,
      "Ġjouais": 6615,
      "Ġjouets": 6616,
      "Ġessai": 6617,
      "Ġessaies": 6618,
      "tro": 6619,
      "Ġmanip": 6620,
      "Ġboutique": 6621,
      "guer": 6622,
      "Ġregardais": 6623,
      "Ġchaleure": 6624,
      "ĠdÃ©cro": 6625,
      "Ġsuppli": 6626,
      "Ġrevient": 6627,
      "Ġphras": 6628,
      "Ġrendiez": 6629,
      "phÃ¨re": 6630,
      "phab": 6631,
      "Ġclar": 6632,
      "accorder": 6633,
      "ĠpoÃ¨te": 6634,
      "Ġterm": 6635,
      "Ġadress": 6636,
      "Ġcouche": 6637,
      "issage": 6638,
      "Ġcommences": 6639,
      "ĠÃ©tudiantes": 6640,
      "Ġvoisine": 6641,
      "ĠportÃ©e": 6642,
      "Ġfamilles": 6643,
      "Ġchemises": 6644,
      "ĠprÃ©venue": 6645,
      "Ġobjet": 6646,
      "Ġtourn": 6647,
      "Ġtournez": 6648,
      "ĠdisposÃ©e": 6649,
      "Ġsalut": 6650,
      "Ġgarderai": 6651,
      "Ġfeuille": 6652,
      "Ġincomp": 6653,
      "Ġquitta": 6654,
      "Ġgentlem": 6655,
      "Ġprudence": 6656,
      "Ġprofesseurs": 6657,
      "Ġsourd": 6658,
      "Ġendroits": 6659,
      "ĠgÃ¢teaux": 6660,
      "Ġfonctionn": 6661,
      "Ġreprendre": 6662,
      "Ġtentation": 6663,
      "Ġsurvenir": 6664,
      "ĠboÃ®tes": 6665,
      "ĠfiertÃ©": 6666,
      "Ġdiminu": 6667,
      "ĠchargÃ©e": 6668,
      "Ġorange": 6669,
      "Ġballes": 6670,
      "ĠsupposÃ©s": 6671,
      "Ġretirez": 6672,
      "Ã©paule": 6673,
      "Ġdescendu": 6674,
      "Ġremarqu": 6675,
      "Ġdangereuse": 6676,
      "Ġnia": 6677,
      "ĠcamÃ©ra": 6678,
      "Ġfermement": 6679,
      "ĠcoincÃ©": 6680,
      "Ġsecondes": 6681,
      "Ġentendus": 6682,
      "Ġbasket": 6683,
      "Ġiras": 6684,
      "Ġpardon": 6685,
      "Ġmurs": 6686,
      "Ġpreniez": 6687,
      "Ġaccompag": 6688,
      "Ġaccomplir": 6689,
      "Ġouvertes": 6690,
      "ĠsoupÃ§": 6691,
      "Ġpatients": 6692,
      "Ġlibrai": 6693,
      "important": 6694,
      "ĠdÃ©sirez": 6695,
      "ĠÃ©moti": 6696,
      "Ġinnocence": 6697,
      "ophone": 6698,
      "Ġsuicider": 6699,
      "ligence": 6700,
      "ĠtÃ¢ches": 6701,
      "Ġclefs": 6702,
      "ĠdÃ©sespÃ©rÃ©": 6703,
      "Ġsoulever": 6704,
      "ĠrÃ©servation": 6705,
      "ĠachevÃ©": 6706,
      "Ġmaigri": 6707,
      "ĠÃ©chouer": 6708,
      "Ġsoutien": 6709,
      "Ġsinon": 6710,
      "Ġadulte": 6711,
      "Ġbananes": 6712,
      "Ġfavori": 6713,
      "ĠadoptÃ©": 6714,
      "amÃ©liorer": 6715,
      "Ġhypoth": 6716,
      "ĠrelÃ¢": 6717,
      "Ġgosse": 6718,
      "Ġcamarades": 6719,
      "origine": 6720,
      "Ġchuch": 6721,
      "ĠdÃ©poser": 6722,
      "immeuble": 6723,
      "ĠmystÃ¨re": 6724,
      "ĠdotÃ©e": 6725,
      "Ġactrice": 6726,
      "Ġorigin": 6727,
      "Ġongles": 6728,
      "essaierai": 6729,
      "Ġnerfs": 6730,
      "Ġmoutons": 6731,
      "Ġphrases": 6732,
      "Ġgentleman": 6733,
      "adi": 6734,
      "bi": 6735,
      "bler": 6736,
      "bÃ©c": 6737,
      "fie": 6738,
      "fic": 6739,
      "ieuse": 6740,
      "lons": 6741,
      "mÃ©s": 6742,
      "non": 6743,
      "nÃ©s": 6744,
      "wa": 6745,
      "Ġoign": 6746,
      "ĠpÃ¨se": 6747,
      "enver": 6748,
      "ĠlancÃ©": 6749,
      "Ġtail": 6750,
      "Ġtig": 6751,
      "Ġcauche": 6752,
      "ĠsoÃ»": 6753,
      "quatre": 6754,
      "Ġnier": 6755,
      "Ġnoire": 6756,
      "ĠnoyÃ©": 6757,
      "ĠvÃ´tres": 6758,
      "Ġmand": 6759,
      "Ġjeun": 6760,
      "Ġjetez": 6761,
      "ilÃ©": 6762,
      "ane": 6763,
      "Ġflot": 6764,
      "Ġlas": 6765,
      "Ġbud": 6766,
      "Ġruss": 6767,
      "Ã¨mes": 6768,
      "ara": 6769,
      "Ġprier": 6770,
      "Ġprinc": 6771,
      "Ġprennes": 6772,
      "oritÃ©s": 6773,
      "Ġtraitement": 6774,
      "ĠchÃ´": 6775,
      "audit": 6776,
      "endrai": 6777,
      "Ġgre": 6778,
      "Ġgym": 6779,
      "Ġsuisse": 6780,
      "Ġrecu": 6781,
      "ĠhÃ©s": 6782,
      "ĠdÃ©cevoir": 6783,
      "ames": 6784,
      "amies": 6785,
      "ater": 6786,
      "ĠdurÃ©": 6787,
      "Ġvote": 6788,
      "Ġaig": 6789,
      "Ġdevra": 6790,
      "Ġdeviendra": 6791,
      "ĠÃ©vÃ©": 6792,
      "sier": 6793,
      "urr": 6794,
      "Ġsonger": 6795,
      "uisit": 6796,
      "ĠamÃ¨ne": 6797,
      "Ġcro": 6798,
      "Ã®n": 6799,
      "otte": 6800,
      "Ġtravailleurs": 6801,
      "Ġentrez": 6802,
      "ĠprÃ©cÃ©": 6803,
      "Ġvoies": 6804,
      "Ġperf": 6805,
      "Ġperman": 6806,
      "Ġcompare": 6807,
      "ĠarrivÃ¨rent": 6808,
      "ĠÃ©car": 6809,
      "espagne": 6810,
      "ĠrÃ©pare": 6811,
      "adap": 6812,
      "errement": 6813,
      "Ġjoueurs": 6814,
      "Ã©criv": 6815,
      "ĠtÃ©moi": 6816,
      "Ġboue": 6817,
      "Ġbouill": 6818,
      "ĠtÃ©lÃ©char": 6819,
      "Ġsouvient": 6820,
      "ĠmÃ©di": 6821,
      "ĠdÃ©cÃ¨s": 6822,
      "Ġvisible": 6823,
      "ultÃ©": 6824,
      "Ġrich": 6825,
      "Ġcouleurs": 6826,
      "Ġentendues": 6827,
      "Ġconseiller": 6828,
      "Ġouvri": 6829,
      "Ġcarb": 6830,
      "ĠÃ©tudiez": 6831,
      "ĠintÃ©ressÃ©es": 6832,
      "mission": 6833,
      "Ġaccus": 6834,
      "Ġnourris": 6835,
      "apprÃ©cier": 6836,
      "Ġconclu": 6837,
      "cinq": 6838,
      "ĠprÃ©senta": 6839,
      "Ġquittez": 6840,
      "Ġverrais": 6841,
      "Ġversion": 6842,
      "Ġmoquer": 6843,
      "Ġsauve": 6844,
      "Ġattendit": 6845,
      "ĠsÃ©p": 6846,
      "Ġsource": 6847,
      "ouverture": 6848,
      "Ġraff": 6849,
      "Ġcontentes": 6850,
      "ĠversÃ©": 6851,
      "Ġsuivante": 6852,
      "Ġrepris": 6853,
      "oÃ»t": 6854,
      "Ġchangera": 6855,
      "ĠdÃ©fun": 6856,
      "igme": 6857,
      "ĠfrappÃ©e": 6858,
      "Ġpolie": 6859,
      "Ġbatterie": 6860,
      "Ġjuin": 6861,
      "Ġtrompes": 6862,
      "Ġayant": 6863,
      "Ã©trange": 6864,
      "Ġremarquer": 6865,
      "Ġrattrap": 6866,
      "dessous": 6867,
      "Ġhumain": 6868,
      "Ã©vidence": 6869,
      "Ġcible": 6870,
      "Ġapparemment": 6871,
      "Ġregrett": 6872,
      "ĠdÃ©guis": 6873,
      "ĠÃ©teignez": 6874,
      "Ġendormis": 6875,
      "ĠpardonnÃ©": 6876,
      "Ġguitar": 6877,
      "Ġchangea": 6878,
      "Ġconstruire": 6879,
      "ĠpressÃ©e": 6880,
      "ĠarrÃªtons": 6881,
      "Ġtranquilles": 6882,
      "ĠconsidÃ©ration": 6883,
      "ĠprivÃ©e": 6884,
      "Ġmillionnaire": 6885,
      "Ġnormale": 6886,
      "ĠadorÃ©": 6887,
      "ologue": 6888,
      "ĠdÃ©missionnÃ©": 6889,
      "Ġmorceaux": 6890,
      "ĠmÃ©ritez": 6891,
      "Ġmanquent": 6892,
      "Ġressembles": 6893,
      "Ġsoldat": 6894,
      "Ġdescendez": 6895,
      "Ġnaturelle": 6896,
      "Ġadvienne": 6897,
      "ĠdÃ©roule": 6898,
      "eloppe": 6899,
      "ĠÃ©clatÃ©": 6900,
      "ĠsuicidÃ©": 6901,
      "udemment": 6902,
      "Ġamener": 6903,
      "ĠfÃ¢chÃ©e": 6904,
      "ĠprÃ©cipit": 6905,
      "ĠrÃ©vÃ©la": 6906,
      "humanitÃ©": 6907,
      "Ġkilos": 6908,
      "ĠretrouvÃ©": 6909,
      "Ġsurvivants": 6910,
      "Ġdocuments": 6911,
      "ĠsecrÃ©taire": 6912,
      "tivitÃ©": 6913,
      "approche": 6914,
      "ĠsincÃ¨re": 6915,
      "ĠrÃ©side": 6916,
      "ĠpropriÃ©tÃ©": 6917,
      "Ġpilote": 6918,
      "thme": 6919,
      "Ġraccour": 6920,
      "Ġmicro": 6921,
      "Ġenregistre": 6922,
      "Ġvisiteurs": 6923,
      "Ġfichier": 6924,
      "Ġgravement": 6925,
      "Ġcharmant": 6926,
      "Ġsurpoids": 6927,
      "Ġinhabituel": 6928,
      "Ġmalchanceux": 6929,
      "ĠsÃ¨che": 6930,
      "Ġincorre": 6931,
      "Ġhospital": 6932,
      "emmener": 6933,
      "ĠcondamnÃ©": 6934,
      "Ġinconsci": 6935,
      "mosphÃ¨re": 6936,
      "ĠrÃ©putation": 6937,
      "Ġrumeurs": 6938,
      "ĠpoussiÃ¨re": 6939,
      "Ġprotection": 6940,
      "ĠhypothÃ¨se": 6941,
      "Ġoignons": 6942,
      "Ġcauchemar": 6943,
      "Ġjeunesse": 6944,
      "fort": 6945,
      "get": 6946,
      "gation": 6947,
      "iz": 6948,
      "iÃ©s": 6949,
      "imÃ©": 6950,
      "mage": 6951,
      "otions": 6952,
      "ran": 6953,
      "rÃ©t": 6954,
      "ram": 6955,
      "rages": 6956,
      "tait": 6957,
      "tile": 6958,
      "tout": 6959,
      "valent": 6960,
      "ythme": 6961,
      "Ġitalie": 6962,
      "Ġpendu": 6963,
      "Ġdingues": 6964,
      "Ġlux": 6965,
      "Ġlaid": 6966,
      "Ġtint": 6967,
      "Ġtira": 6968,
      "Ġcord": 6969,
      "Ġcoc": 6970,
      "Ġstr": 6971,
      "Ġsing": 6972,
      "ĠniÃ©": 6973,
      "Ġmaux": 6974,
      "erse": 6975,
      "Ġpag": 6976,
      "Ġjeudi": 6977,
      "iler": 6978,
      "anÃ§": 6979,
      "Ġfie": 6980,
      "Ġfaille": 6981,
      "Ġfrig": 6982,
      "Ġ?Â»": 6983,
      "istence": 6984,
      "Ġunif": 6985,
      "Ġbre": 6986,
      "Ġbande": 6987,
      "Ġbaleine": 6988,
      "ĠbÅĵuf": 6989,
      "Ġray": 6990,
      "Ġrythme": 6991,
      "Ã¨ques": 6992,
      "itive": 6993,
      "intes": 6994,
      "Ġpros": 6995,
      "Ġprudemment": 6996,
      "ortes": 6997,
      "Ġchasse": 6998,
      "ĠavisÃ©": 6999,
      "Ġavril": 7000,
      "Ġmex": 7001,
      "Ġplaire": 7002,
      "Ġplats": 7003,
      "ĠÃ©tab": 7004,
      "ĠÃ©tern": 7005,
      "ouvrez": 7006,
      "Ġrepar": 7007,
      "Ġhu": 7008,
      "Ġhy": 7009,
      "Ġhil": 7010,
      "Ġhais": 7011,
      "ĠhaÃ¯": 7012,
      "ĠdÃ©je": 7013,
      "ĠdÃ©ver": 7014,
      "ago": 7015,
      "agÃ¨res": 7016,
      "ash": 7017,
      "irait": 7018,
      "amitiÃ©": 7019,
      "Ġdevrez": 7020,
      "ĠÃ©du": 7021,
      "ĠintÃ©": 7022,
      "Ġsonge": 7023,
      "Ġsaisir": 7024,
      "Ġamer": 7025,
      "diction": 7026,
      "Ġgras": 7027,
      "aper": 7028,
      "opinion": 7029,
      "Ġexer": 7030,
      "ĠentrÃ©s": 7031,
      "ĠprÃ©cieux": 7032,
      "Ġvoulut": 7033,
      "Ġferont": 7034,
      "Ġmalheur": 7035,
      "Ġcommet": 7036,
      "Ġpassent": 7037,
      "ĠbondÃ©": 7038,
      "Ġpuisque": 7039,
      "ormÃ©ment": 7040,
      "Ġdemanderai": 7041,
      "Ġimpoli": 7042,
      "assÃ©es": 7043,
      "ĠdÃ©sorient": 7044,
      "Ġsouli": 7045,
      "Ġnomme": 7046,
      "Ġfinie": 7047,
      "Ġbrit": 7048,
      "arrivera": 7049,
      "Ġsoirs": 7050,
      "Ġenvoyez": 7051,
      "ĠmÃ©prise": 7052,
      "ĠpayÃ©s": 7053,
      "Ġvoyages": 7054,
      "ĠdÃ©pense": 7055,
      "Ġabas": 7056,
      "Ġpoker": 7057,
      "obilier": 7058,
      "ĠcoulÃ©": 7059,
      "Ġchangent": 7060,
      "Ġrecord": 7061,
      "Ġchambres": 7062,
      "ĠmariÃ©es": 7063,
      "Ġcook": 7064,
      "iciens": 7065,
      "Ġautrefois": 7066,
      "Ġrouler": 7067,
      "ĠrÃ©sister": 7068,
      "Ġaffecte": 7069,
      "Ġcaract": 7070,
      "Ġmentent": 7071,
      "Ġdormait": 7072,
      "Ġconnaissiez": 7073,
      "estement": 7074,
      "Ġretourna": 7075,
      "Ġmises": 7076,
      "Ġoublia": 7077,
      "ĠbiÃ¨res": 7078,
      "ĠcapacitÃ©": 7079,
      "Ġvitre": 7080,
      "idable": 7081,
      "Ġ15": 7082,
      "ĠÃ©poux": 7083,
      "Ġstatu": 7084,
      "ĠutilitÃ©": 7085,
      "Ġparvenue": 7086,
      "Ġparvenus": 7087,
      "Ġvenons": 7088,
      "Ġemployer": 7089,
      "Ġamuser": 7090,
      "ĠguÃ©ri": 7091,
      "Ġmoti": 7092,
      "Ġsauce": 7093,
      "Ġsaura": 7094,
      "ĠÃ©gar": 7095,
      "Ġinformer": 7096,
      "uya": 7097,
      "ĠaimÃ©e": 7098,
      "ĠrÃ©veil": 7099,
      "Ġcalmer": 7100,
      "Ġviendrais": 7101,
      "ographe": 7102,
      "Ġsatisfaire": 7103,
      "Ġoptim": 7104,
      "ĠÃ©vanou": 7105,
      "ĠÃ©videmment": 7106,
      "Ġtempor": 7107,
      "Ġoranges": 7108,
      "Ġfallut": 7109,
      "Ġperdez": 7110,
      "Ġexpliqua": 7111,
      "ĠvÃ©rifie": 7112,
      "Ã©coutes": 7113,
      "Ġignorer": 7114,
      "Ġsatisfaites": 7115,
      "Ġministre": 7116,
      "ĠprÃ©parÃ©e": 7117,
      "Ġporc": 7118,
      "ĠpersonnalitÃ©": 7119,
      "ĠpossÃ©d": 7120,
      "ĠbÃ¢timents": 7121,
      "ĠformÃ©": 7122,
      "Ġformidable": 7123,
      "Ġneuve": 7124,
      "Ġintentions": 7125,
      "Ġatteignit": 7126,
      "Ġconstruction": 7127,
      "Ġzone": 7128,
      "Ġpresser": 7129,
      "ĠarrÃªta": 7130,
      "imaginer": 7131,
      "ĠrespectÃ©": 7132,
      "Ġindique": 7133,
      "ĠpauvretÃ©": 7134,
      "Ġattaque": 7135,
      "Ġceris": 7136,
      "Ġcircons": 7137,
      "Ġlevez": 7138,
      "Ġaccompagner": 7139,
      "enseigne": 7140,
      "Ġusa": 7141,
      "ĠverrouillÃ©": 7142,
      "Ġmeurent": 7143,
      "Ġcrayons": 7144,
      "Ġvolontaires": 7145,
      "ĠeuropÃ©": 7146,
      "ĠcuriositÃ©": 7147,
      "Ġfonds": 7148,
      "Ġlocal": 7149,
      "ĠdÃ©mÃ©nage": 7150,
      "Ġdiplom": 7151,
      "ĠdÃ©licieuse": 7152,
      "olique": 7153,
      "Ġmanquez": 7154,
      "ĠÃ©veillÃ©e": 7155,
      "Ġrompre": 7156,
      "Ġadvenu": 7157,
      "Ġimmeuble": 7158,
      "Ġdomaine": 7159,
      "ĠmÃ©rites": 7160,
      "Ġtremp": 7161,
      "Ġennemis": 7162,
      "Ġmagazines": 7163,
      "ĠentraÃ®nÃ©": 7164,
      "ĠdÃ©clara": 7165,
      "Ġsoulage": 7166,
      "identitÃ©": 7167,
      "Ġtortu": 7168,
      "ĠrÃ©serve": 7169,
      "Ġintimi": 7170,
      "ĠcompÃ©tition": 7171,
      "ĠnaÃ¯ve": 7172,
      "ĠsoulevÃ©": 7173,
      "Ġindiv": 7174,
      "Ġbrillante": 7175,
      "ĠcomparÃ©": 7176,
      "Ġinternation": 7177,
      "Ġadolescents": 7178,
      "Ġexplosion": 7179,
      "ĠrÃ©tab": 7180,
      "ĠprocÃ©der": 7181,
      "ĠpropriÃ©taire": 7182,
      "Ġvictimes": 7183,
      "Ġrejoint": 7184,
      "ĠÃ©lectrique": 7185,
      "Ġcommercial": 7186,
      "Ġloge": 7187,
      "ĠparticipÃ©": 7188,
      "Ġpratiquer": 7189,
      "Ġsurface": 7190,
      "Ġtalentueux": 7191,
      "Ġacceptable": 7192,
      "Ġjoyeux": 7193,
      "vingt": 7194,
      "Ġpyj": 7195,
      "Ġabattu": 7196,
      "Ġconcernant": 7197,
      "ĠÃ©lectronique": 7198,
      "Ġgrammaire": 7199,
      "Ġexigences": 7200,
      "Ġtermine": 7201,
      "ĠaccompagnÃ©": 7202,
      "Ġlibrairie": 7203,
      "Ġbudget": 7204,
      "Ġprincesse": 7205,
      "ĠchÃ´mage": 7206,
      "Ã®nmes": 7207,
      "valentin": 7208,
      "ĠdÃ©jeune": 7209,
      "ĠdÃ©verrou": 7210,
      "Ġoptimiste": 7211,
      "iff": 7212,
      "lend": 7213,
      "lles": 7214,
      "land": 7215,
      "monnaie": 7216,
      "ola": 7217,
      "oter": 7218,
      "rine": 7219,
      "roite": 7220,
      "shir": 7221,
      "tent": 7222,
      "tÃ¨rent": 7223,
      "Ġdus": 7224,
      "aigne": 7225,
      "Ã©que": 7226,
      "Ã©reuse": 7227,
      "ension": 7228,
      "Ġsaurais": 7229,
      "Ġjur": 7230,
      "reint": 7231,
      "quant": 7232,
      "Ġagent": 7233,
      "Ġnus": 7234,
      "Ġnuc": 7235,
      "Ġvan": 7236,
      "ĠvÃ©cut": 7237,
      "Ġmenu": 7238,
      "Ġjeans": 7239,
      "ousse": 7240,
      "Ġfoir": 7241,
      "ĠflÃ¨": 7242,
      "lette": 7243,
      "arriÃ¨re": 7244,
      "Ġenr": 7245,
      "Ġprirent": 7246,
      "Ġtristes": 7247,
      "ĠchaÃ®": 7248,
      "ĠchÃ¨vre": 7249,
      "aurions": 7250,
      "Ġpourra": 7251,
      "Ġpartes": 7252,
      "ende": 7253,
      "tiÃ¨res": 7254,
      "Ġlesquelles": 7255,
      "chite": 7256,
      "cif": 7257,
      "ĠgÃ¨re": 7258,
      "Ġrece": 7259,
      "Ġrecon": 7260,
      "ires": 7261,
      "atter": 7262,
      "Ġprover": 7263,
      "ĠaidÃ©e": 7264,
      "ĠrÃ©el": 7265,
      "Ġyen": 7266,
      "ĠinÃ©v": 7267,
      "Ġiniti": 7268,
      "Ġargument": 7269,
      "Ã©sil": 7270,
      "Ġdiscu": 7271,
      "Ã©rÃ©es": 7272,
      "Ġfrites": 7273,
      "Ġgron": 7274,
      "opÃ©ra": 7275,
      "Ġtravaillais": 7276,
      "Ġexcep": 7277,
      "Ġentends": 7278,
      "Ġanxi": 7279,
      "Ġrestait": 7280,
      "Ġrestons": 7281,
      "Ġpartiez": 7282,
      "ĠmangÃ©e": 7283,
      "Ġcomptez": 7284,
      "tenue": 7285,
      "ĠarrivÃ¢mes": 7286,
      "ĠlaissÃ©es": 7287,
      "ĠdÃ©sag": 7288,
      "ĠdÃ©sas": 7289,
      "ĠacquÃ©rir": 7290,
      "Ġcompromis": 7291,
      "ĠpiquÃ©": 7292,
      "Ġbranche": 7293,
      "ĠbrÃ©sil": 7294,
      "Ġarranger": 7295,
      "Ġregardent": 7296,
      "Ġallant": 7297,
      "areil": 7298,
      "Ġavantage": 7299,
      "Ġconserver": 7300,
      "Ġquesti": 7301,
      "ĠdÃ©cisions": 7302,
      "Ġrevenus": 7303,
      "ulti": 7304,
      "ulÃ©e": 7305,
      "Ġrappro": 7306,
      "Ġaddit": 7307,
      "Ġcoul": 7308,
      "Ġtrouverai": 7309,
      "allai": 7310,
      "ĠcommencÃ¨rent": 7311,
      "Ġrencontriez": 7312,
      "Ġsurprend": 7313,
      "Ġfid": 7314,
      "Ġendomm": 7315,
      "Ġaccoutu": 7316,
      "Ġblessures": 7317,
      "Ġretournez": 7318,
      "Ġtrouverez": 7319,
      "Ġoubliez": 7320,
      "Ġtourna": 7321,
      "Ġdisposition": 7322,
      "Ġvivants": 7323,
      "Ġinvest": 7324,
      "Ġutiles": 7325,
      "Ġemplois": 7326,
      "Ġverriez": 7327,
      "ĠÃ©glise": 7328,
      "ommÃ©e": 7329,
      "Ġagi": 7330,
      "ĠvolÃ©e": 7331,
      "Ġreporter": 7332,
      "ouverte": 7333,
      "Ġabsor": 7334,
      "exprimer": 7335,
      "Ġoffrit": 7336,
      "envie": 7337,
      "Ġtyphon": 7338,
      "Ġsymb": 7339,
      "ĠbÃ©bÃ©s": 7340,
      "Ġinterro": 7341,
      "Ġromant": 7342,
      "Ġjaponaises": 7343,
      "Ġnettoie": 7344,
      "Ġconscien": 7345,
      "grÃ©s": 7346,
      "Ġdroits": 7347,
      "Ġvalait": 7348,
      "Ġpublique": 7349,
      "ĠprÃ©fÃ¨rerais": 7350,
      "Ġsouhaitons": 7351,
      "Ġprince": 7352,
      "Ġsouffrir": 7353,
      "Ã©viter": 7354,
      "Ġhorloge": 7355,
      "Ġrecherches": 7356,
      "Ġouverts": 7357,
      "ĠrÃ©gion": 7358,
      "Ġirait": 7359,
      "Ġraconta": 7360,
      "Ġmena": 7361,
      "Ġtimbre": 7362,
      "Ġrecommencer": 7363,
      "ĠarrÃªtÃ©s": 7364,
      "ĠspÃ©cialitÃ©": 7365,
      "infirmiÃ¨re": 7366,
      "ĠmÃ©tier": 7367,
      "Ġtrib": 7368,
      "ĠattaquÃ©": 7369,
      "Ġconduisez": 7370,
      "enseignant": 7371,
      "Ġnormalement": 7372,
      "Ġbienvenus": 7373,
      "Ġfortement": 7374,
      "Ġdisputent": 7375,
      "ambition": 7376,
      "ĠrÃ©cente": 7377,
      "ĠrÃ©comp": 7378,
      "rigez": 7379,
      "ĠespÃ©rait": 7380,
      "ĠÃ©motions": 7381,
      "ĠorganisÃ©e": 7382,
      "Ġespoirs": 7383,
      "ook": 7384,
      "Ġpierres": 7385,
      "ĠlÃ©gal": 7386,
      "Ġtracasse": 7387,
      "Ġtravaillait": 7388,
      "ĠdiplÃ´me": 7389,
      "Ġprincipal": 7390,
      "Ġchauffage": 7391,
      "Ġmettons": 7392,
      "ĠamÃ©liorer": 7393,
      "ĠrÃ©servÃ©": 7394,
      "Ġcigarettes": 7395,
      "Ġpneus": 7396,
      "intÃ©ressant": 7397,
      "Ġdisponibles": 7398,
      "ruption": 7399,
      "Ġgliss": 7400,
      "honneur": 7401,
      "ĠsincÃ¨rement": 7402,
      "Ġimpressionnant": 7403,
      "Ġobjectifs": 7404,
      "Ġnatation": 7405,
      "ĠimpliquÃ©e": 7406,
      "Ġadolescent": 7407,
      "Ġlapins": 7408,
      "ĠforcÃ©s": 7409,
      "Ġchicago": 7410,
      "ĠÃ©lÃ©gant": 7411,
      "hÃ©site": 7412,
      "ustrie": 7413,
      "Ġphares": 7414,
      "oxy": 7415,
      "Ġmicr": 7416,
      "Ġreligion": 7417,
      "ĠÃ©crasÃ©": 7418,
      "...": 7419,
      "Ġconclusion": 7420,
      "Ġramener": 7421,
      "ĠdÃ©fauts": 7422,
      "achÃ¨terais": 7423,
      "ĠrÃ©colte": 7424,
      "ueilli": 7425,
      "ĠdÃ©cevant": 7426,
      "ĠlicenciÃ©": 7427,
      "Ġperplexe": 7428,
      "assurance": 7429,
      "Ġscolaire": 7430,
      "ĠrenvoyÃ©": 7431,
      "Ġdiamant": 7432,
      "ĠrÃ©flexion": 7433,
      "ĠindiffÃ©rent": 7434,
      "Ġoutils": 7435,
      "Ġpollution": 7436,
      "Ġmouvement": 7437,
      "ĠÃ©lÃ©phants": 7438,
      "ĠincompÃ©t": 7439,
      "Ġgrec": 7440,
      "Ġouvriers": 7441,
      "Ġluxe": 7442,
      "Ġcordes": 7443,
      "Ġpagaille": 7444,
      "Ġbritann": 7445,
      "Ġcirconst": 7446,
      "Ã©quemment": 7447,
      "ĠnuclÃ©": 7448,
      "bou": 7449,
      "cou": 7450,
      "don": 7451,
      "idu": 7452,
      "mie": 7453,
      "otes": 7454,
      "otion": 7455,
      "trait": 7456,
      "vier": 7457,
      "vÃ©es": 7458,
      "Ġer": 7459,
      "Ġis": 7460,
      "Ġorte": 7461,
      "Ġpile": 7462,
      "Ġdau": 7463,
      "ession": 7464,
      "ouer": 7465,
      "Ġtiers": 7466,
      "Ġtiennent": 7467,
      "Ġcerv": 7468,
      "Ġsensi": 7469,
      "onz": 7470,
      "ontiers": 7471,
      "quit": 7472,
      "querai": 7473,
      "ĠnÃ©s": 7474,
      "Ġvends": 7475,
      "ĠvÃ®mes": 7476,
      "erte": 7477,
      "Ġfal": 7478,
      "Ġfiez": 7479,
      "ĠfÃ»t": 7480,
      "uns": 7481,
      "eut": 7482,
      "Ġlatin": 7483,
      "ĠbÃ»": 7484,
      "Ġrag": 7485,
      "Ġranger": 7486,
      "Ġtomates": 7487,
      "inions": 7488,
      "arg": 7489,
      "Ġence": 7490,
      "ori": 7491,
      "Ġchass": 7492,
      "auraient": 7493,
      "Ġtue": 7494,
      "Ġtuy": 7495,
      "Ġpourras": 7496,
      "tivement": 7497,
      "cement": 7498,
      "rimin": 7499,
      "onnellement": 7500,
      "ciation": 7501,
      "ĠgÃ©rÃ©": 7502,
      "Ġreine": 7503,
      "Ġhamb": 7504,
      "aliste": 7505,
      "oser": 7506,
      "astr": 7507,
      "assion": 7508,
      "ator": 7509,
      "Ġdut": 7510,
      "Ġoly": 7511,
      "Ġdeviennent": 7512,
      "Ġalli": 7513,
      "ĠrÃ©ception": 7514,
      "Ġmarque": 7515,
      "liquer": 7516,
      "lab": 7517,
      "acitÃ©s": 7518,
      "Ġpeuple": 7519,
      "Ġinse": 7520,
      "Ġarra": 7521,
      "ĠarmÃ©e": 7522,
      "Ġarna": 7523,
      "uisait": 7524,
      "Ã»te": 7525,
      "Ġfrot": 7526,
      "Ġfrustr": 7527,
      "ĠfrÃ©quemment": 7528,
      "Ġsaisis": 7529,
      "Ġtraverse": 7530,
      "ĠgrÃ¨ve": 7531,
      "Ġsachant": 7532,
      "Ġseraient": 7533,
      "agea": 7534,
      "appareil": 7535,
      "Ġextra": 7536,
      "Ġviendrez": 7537,
      "Ġmaladi": 7538,
      "Ġtache": 7539,
      "Ġcompose": 7540,
      "Ġcompassion": 7541,
      "tenez": 7542,
      "ĠcontÃ©": 7543,
      "assistance": 7544,
      "Ġretrait": 7545,
      "adm": 7546,
      "adress": 7547,
      "Ġjouet": 7548,
      "Åĵuv": 7549,
      "Ġfinissons": 7550,
      "Ġbouc": 7551,
      "Ġpartent": 7552,
      "ĠarrÃª": 7553,
      "Ġregardons": 7554,
      "Ġsimples": 7555,
      "Ġallumer": 7556,
      "ancÃ©e": 7557,
      "Ġsupplie": 7558,
      "Ġrevint": 7559,
      "Ġnuits": 7560,
      "attendu": 7561,
      "Ġconfus": 7562,
      "Ġcoupa": 7563,
      "Ġaboyer": 7564,
      "ĠpoÃ¨mes": 7565,
      "Ġadme": 7566,
      "Ġcoule": 7567,
      "Ġcouler": 7568,
      "Ġcoudre": 7569,
      "ĠtÃ©lÃ©phonique": 7570,
      "Ġaffreuse": 7571,
      "Ġpresse": 7572,
      "Ġdurs": 7573,
      "Ġportail": 7574,
      "Ġmentez": 7575,
      "ĠintÃ©ressantes": 7576,
      "ĠdÃ©cid": 7577,
      "Ġchantes": 7578,
      "ĠannoncÃ©": 7579,
      "ĠprÃ©voit": 7580,
      "Ġobst": 7581,
      "Ġblond": 7582,
      "ennuis": 7583,
      "ĠcapacitÃ©s": 7584,
      "Ġimportants": 7585,
      "Ġamusez": 7586,
      "ĠreconnaÃ®tre": 7587,
      "Ġemboute": 7588,
      "Ġdangers": 7589,
      "Ġfondu": 7590,
      "Ġespion": 7591,
      "ĠgÃ©nÃ©reux": 7592,
      "Ġsouciez": 7593,
      "ĠsÃ©rieuses": 7594,
      "ĠsÃ©d": 7595,
      "Ġvolant": 7596,
      "Ġvolontiers": 7597,
      "essayerai": 7598,
      "Ġanglaise": 7599,
      "Ġramp": 7600,
      "Ġchoisit": 7601,
      "Ġapparent": 7602,
      "Ġcalcul": 7603,
      "Ġcria": 7604,
      "ĠÃ©vitÃ©": 7605,
      "Ġracon": 7606,
      "Ġfermier": 7607,
      "Ġgagnera": 7608,
      "Ġmiles": 7609,
      "ĠÃ©levÃ©e": 7610,
      "Ġserviettes": 7611,
      "ĠsauvÃ©e": 7612,
      "coln": 7613,
      "Ġvalable": 7614,
      "Ġweekend": 7615,
      "Ġintelligents": 7616,
      "Ġaimerions": 7617,
      "Ġremarques": 7618,
      "Ġpianiste": 7619,
      "Ġinquiets": 7620,
      "Ã©vanou": 7621,
      "ĠembrassÃ©e": 7622,
      "Ġhonneur": 7623,
      "Ġhoraire": 7624,
      "Ġrechercher": 7625,
      "ĠrÃ©glÃ©": 7626,
      "ĠdÃ©butant": 7627,
      "ĠhonnÃªtetÃ©": 7628,
      "ĠzÃ©ro": 7629,
      "Ġbordel": 7630,
      "ĠennuyÃ©": 7631,
      "ĠindiquÃ©": 7632,
      "Ġcommander": 7633,
      "Ġsuspici": 7634,
      "Ġcerf": 7635,
      "Ġcanadiens": 7636,
      "Ġbouteilles": 7637,
      "Ġaugmente": 7638,
      "Ġalice": 7639,
      "Ġusine": 7640,
      "Ġremett": 7641,
      "Ġjalous": 7642,
      "Ġmarchant": 7643,
      "Ġeurent": 7644,
      "Ġmordre": 7645,
      "ĠrÃ©clam": 7646,
      "Ġscand": 7647,
      "accepte": 7648,
      "fiÃ©e": 7649,
      "Ġambulance": 7650,
      "Ġfourni": 7651,
      "Ġrug": 7652,
      "ĠallumÃ©e": 7653,
      "ĠgÃ©niale": 7654,
      "Ġlimites": 7655,
      "ĠdÃ©cÃ©dÃ©e": 7656,
      "Ġtape": 7657,
      "ĠcensÃ©es": 7658,
      "Ġremplissez": 7659,
      "Ġdomest": 7660,
      "inviter": 7661,
      "ĠcoÃ»tent": 7662,
      "ĠdÃ©Ã§us": 7663,
      "abandonne": 7664,
      "Ġobjection": 7665,
      "Ġanciens": 7666,
      "ĠpÃ©nÃ©trÃ©": 7667,
      "Ġpoursuivre": 7668,
      "ĠrÃ©vÃ©lÃ©": 7669,
      "ĠamÃ©lior": 7670,
      "ĠdÃ©pourvue": 7671,
      "Ġhorriblement": 7672,
      "horloge": 7673,
      "ĠdÃ©placer": 7674,
      "ĠemmenÃ©": 7675,
      "Ġrelations": 7676,
      "Ġattirant": 7677,
      "Ġappuyer": 7678,
      "Ġcouverture": 7679,
      "ĠcoopÃ©ration": 7680,
      "ĠaÃ®nÃ©e": 7681,
      "Ġsoutiens": 7682,
      "Ġmanifestement": 7683,
      "Ġallumette": 7684,
      "ĠtraÃ®ner": 7685,
      "Ġplaignent": 7686,
      "Ġcraindre": 7687,
      "Ġplaisanteries": 7688,
      "Ġadmir": 7689,
      "ĠuniversitÃ©": 7690,
      "Ġraccro": 7691,
      "Ġcramp": 7692,
      "ĠemmÃ¨ne": 7693,
      "ĠopposÃ©": 7694,
      "Ġvertige": 7695,
      "Ġlincoln": 7696,
      "Ġdrapeau": 7697,
      "ĠmÃ©can": 7698,
      "Ã¨nerai": 7699,
      "Ġsemblables": 7700,
      "Ġcroissance": 7701,
      "Ġcontemp": 7702,
      "Ġrideau": 7703,
      "ĠaffamÃ©": 7704,
      "ĠmaÃ®triser": 7705,
      "Ġtitre": 7706,
      "ĠaperÃ§u": 7707,
      "Ġconfirmer": 7708,
      "ĠsupÃ©rieur": 7709,
      "Ġgamin": 7710,
      "ĠdÃ©clen": 7711,
      "imaginais": 7712,
      "Ã©prouve": 7713,
      "Ġconsommer": 7714,
      "Ġcorrespond": 7715,
      "Ġsolide": 7716,
      "Ġsurmonter": 7717,
      "ĠlittÃ©rature": 7718,
      "Ġprononciation": 7719,
      "Ġintroduit": 7720,
      "orthographe": 7721,
      "Ġpharmacie": 7722,
      "Ġpostale": 7723,
      "enverrai": 7724,
      "Ġfrigo": 7725,
      "ĠfoirÃ©": 7726,
      "Ġolymp": 7727,
      "Ġmaladies": 7728,
      "Åĵuvre": 7729,
      "af": 7730,
      "amp": 7731,
      "bib": 7732,
      "book": 7733,
      "cents": 7734,
      "del": 7735,
      "dente": 7736,
      "hy": 7737,
      "lav": 7738,
      "not": 7739,
      "oleur": 7740,
      "pin": 7741,
      "rati": 7742,
      "Ġital": 7743,
      "Ġpin": 7744,
      "Ġpic": 7745,
      "ouÃ©e": 7746,
      "Ã©rez": 7747,
      "eng": 7748,
      "Ġlien": 7749,
      "ĠlouÃ©": 7750,
      "Ġtais": 7751,
      "Ġtiendra": 7752,
      "Ġsers": 7753,
      "Ġjudi": 7754,
      "Ġatro": 7755,
      "Ġvar": 7756,
      "Ġvirent": 7757,
      "Ġmeurs": 7758,
      "ĠdegrÃ©s": 7759,
      "Ġpacif": 7760,
      "Ġjean": 7761,
      "anim": 7762,
      "Ġfeux": 7763,
      "Ġfout": 7764,
      "Ġquere": 7765,
      "tembre": 7766,
      "Ġcependant": 7767,
      "ĠblÃ©": 7768,
      "Ġbra": 7769,
      "Ġro": 7770,
      "Ġrass": 7771,
      "arant": 7772,
      "Ġenqu": 7773,
      "orange": 7774,
      "Ã©to": 7775,
      "Ã©tend": 7776,
      "seau": 7777,
      "avÃ©ra": 7778,
      "Ġplong": 7779,
      "rirai": 7780,
      "rifiÃ©": 7781,
      "cieusement": 7782,
      "ouvant": 7783,
      "ouvrit": 7784,
      "Ġtoubib": 7785,
      "Ġredire": 7786,
      "alphab": 7787,
      "Ġseize": 7788,
      "iront": 7789,
      "ppe": 7790,
      "Ġdanseur": 7791,
      "amus": 7792,
      "atti": 7793,
      "atoire": 7794,
      "atmosphÃ¨re": 7795,
      "Ġdig": 7796,
      "Ġaida": 7797,
      "Ġdevenait": 7798,
      "ĠalitÃ©": 7799,
      "Ġmarron": 7800,
      "urde": 7801,
      "aces": 7802,
      "Ġdisque": 7803,
      "Ġserrer": 7804,
      "Ġserra": 7805,
      "Ġservent": 7806,
      "Ġcrit": 7807,
      "ensable": 7808,
      "Ã®tres": 7809,
      "apparti": 7810,
      "ortez": 7811,
      "aisser": 7812,
      "Ġtrouvaient": 7813,
      "Ġjusque": 7814,
      "Ġjustement": 7815,
      "Ġattendant": 7816,
      "Ġpasserai": 7817,
      "Ġcomptes": 7818,
      "Ġcomport": 7819,
      "Ġcaus": 7820,
      "Ã¢ts": 7821,
      "Ġenfreint": 7822,
      "Ġarrivait": 7823,
      "Ġdemandait": 7824,
      "Ġnoter": 7825,
      "Ġcourts": 7826,
      "ĠlaissÃ©s": 7827,
      "Ġdonnent": 7828,
      "assis": 7829,
      "assÃ©s": 7830,
      "assister": 7831,
      "Ġpostu": 7832,
      "Ġfinis": 7833,
      "Ġbrav": 7834,
      "ĠpartagÃ©": 7835,
      "Ġarrog": 7836,
      "ĠallÃ¢mes": 7837,
      "Ġenvah": 7838,
      "Ġenvoya": 7839,
      "Ġrevue": 7840,
      "Ġrevenez": 7841,
      "Ġsensation": 7842,
      "Ġconfondu": 7843,
      "Ġvoyiez": 7844,
      "ĠderniÃ¨rement": 7845,
      "Ġrestera": 7846,
      "image": 7847,
      "ĠtombÃ©s": 7848,
      "allume": 7849,
      "Ġfaciles": 7850,
      "quiÃ¨me": 7851,
      "Ġexpri": 7852,
      "Ġmaria": 7853,
      "Ġhabits": 7854,
      "ĠexcÃ¨s": 7855,
      "ĠexcusÃ©": 7856,
      "isses": 7857,
      "ĠcarriÃ¨re": 7858,
      "ĠvÃ©ritables": 7859,
      "ĠfiÃ¨res": 7860,
      "ĠfianÃ§": 7861,
      "ĠproposÃ©": 7862,
      "Ġther": 7863,
      "Ġeffor": 7864,
      "Ġeffecti": 7865,
      "Ġrefroid": 7866,
      "ĠdÃ©bord": 7867,
      "habille": 7868,
      "Ġchauve": 7869,
      "Ġconnaissances": 7870,
      "ĠÃ©changÃ©": 7871,
      "Ġprendrais": 7872,
      "Ġremu": 7873,
      "Ġremonte": 7874,
      "ĠÃ©tranges": 7875,
      "Ġreconnus": 7876,
      "ĠprioritÃ©s": 7877,
      "Ġserveur": 7878,
      "Ġgenou": 7879,
      "ĠordonnÃ©": 7880,
      "Ġsaute": 7881,
      "Ġespagnol": 7882,
      "Ġattendais": 7883,
      "Ġagis": 7884,
      "ĠgÃ¢chÃ©": 7885,
      "Ġcalendrier": 7886,
      "ĠapprÃ©cient": 7887,
      "Ġdessiner": 7888,
      "Ġhabitudes": 7889,
      "Ġsuivie": 7890,
      "Ġdrag": 7891,
      "Ġcrimes": 7892,
      "Ġattrapa": 7893,
      "Ġopinions": 7894,
      "ĠÅĵuf": 7895,
      "ĠarrÃªtÃ©es": 7896,
      "Ġcasquette": 7897,
      "ĠcommenÃ§ais": 7898,
      "Ġnettoya": 7899,
      "ĠimaginÃ©e": 7900,
      "ĠsouhaitÃ©": 7901,
      "Ġ25": 7902,
      "ĠinquiÃ©tez": 7903,
      "agnole": 7904,
      "Ġparlaient": 7905,
      "ĠcoincÃ©e": 7906,
      "ĠdÃ©gÃ¢ts": 7907,
      "Ġrecherchent": 7908,
      "Ġsecond": 7909,
      "ĠentendÃ®mes": 7910,
      "Ġfacebook": 7911,
      "ĠgoÃ»te": 7912,
      "Ġavocats": 7913,
      "ĠirrÃ©": 7914,
      "affaires": 7915,
      "Ġatom": 7916,
      "Ġpardonnerai": 7917,
      "Ġrecommande": 7918,
      "ĠglacÃ©e": 7919,
      "ĠeffrayÃ©s": 7920,
      "Ġflam": 7921,
      "Ġsentiras": 7922,
      "Ġressemblez": 7923,
      "Ġdossier": 7924,
      "Ġcomprendrais": 7925,
      "ĠconsidÃ©r": 7926,
      "Ġennuyeuse": 7927,
      "Ġchantez": 7928,
      "ĠdÃ©testes": 7929,
      "ĠdÃ©testait": 7930,
      "ĠsemblÃ©": 7931,
      "ĠlevÃ©e": 7932,
      "ĠbrÃ»ler": 7933,
      "Ġpeinte": 7934,
      "appelait": 7935,
      "Ġcherchent": 7936,
      "Ġpossibles": 7937,
      "Ġcompagnon": 7938,
      "ĠlycÃ©": 7939,
      "Ġmarchait": 7940,
      "Ġrecommander": 7941,
      "Ġsubi": 7942,
      "Ġsubir": 7943,
      "Ġvein": 7944,
      "Ġtrembler": 7945,
      "Ġ197": 7946,
      "Ġdommages": 7947,
      "Ġgrimpe": 7948,
      "invitation": 7949,
      "effond": 7950,
      "Ġoreiller": 7951,
      "ĠÃ©chapper": 7952,
      "Ġprincipale": 7953,
      "Ġchiff": 7954,
      "Ġcousine": 7955,
      "ĠÃ©conomique": 7956,
      "ĠÃ©conomiser": 7957,
      "ĠdÃ©moc": 7958,
      "Ġpuissant": 7959,
      "horreur": 7960,
      "Ã©lection": 7961,
      "Ġconduirai": 7962,
      "Ġmajeure": 7963,
      "ĠcompÃ©tent": 7964,
      "Ġparesseuse": 7965,
      "ĠexigÃ©": 7966,
      "Ġponctuelle": 7967,
      "Ġflexi": 7968,
      "ĠvirÃ©e": 7969,
      "Ġjugement": 7970,
      "ĠparticuliÃ¨re": 7971,
      "entraÃ®nement": 7972,
      "ĠimpressionnÃ©s": 7973,
      "obligez": 7974,
      "ĠgÃªnÃ©": 7975,
      "ĠrÃ©sid": 7976,
      "ĠcompliquÃ©e": 7977,
      "ĠaÃ®nÃ©": 7978,
      "Ġautomatique": 7979,
      "Ġpoursuivi": 7980,
      "Ġassiette": 7981,
      "Ġphotographie": 7982,
      "ĠmenacÃ©": 7983,
      "Ġmoustiques": 7984,
      "industrie": 7985,
      "ĠenlevÃ©": 7986,
      "Ġcommerciale": 7987,
      "Ġgosses": 7988,
      "Ġinspiration": 7989,
      "Ġbaignoire": 7990,
      "ĠconsidÃ©rer": 7991,
      "Ġreproduire": 7992,
      "ĠcomprÃ©hensi": 7993,
      "Ġexigea": 7994,
      "Ġhaw": 7995,
      "Ġbruyant": 7996,
      "ĠcollÃ¨ge": 7997,
      "Ġlabeur": 7998,
      "demain": 7999
    },
    "merges": [
      [
        "Ġ",
        "p"
      ],
      [
        "Ġ",
        "d"
      ],
      [
        "a",
        "i"
      ],
      [
        "e",
        "s"
      ],
      [
        "o",
        "u"
      ],
      [
        "Ã",
        "©"
      ],
      [
        "e",
        "n"
      ],
      [
        "Ġ",
        "l"
      ],
      [
        "Ġ",
        "t"
      ],
      [
        "Ġ",
        "c"
      ],
      [
        "Ġ",
        "s"
      ],
      [
        "Ġ",
        "j"
      ],
      [
        "r",
        "e"
      ],
      [
        "o",
        "n"
      ],
      [
        "q",
        "u"
      ],
      [
        "Ġ",
        "a"
      ],
      [
        "Ġ",
        "n"
      ],
      [
        "Ġ",
        "v"
      ],
      [
        "Ġ",
        "m"
      ],
      [
        "e",
        "r"
      ],
      [
        "Ġ",
        "qu"
      ],
      [
        "Ġd",
        "e"
      ],
      [
        "Ġp",
        "a"
      ],
      [
        "Ġj",
        "e"
      ],
      [
        "ou",
        "s"
      ],
      [
        "i",
        "l"
      ],
      [
        "o",
        "i"
      ],
      [
        "a",
        "n"
      ],
      [
        "Ġ",
        "Ã"
      ],
      [
        "Ġ",
        "f"
      ],
      [
        "en",
        "t"
      ],
      [
        "o",
        "m"
      ],
      [
        "l",
        "e"
      ],
      [
        "es",
        "t"
      ],
      [
        "Ġqu",
        "e"
      ],
      [
        "Ġpa",
        "s"
      ],
      [
        "ai",
        "s"
      ],
      [
        "u",
        "n"
      ],
      [
        "Ġ",
        "?"
      ],
      [
        "e",
        "u"
      ],
      [
        "i",
        "s"
      ],
      [
        "ĠÃ",
        "ł"
      ],
      [
        "Ġ",
        "un"
      ],
      [
        "Ġn",
        "e"
      ],
      [
        "t",
        "e"
      ],
      [
        "Ġl",
        "e"
      ],
      [
        "ou",
        "r"
      ],
      [
        "Ġl",
        "a"
      ],
      [
        "Ġc",
        "e"
      ],
      [
        "Ġ",
        "b"
      ],
      [
        "Ġv",
        "ous"
      ],
      [
        "Ġ",
        "il"
      ],
      [
        "Ġ",
        "r"
      ],
      [
        "ai",
        "t"
      ],
      [
        "e",
        "z"
      ],
      [
        "Ã",
        "¨"
      ],
      [
        "i",
        "t"
      ],
      [
        "Ġt",
        "om"
      ],
      [
        "i",
        "n"
      ],
      [
        "Ġ",
        "est"
      ],
      [
        "e",
        "l"
      ],
      [
        "a",
        "r"
      ],
      [
        "Ġ",
        "en"
      ],
      [
        "Ġs",
        "u"
      ],
      [
        "Ġp",
        "r"
      ],
      [
        "o",
        "r"
      ],
      [
        "u",
        "s"
      ],
      [
        "Ã©",
        "t"
      ],
      [
        "Ġt",
        "r"
      ],
      [
        "Ġc",
        "h"
      ],
      [
        "m",
        "ent"
      ],
      [
        "Ġa",
        "v"
      ],
      [
        "t",
        "re"
      ],
      [
        "s",
        "e"
      ],
      [
        "a",
        "u"
      ],
      [
        "Ġt",
        "u"
      ],
      [
        "Ġp",
        "our"
      ],
      [
        "Ġn",
        "ous"
      ],
      [
        "on",
        "s"
      ],
      [
        "Ġpa",
        "r"
      ],
      [
        "eu",
        "x"
      ],
      [
        "an",
        "t"
      ],
      [
        "el",
        "le"
      ],
      [
        "t",
        "u"
      ],
      [
        "en",
        "d"
      ],
      [
        "m",
        "e"
      ],
      [
        "t",
        "i"
      ],
      [
        "a",
        "v"
      ],
      [
        "on",
        "t"
      ],
      [
        "Ġa",
        "u"
      ],
      [
        "c",
        "e"
      ],
      [
        "Ġl",
        "es"
      ],
      [
        "Ġm",
        "e"
      ],
      [
        "Ġun",
        "e"
      ],
      [
        "c",
        "h"
      ],
      [
        "Ġc",
        "om"
      ],
      [
        "Ġp",
        "l"
      ],
      [
        "r",
        "i"
      ],
      [
        "on",
        "n"
      ],
      [
        "c",
        "i"
      ],
      [
        "Ã",
        "ª"
      ],
      [
        "Ġ",
        "Ã©t"
      ],
      [
        "Ġ",
        "g"
      ],
      [
        "ai",
        "re"
      ],
      [
        "ou",
        "v"
      ],
      [
        "v",
        "ous"
      ],
      [
        "m",
        "p"
      ],
      [
        "i",
        "en"
      ],
      [
        "Ġt",
        "ou"
      ],
      [
        "ai",
        "n"
      ],
      [
        "Ġsu",
        "is"
      ],
      [
        "Ġt",
        "e"
      ],
      [
        "e",
        "t"
      ],
      [
        "Ġ",
        "re"
      ],
      [
        "Ã©",
        "e"
      ],
      [
        "Ġ",
        "h"
      ],
      [
        "oi",
        "r"
      ],
      [
        "d",
        "e"
      ],
      [
        "Ġd",
        "Ã©"
      ],
      [
        "t",
        "es"
      ],
      [
        "an",
        "s"
      ],
      [
        "a",
        "l"
      ],
      [
        "o",
        "s"
      ],
      [
        "oi",
        "s"
      ],
      [
        "Ã¨",
        "re"
      ],
      [
        "Ġs",
        "e"
      ],
      [
        "a",
        "g"
      ],
      [
        "a",
        "s"
      ],
      [
        "qu",
        "e"
      ],
      [
        "Ġf",
        "aire"
      ],
      [
        "Ġ",
        "elle"
      ],
      [
        "ĠÃ",
        "ª"
      ],
      [
        "Ġque",
        "l"
      ],
      [
        "Ġm",
        "on"
      ],
      [
        "i",
        "e"
      ],
      [
        "§",
        "a"
      ],
      [
        "i",
        "r"
      ],
      [
        "Ġ",
        "!"
      ],
      [
        "ĠÃ",
        "§a"
      ],
      [
        "p",
        "p"
      ],
      [
        "Ġs",
        "i"
      ],
      [
        "r",
        "es"
      ],
      [
        "Ġd",
        "ans"
      ],
      [
        "a",
        "m"
      ],
      [
        "Ġ",
        "i"
      ],
      [
        "Ġp",
        "en"
      ],
      [
        "Ġd",
        "es"
      ],
      [
        "u",
        "i"
      ],
      [
        "Ġpl",
        "us"
      ],
      [
        "l",
        "es"
      ],
      [
        "l",
        "er"
      ],
      [
        "e",
        "c"
      ],
      [
        "Ġqu",
        "i"
      ],
      [
        "Ġf",
        "ait"
      ],
      [
        "Ã¨",
        "s"
      ],
      [
        "a",
        "t"
      ],
      [
        "Ġd",
        "u"
      ],
      [
        "Ġpr",
        "o"
      ],
      [
        "Ġd",
        "i"
      ],
      [
        "an",
        "d"
      ],
      [
        "Ġa",
        "s"
      ],
      [
        "eu",
        "r"
      ],
      [
        "Ġtou",
        "t"
      ],
      [
        "Ġ",
        "o"
      ],
      [
        "Ġv",
        "eux"
      ],
      [
        "Ġv",
        "o"
      ],
      [
        "an",
        "g"
      ],
      [
        "Ġ",
        "ai"
      ],
      [
        "Ġde",
        "v"
      ],
      [
        "l",
        "Ã©"
      ],
      [
        "Ġa",
        "l"
      ],
      [
        "b",
        "le"
      ],
      [
        "Ġr",
        "Ã©"
      ],
      [
        "Ġ",
        "Ã©"
      ],
      [
        "Ġav",
        "ec"
      ],
      [
        "s",
        "i"
      ],
      [
        "Ġm",
        "ar"
      ],
      [
        "l",
        "i"
      ],
      [
        "er",
        "s"
      ],
      [
        "Ġce",
        "t"
      ],
      [
        "l",
        "a"
      ],
      [
        "oi",
        "n"
      ],
      [
        "Ġ",
        "es"
      ],
      [
        "Ġ",
        "e"
      ],
      [
        "r",
        "ai"
      ],
      [
        "e",
        "au"
      ],
      [
        "Ġsu",
        "r"
      ],
      [
        "Ġ",
        "y"
      ],
      [
        "u",
        "r"
      ],
      [
        "il",
        "le"
      ],
      [
        "a",
        "c"
      ],
      [
        "or",
        "t"
      ],
      [
        "Ġp",
        "eu"
      ],
      [
        "Ġ",
        "in"
      ],
      [
        "m",
        "es"
      ],
      [
        "i",
        "v"
      ],
      [
        "Ã",
        "ł"
      ],
      [
        "Ġ",
        "et"
      ],
      [
        "mp",
        "s"
      ],
      [
        "f",
        "f"
      ],
      [
        "ĠÃª",
        "tes"
      ],
      [
        "Ġv",
        "ou"
      ],
      [
        "Ġs",
        "ont"
      ],
      [
        "p",
        "r"
      ],
      [
        "Ġc",
        "on"
      ],
      [
        "Ġs",
        "on"
      ],
      [
        "end",
        "re"
      ],
      [
        "onn",
        "e"
      ],
      [
        "i",
        "er"
      ],
      [
        "Ġcet",
        "te"
      ],
      [
        "Ġd",
        "it"
      ],
      [
        "o",
        "se"
      ],
      [
        "Ġa",
        "r"
      ],
      [
        "u",
        "t"
      ],
      [
        "Ġm",
        "a"
      ],
      [
        "i",
        "on"
      ],
      [
        "a",
        "ti"
      ],
      [
        "r",
        "ais"
      ],
      [
        "ou",
        "p"
      ],
      [
        "Ã©",
        "s"
      ],
      [
        "Ġtr",
        "Ã¨s"
      ],
      [
        "Ġp",
        "eux"
      ],
      [
        "u",
        "x"
      ],
      [
        "Ġm",
        "ais"
      ],
      [
        "Ġm",
        "oi"
      ],
      [
        "Ġvo",
        "tre"
      ],
      [
        "Ġce",
        "la"
      ],
      [
        "ai",
        "l"
      ],
      [
        "u",
        "is"
      ],
      [
        "ar",
        "d"
      ],
      [
        "Ġl",
        "ui"
      ],
      [
        "Ġte",
        "mps"
      ],
      [
        "ĠÃª",
        "tre"
      ],
      [
        "Ġd",
        "is"
      ],
      [
        "Ġde",
        "m"
      ],
      [
        "qu",
        "oi"
      ],
      [
        "Ġpour",
        "quoi"
      ],
      [
        "Ġpen",
        "s"
      ],
      [
        "j",
        "our"
      ],
      [
        "Ã",
        "»"
      ],
      [
        "c",
        "o"
      ],
      [
        "Ã©",
        "r"
      ],
      [
        "ĠÃ©t",
        "ait"
      ],
      [
        "Ġv",
        "rai"
      ],
      [
        "Ġf",
        "r"
      ],
      [
        "Ġs",
        "ais"
      ],
      [
        "Ġa",
        "m"
      ],
      [
        "ĠÃ©t",
        "Ã©"
      ],
      [
        "d",
        "i"
      ],
      [
        "Ã",
        "´"
      ],
      [
        "Ġtr",
        "av"
      ],
      [
        "Ġav",
        "ez"
      ],
      [
        "Ġpen",
        "se"
      ],
      [
        "Ġp",
        "ouv"
      ],
      [
        "oi",
        "t"
      ],
      [
        "Ġg",
        "r"
      ],
      [
        "t",
        "Ã©"
      ],
      [
        "Ġs",
        "a"
      ],
      [
        "Ġs",
        "er"
      ],
      [
        "Ġj",
        "am"
      ],
      [
        "o",
        "l"
      ],
      [
        "ri",
        "v"
      ],
      [
        "Ġch",
        "ose"
      ],
      [
        "Ġil",
        "s"
      ],
      [
        "a",
        "p"
      ],
      [
        "ag",
        "e"
      ],
      [
        "g",
        "n"
      ],
      [
        "t",
        "er"
      ],
      [
        "Ã",
        "§"
      ],
      [
        "el",
        "les"
      ],
      [
        "j",
        "e"
      ],
      [
        "Ġc",
        "r"
      ],
      [
        "Ġa",
        "pp"
      ],
      [
        "Ġi",
        "ci"
      ],
      [
        "en",
        "s"
      ],
      [
        "Ã",
        "®"
      ],
      [
        "Ġjam",
        "ais"
      ],
      [
        "Ã",
        "¹"
      ],
      [
        "o",
        "t"
      ],
      [
        "o",
        "p"
      ],
      [
        "ch",
        "e"
      ],
      [
        "m",
        "er"
      ],
      [
        "u",
        "e"
      ],
      [
        "Ġb",
        "ien"
      ],
      [
        "Ġh",
        "eu"
      ],
      [
        "Ġcom",
        "ment"
      ],
      [
        "Ġtrav",
        "ail"
      ],
      [
        "a",
        "pp"
      ],
      [
        "Ġp",
        "ers"
      ],
      [
        "Ġs",
        "av"
      ],
      [
        "Ġo",
        "Ã¹"
      ],
      [
        "Ġb",
        "eau"
      ],
      [
        "Ġdi",
        "re"
      ],
      [
        "Ġvrai",
        "ment"
      ],
      [
        "or",
        "te"
      ],
      [
        "a",
        "ble"
      ],
      [
        "Ġe",
        "x"
      ],
      [
        "Ġt",
        "on"
      ],
      [
        "Ġ",
        "ent"
      ],
      [
        "Ġquel",
        "que"
      ],
      [
        "ais",
        "s"
      ],
      [
        "Ġa",
        "n"
      ],
      [
        "Ġs",
        "om"
      ],
      [
        "o",
        "y"
      ],
      [
        "i",
        "Ã¨re"
      ],
      [
        "Ġj",
        "our"
      ],
      [
        "c",
        "u"
      ],
      [
        "un",
        "e"
      ],
      [
        "t",
        "t"
      ],
      [
        "it",
        "Ã©"
      ],
      [
        "Ġt",
        "ous"
      ],
      [
        "m",
        "oi"
      ],
      [
        "Ġt",
        "oi"
      ],
      [
        "Ãª",
        "te"
      ],
      [
        "re",
        "r"
      ],
      [
        "au",
        "t"
      ],
      [
        "Ġs",
        "eu"
      ],
      [
        "u",
        "it"
      ],
      [
        "es",
        "s"
      ],
      [
        "c",
        "oup"
      ],
      [
        "es",
        "oin"
      ],
      [
        "Ġb",
        "esoin"
      ],
      [
        "Ġbeau",
        "coup"
      ],
      [
        "Ġtr",
        "ouv"
      ],
      [
        "Ġpr",
        "Ã©"
      ],
      [
        "Ġr",
        "est"
      ],
      [
        "Ġpeu",
        "t"
      ],
      [
        "Ġ",
        "on"
      ],
      [
        "b",
        "re"
      ],
      [
        "Ġm",
        "ain"
      ],
      [
        "tu",
        "re"
      ],
      [
        "r",
        "Ã©"
      ],
      [
        "Ġv",
        "i"
      ],
      [
        "n",
        "e"
      ],
      [
        "Ġsom",
        "mes"
      ],
      [
        "g",
        "ent"
      ],
      [
        "Ġj",
        "us"
      ],
      [
        "Ġv",
        "oi"
      ],
      [
        "i",
        "ez"
      ],
      [
        "en",
        "ir"
      ],
      [
        "a",
        "b"
      ],
      [
        "Ġpar",
        "ti"
      ],
      [
        "Ġvou",
        "l"
      ],
      [
        "Ġm",
        "es"
      ],
      [
        "Ġav",
        "ons"
      ],
      [
        "Ġf",
        "er"
      ],
      [
        "Ġm",
        "ang"
      ],
      [
        "Ġpers",
        "onne"
      ],
      [
        "le",
        "z"
      ],
      [
        "Ãª",
        "tre"
      ],
      [
        "Ġ",
        "ont"
      ],
      [
        "or",
        "s"
      ],
      [
        "l",
        "Ã¨"
      ],
      [
        "Ġquel",
        "qu"
      ],
      [
        "Ġm",
        "al"
      ],
      [
        "Ġpar",
        "ler"
      ],
      [
        "Ġal",
        "ler"
      ],
      [
        "Ġse",
        "m"
      ],
      [
        "Ġv",
        "a"
      ],
      [
        "Ġr",
        "ien"
      ],
      [
        "Ġa",
        "tt"
      ],
      [
        "le",
        "ment"
      ],
      [
        "Ġf",
        "ais"
      ],
      [
        "Ġcom",
        "me"
      ],
      [
        "Ġpas",
        "s"
      ],
      [
        "Ġl",
        "Ãł"
      ],
      [
        "Ġtr",
        "ain"
      ],
      [
        "Ãª",
        "me"
      ],
      [
        "Ġmar",
        "y"
      ],
      [
        "Ġheu",
        "re"
      ],
      [
        "ati",
        "on"
      ],
      [
        "en",
        "c"
      ],
      [
        "Ġmais",
        "on"
      ],
      [
        "an",
        "ce"
      ],
      [
        "d",
        "er"
      ],
      [
        "a",
        "y"
      ],
      [
        "Ã©",
        "es"
      ],
      [
        "a",
        "Ã®"
      ],
      [
        "Ġde",
        "ux"
      ],
      [
        "Ã©t",
        "ait"
      ],
      [
        "Ġas",
        "s"
      ],
      [
        "Ġp",
        "er"
      ],
      [
        "Ġtr",
        "op"
      ],
      [
        "g",
        "e"
      ],
      [
        "Ġtou",
        "jour"
      ],
      [
        "Ġtoujour",
        "s"
      ],
      [
        "Ġqu",
        "oi"
      ],
      [
        "Ġv",
        "oir"
      ],
      [
        "il",
        "e"
      ],
      [
        "Ġ",
        "elles"
      ],
      [
        "Ġt",
        "a"
      ],
      [
        "ai",
        "me"
      ],
      [
        "v",
        "e"
      ],
      [
        "Ġn",
        "ouv"
      ],
      [
        "iv",
        "re"
      ],
      [
        "Ġb",
        "on"
      ],
      [
        "oi",
        "re"
      ],
      [
        "Ġqu",
        "and"
      ],
      [
        "Ġpro",
        "b"
      ],
      [
        "Ġcom",
        "p"
      ],
      [
        "u",
        "re"
      ],
      [
        "t",
        "en"
      ],
      [
        "Ġc",
        "ont"
      ],
      [
        "co",
        "re"
      ],
      [
        "il",
        "s"
      ],
      [
        "Ġc",
        "a"
      ],
      [
        "Ġen",
        "core"
      ],
      [
        "Ã",
        "¢"
      ],
      [
        "r",
        "ait"
      ],
      [
        "Ġen",
        "f"
      ],
      [
        "us",
        "si"
      ],
      [
        "Ġar",
        "riv"
      ],
      [
        "Ġv",
        "eu"
      ],
      [
        "Ġp",
        "uis"
      ],
      [
        "Ġmon",
        "de"
      ],
      [
        "or",
        "m"
      ],
      [
        "Ġl",
        "i"
      ],
      [
        "or",
        "d"
      ],
      [
        "e",
        "m"
      ],
      [
        "ant",
        "s"
      ],
      [
        "Ġc",
        "onn"
      ],
      [
        "ĠÃ©",
        "c"
      ],
      [
        "in",
        "e"
      ],
      [
        "Ġre",
        "g"
      ],
      [
        "Ã´",
        "t"
      ],
      [
        "Ġ",
        "ou"
      ],
      [
        "end",
        "s"
      ],
      [
        "Ġdem",
        "and"
      ],
      [
        "er",
        "t"
      ],
      [
        "ch",
        "er"
      ],
      [
        "Ġs",
        "oit"
      ],
      [
        "Ġcom",
        "b"
      ],
      [
        "en",
        "ce"
      ],
      [
        "ai",
        "r"
      ],
      [
        "Ġs",
        "es"
      ],
      [
        "Ġav",
        "oir"
      ],
      [
        "Ġf",
        "aut"
      ],
      [
        "ain",
        "e"
      ],
      [
        "Ġn",
        "o"
      ],
      [
        "i",
        "ons"
      ],
      [
        "Ġcom",
        "m"
      ],
      [
        "Ġd",
        "ois"
      ],
      [
        "Ġvoi",
        "ture"
      ],
      [
        "i",
        "c"
      ],
      [
        "Ġi",
        "mp"
      ],
      [
        "Ġc",
        "our"
      ],
      [
        "Ġl",
        "aiss"
      ],
      [
        "Ġd",
        "onn"
      ],
      [
        "ien",
        "s"
      ],
      [
        "es",
        "p"
      ],
      [
        "Ã©t",
        "ais"
      ],
      [
        "Ġd",
        "er"
      ],
      [
        "as",
        "s"
      ],
      [
        "mer",
        "ais"
      ],
      [
        "an",
        "te"
      ],
      [
        "d",
        "re"
      ],
      [
        "ĠdÃ©",
        "s"
      ],
      [
        "Ġp",
        "os"
      ],
      [
        "Ġa",
        "c"
      ],
      [
        "i",
        "gn"
      ],
      [
        "Ġcomb",
        "ien"
      ],
      [
        "ĠrÃ©",
        "p"
      ],
[...]
